#version: 0.2 - Trained by `huggingface/tokenizers`
▁ t
▁ c
n h
▁ đ
▁ ,
_ t
▁ v
▁ n
▁t h
▁ .
▁c h
▁ l
▁ k
▁ h
▁ b
▁ m
n _
▁t r
▁ nh
p h
▁ s
▁k h
i ệ
ô n
g _
▁n g
▁ g
c h
q u
n g_
▁v à
▁ d
i _
▁ ph
ôn g
ê n
_t h
a n
nh _
á c
ư ờ
o n
i ế
_t r
▁ T
▁g i
t _
▁c ủ
▁củ a
ớ i
▁ qu
u y
▁l à
ư ợ
▁ r
▁ x
▁c ó
ạ i
on g
c _
▁ 1
▁c ác
▁ 2
u _
i ề
m _
à y
ượ c
ơ n
▁tr ong
ấ t
▁ -
ư ớ
▁đ ược
à n
ộ t
▁ch o
_ đ
▁ C
ì nh
▁v ới
iệ n
â n
á n
i ể
▁m ột
▁đ ã
a y
ườ i
▁kh ông
g i
_ h
▁ N
a o
▁ng ười
ầ n
i ên
▁ )
iề u
ă n
ướ c
a i
▁ H
ầ u
ườ n
ố n
▁ (
ườn g
an g
ữ n
ữn g
▁nh ư
▁ "
â y
▁ /
0 0
ả i
a nh
ồ n
▁ :
▁nh ững
i nh
i ê
ứ c
_ d
_ l
ả n
ò n
ế n
ư ơn
ă m
ươn g
i n
ôn g_
▁đ ể
g h
ậ n
_ s
à nh
ạ n
k h
▁n ày
▁ B
▁ V
a m
ô i
á ch
▁T h
▁t ừ
▁v ề
▁kh i
e o
▁ Đ
▁n ăm
â n_
ồn g
á o
ộ i
_ n
a u
▁đ ó
▁ ở
àn g
▁đ ến
▁r a
▁h o
ũ n
ũn g
ù n
iế n
ốn g
ố i
▁t ại
▁ 3
ùn g
ự c
ị nh
ộ n
▁và o
▁v iệ
ậ p
▁tr ên
n_ đ
u n
▁ M
▁2 0
▁ng ày
ộn g
▁c ũng
ăn g
á t
ụ c
ậ t
a _
▁ng h
ế t
í nh
▁nh iều
ố c
▁s ẽ
à i
án g
iế t
▁ S
▁nh à
▁T r
ấ y
un g
n gh
ấ p
▁qu y
▁ L
ả o
▁th ể
▁th eo
▁ph ải
ượ n
_ c
ấ t_
à nh_
ượn g
_ ch
e r
ọ c
▁b ị
ổ i
▁c ông_
▁ P
▁20 1
▁s ố
ư a
ông _t
ị ch
ạ o
_ v
n_ l
u ộ
á p
ự c_
n_ h
▁ch ỉ
ằ n
t_ đ
iệ u
ằn g
▁t ổ
▁l ại
▁đ ầu
ờ i
▁ ;
iể m
▁là m
á i
▁ ông
í ch
ư ở
▁ 4
▁C h
à o
▁c ơ
▁d o
ợ p
uy ệ
ẫ n
e n
iệ p
▁ K
_ b
▁c ả
n_ b
a nh_
▁ 5
▁N g
_ nh
▁m à
òn g
a r
u ng_
▁việ c
ì nh_
▁s ự
▁qu a
▁c òn
▁s au
ọ n
ễ n
▁h ơn
▁x e
▁như n
▁nhưn g
▁t iế
▁gi á
ề n
ưở n
ưởn g
ắ n
h iện
i nh_
ú n
▁n ó
ụ n
ún g
uộ c
ụn g
▁th ì
ú c
i a
ỉ nh
▁đ ang
▁đ ồng
▁đ i
▁ A
a l
▁kh o
▁b iết
i_ đ
▁n ước
_ ph
_ m
▁th ực_
▁ anh
▁t ôi
▁ y
▁nh ất
uyệ n
ản g
▁h ọ
▁ D
qu an
▁m ới
ư ơ
▁gi ả
o ại
iê n_
à i_
▁th u
_t ế
▁tr ước
â m
▁ G
iể n
ạ t
ạ i_
ng_ h
o àn
▁P h
▁ 6
▁r ất
ữ a
ặ t
▁N h
ơ i
Q u
a m_
▁th áng
▁d ự
o ài
_đ ịnh
▁ch ủ
ng_ đ
▁t u
ả n_
▁x u
▁đ ề
▁th ành_
í nh_
▁th ế
▁m ình
á y
▁đầu _t
▁m u
▁l ên
▁t ỉnh
e m
ồ i
u ật
_tr ình
ấ u
▁b ộ
ế u
▁ch uy
▁ng uy
▁v ì
ngh iệp
ắ c
ạ nh
ắ t
▁h à
ng_ c
▁ch iế
gi a
▁đ ộ
▁đ iều
▁c ao
_tr ường
▁t uy
ọn g
iề n
á nh
ả nh
▁đ ối
v iên
ạ ch
n_ n
ấ n
ạ m
ó a
▁c ông_t
e s
▁th ờ
▁ 7
iệ t
_ gi
ạn g
▁n ên
ặ c
▁v ẫn
▁c ùng
iệ m
▁kh ác
▁k ế
▁l ớ
▁th ị
▁t ới
▁x ã
i m
ố c_
▁đ ị
▁đ ây
▁h ai
â u
_ch ức
ứ n
ứn g
▁v ậ
▁1 0
▁ a
t_ n
▁gi a
i_ ph
▁thực_ hiện
00 0
_d ụng
ươ ng_
▁c on
o r
e l
▁ 8
▁s ử
▁qu ả
iệ t_
u ất
iề u_
▁tổ _chức
▁tiế p
▁b ạn
▁ch ứ
ó n
▁ u
iệ c
▁ p
▁nó i
▁ 0
▁c á
▁t ăng
qu y
ố t
ê m
iể u
▁r ằng
▁ph á
▁t a
▁1 9
ắn g
ú t
▁c ô
▁ch ưa
▁c o
▁th ủ
▁s ản_
▁ 9
▁nh ân_
. 000
ẩ m
ố i_
_tr a
ướ n
l ượng
ướn g
▁d ân
▁ch ính
▁b ảo
n_ c
▁c ần
ự n
ựn g
n_ v
▁ Qu
▁ch ính_
_ k
▁lớ n
▁gi ao
▁t ài_
▁ph át
▁l ần
▁d i
_ quan
_t ục
▁c ách
nh ân
▁h iệ
▁thờ i_
_h ội
▁ch ị
ọ i
_ kh
▁c ấp
▁K h
u_ h
▁đ á
▁th am_
▁x ây
▁đầu_t ư
N am
_ án
gi an
▁đ ồ
ỗ i
_d ựng
e t
▁n ào
▁th ấy
▁ch úng
ử a
▁h ay
v ực
▁b à
▁qu á
▁tr iệu
ê n_
ón g
▁ U
▁2 00
u_ c
▁đ ường
▁th ứ
ừ a
t_đ ộng
▁sử _dụng
▁t ự
▁. .
▁.. .
_n gh
▁th iế
iê u
▁ph ụ
▁t ỷ
▁kh á
_th ống
▁đ ưa
▁ho ạ
t_n am
ộ i_
m_ v
ỏ i
▁việ t_nam
▁V iệt_
▁đ ại_
▁h àng
▁v ụ
▁đị a_
▁hoạ t_động
▁xây _dựng
_tr iển
qu ả
▁Việt_ Nam
▁h ành_
_đ ộng
▁quy _định
▁b ằng
▁b a
▁kh ó
▁ ?
▁tr ở
▁đ iều_
i s
▁t iền
ể n
_th ành
▁ '
_t âm
▁b án
▁b ệ
▁ho ặc
▁n ếu
▁cơ _quan
▁1 2
▁phát _triển
▁y ê
i t
▁c u
▁t o
▁h uyện
é p
▁b áo
_th ức
x uất
ú p
ng_ b
▁tu ổi
ừ n
ừn g
a t
▁v ă
▁h ạ
ặ n
i l
_tr ị
ạ c
▁H à
_tr ưởng
▁ em
▁thời_ gian
i c
_h o
ng_ s
▁th ông_t
▁qu ốc_
m_ đ
▁nh ận
ằ m
d ân
▁k inh_
▁kho ảng
n_l ý
u ận
d o
▁l ã
uy ền
▁giả m
▁c uộc
▁t ập
▁phá t_
▁b ên
▁h iện
▁tr ung_
▁do anh_
_th ể
ph ố
▁1 1
▁ng oài
▁vậ y
a s
▁xu ất_
▁c ổ
ư ới
▁h ợp
ế t_đ
ả y
▁tr ẻ
▁s o
▁công_t y
ủ y
▁kh iến
▁n ay
▁ R
ng_ l
_tr ọng
▁mu a
▁đ iện
â u_
_đ ình
▁đ ơ
▁t ình_
▁nh iên
m_ s
r o
▁th êm
▁ I
c_ s
▁kế t_
c_ n
▁đề u
▁h ồ
▁quả n_lý
_ N
ph ẩm
ết_đ ịnh
▁l u
▁g ây
▁gi ờ
▁m áy
▁ f
▁g ì
é t
ặ p
▁ X
▁G i
inh _tế
ch ính
▁thông_t in
▁l iên_
▁b u
_th ông
ng_ k
▁doanh_ nghiệp
▁t ì
ầ m
uy ên
n_ ch
c_ b
▁ =
▁m ức
_t ượng
ở i
▁gia _đình
▁gi úp
▁gi ữa
_l ý
▁chiế c
u_ vực
▁nh au
▁từ n
▁từn g
▁B ộ
u_c ầu
▁đ ất
c_ đ
▁đ iểm
_ g
▁kh ách
▁ph í
▁g ần
à u
▁dự _án
qu ốc
n_ ph
_ho ạch
s ách
ấ n_đ
▁kh u_vực
▁ !
ẳ n
▁v ừa
a _h
ậ u
▁k inh_tế
o án
o l
i d
_t ịch
▁tổ n
▁m ẹ
▁thành_ phố
ph ủ
ẹ p
▁th uộc
ư u
n_ d
ợ i
▁m ang
▁l o
▁thị _trường
▁h ọc
▁g h
ò a
▁m ỹ
iến g
▁r ồi
▁l oại
_th ủ
_s ở
ứ u
_tr ợ
▁l úc
▁n ơi
_gi ới
▁tr ường
▁t ốt
n_ s
▁quy ết_định
▁đ ặ
ầ y
ắ c_
▁gi ải
▁Ng uy
▁qu an
ư n
▁b ao
ưn g
▁kh u
ặn g
ạ y
▁sản_ xuất
▁ph áp
▁1 5
▁ an
_t oàn
▁c ông
▁ ý
n_b ộ
ó m
u s
▁t iê
_c áo
▁Th eo
▁th ay
_n ước
_t ích
n_h ành
▁h ệ
ương _trình
n_ gi
▁h ết
▁tổn g
▁th ành
▁đ ạt
▁tiếp _tục
▁công_t ác
▁s ở
▁t ạo
▁ng u
s ự
t_ b
n_ kh
ì n
▁ng ành
ẩ n
▁ho àn
▁s áng
n_ m
▁ ảnh
â m_
_th uật
ắ p
í t
_t ôi
▁m ỗi
▁xã _hội
ng_ m
_s ĩ
r a
_đ ổi
ả m
ng_ d
▁ng ay
▁M ỹ
ẳn g
▁ng ân_
▁nguy ễn
▁ i
▁h ộ
▁tham_ gia
n_v ị
▁Nguy ễn
▁gi ữ
▁ w
ắ m
_tr í
quy ền
iế u
▁thế _giới
quy ết
▁ch u
▁x ử
iế p
c_b iệt
ng_ n
o ạn
▁t ên
▁Tr ong
▁h ô
á u
▁tr ả
c ông
_t ạo
ó c
▁ng ườ
▁m ặt
▁mu ốn
▁đơ n_vị
▁m ọi
h àng
▁ph ần
▁r õ
▁đá nh_
i_ s
▁nhân_ dân
▁ch ương_trình
o m
ấn_đ ề
▁d ù
ẩ u
v ụ
a d
n d
▁c ái
ng_h ợp
u_ l
▁t ính
▁c ầu
▁g ặp
▁h ỗ
▁3 0
_ r
▁v ấn_đề
▁đ à
_th ời
▁ph òng
▁v ị
▁k ỳ
▁Tr ung_
_nh ân
_n ăng
▁T P
▁b ởi
▁phí a
▁ Q
_ x
▁t ay
_l uật
nh_ đ
▁cơ _sở
▁c uộ
ượ t
i_ n
▁b ỏ
▁k iểm
▁ F
_nh iệm
do anh
ã n
▁v ốn
ph ương
a c
h ành
▁đặ c_biệt
ứ c_
▁đầu_t iên
nh ận
_t ác
▁gi áo
o s
▁chúng _tôi
ã i
▁nh ỏ
ẫ u
▁di ễn
▁s inh_
▁x ác
▁t ư
▁ch ia
▁nh iệ
▁kh ả
t er
▁liên_ quan
_h àng
▁d ịch
m_ n
▁ ai
▁ ăn
▁m ất
ổ n
▁ e
▁m ù
▁v ợ
▁chuy ên_
▁ ấy
▁tr ườ
▁ E
▁k ể
▁hỗ _trợ
▁m ở
▁H o
Qu ốc
i_ b
i_ph ạm
▁ph im
_t ướng
▁ch i
iên g
▁sản_ phẩm
▁n ữa
ồ m
ấ m
k ết
▁tì m
▁tr ung
gi á
h ọc
▁ngh ĩ
▁l ao
▁quốc_ gia
h ợp
▁qu ốc
l e
▁t p
i ễn
▁b ất_
▁hệ _thống
▁t iề
▁xu ống
▁lu ôn
▁đ ội
▁v ùng
▁v ô
▁th anh
▁d ùng
o át
▁kinh_ doanh
ê u
in g
▁yê u_cầu
i_ m
_n ội
▁địa_ phương
▁x ảy
ư ỡ
▁c ứ
_th u
▁n ội_
_th i
_s inh
m_ b
é o
n_n g
▁t àu
▁l ấy
▁s ang
▁nh óm
▁kiểm _tra
▁d ưới
▁1 8
ậ t_
N D
▁b ắ
▁t in
▁xử _lý
▁tr iể
▁ch ống
h o
_k iến
▁đ úng
▁đ ả
▁hà _nội
▁h ình_
▁Hà _N
▁Hà_N ội
u r
n_b ản
ng_ ch
i_ ch
▁tr ực
nh_ h
ngh ệ
ậ m
_v ụ
▁t ác
▁nhà _nước
▁T uy
▁ o
▁bệ nh_
ực_ lượng
l ập
▁ch ất_
▁xe m
▁nh ằm
u_ quả
▁qu ận
▁ ít
uy ển
▁ch ồng
ó p
m_v iệc
▁n ă
_n g
▁khả _năng
ị p
▁bệ nh
▁tiê u_
▁và n
▁ j
▁k ỹ
▁là m_việc
▁b iển
a_ ch
iê m
▁ch ú
ĩ nh_
▁c ạnh
m_đ ốc
▁to à
▁kế _hoạch
▁kết_ quả
▁vàn g
b áo
▁t ình
▁c ửa
ng_ kh
▁ph ân_
_t iếp
ườ ng_
▁s ống
k iện
_v ệ
▁đó n
▁th ường
▁c ụ
e a
▁c a
ổn g
▁th ông_
h ình
▁th ực
▁đ ủ
nh_đ ạo
_b an
▁t ố
▁l ực_lượng
_tr ạng
▁1 3
ương_ m
▁C ác
▁ph ó
▁cả nh_
i_ d
c ứu
u m
▁đ ặt
▁1 4
_t ính
▁1 6
▁c ây
▁tr ách
_th ân
u a
▁A nh
▁c ă
t_ k
_t iêu
▁tu ần
u_ đ
▁th anh_
▁b ản
▁b àn
▁chính_ phủ
▁công_ an
v ật
ộ c
_th ường
▁ ô
_l ực
▁ áp
▁ in
▁ J
_kh ăn
ử i
v i
ữ u
▁b ình_
▁ W
iế m
_h ợp
▁khó _khăn
i_ nh
▁quốc _tế
▁qu ân_
▁n ữ
e d
_nh ận
i ễ
▁lã nh_đạo
▁C ông_
▁tr ận
v iện
▁phát_ hiện
ất_ c
▁d ân_
▁n ướ
▁bảo _vệ
o t
▁lao _động
ng_ ph
ẩ y
ôi _trường
▁trách _nhiệm
▁di ễ
▁l ập
▁h ình
ung_ c
_t oán
▁c àng
n_h óa
▁h óa
▁ngân_ hàng
▁ph ương
▁trườ ng_hợp
▁giả i_
▁b ất
▁công_ nghệ
▁điều _tra
▁cá n_bộ
▁cu ối
ầ u_
▁đối _tượng
_d ục
▁pháp _luật
▁nh ậ
an d
d ung
▁ch ết
▁ Y
n_ nh
▁k iể
n_kh ai
▁ch ạy
_th ị
iên_ cứu
á i_
▁b ắt
▁ch ế
_tr ung
▁cổ _ph
ệ nh
ất_c ả
s ản
c_n g
▁triể n_khai
▁gi ấy
▁b an
▁tr uyền
2 0
▁đ ầy
▁m ạnh
▁ch uyện
▁báo _cáo
▁v ũ
ò a_
▁đ ào
▁ngh ệ
▁đánh_ giá
▁chủ _tịch
▁1 .
_s ẻ
▁2 5
▁1 7
▁an _toàn
▁gi ới
a_h ọc
▁thu ế
▁b é
▁ho a
▁N gh
▁ch ung
d iện
, 5
▁chất_ lượng
▁điều_ kiện
_m áy
▁m ô
▁c ố
▁dịch _vụ
n_n ay
▁tr uy
▁s inh
▁cá _nhân
ỏ a
▁giao _thông
▁l iên
_t ải
▁r iêng
qu ân
_th ích
_s ố
▁l ý
n_h ệ
▁201 4
▁ngu ồn
▁m ôi_trường
h ội
▁đ ă
▁kh ai
▁ngh iên_cứu
▁ch iến
_t ử
▁ch âu_
▁s ao
ngh ị
▁n am
m_v ụ
▁201 5
▁ Ô
_l oại
ạ p
▁hiệ u_quả
▁d ễ
▁n ằm
▁quan _trọng
▁1 00
▁ng ô
▁trung_ quốc
▁u b
▁chia _sẻ
ưỡ n
▁ph út
_th oại
▁Trung_ Quốc
ưỡn g
ế p
_đ ạo
ối_ hợp
▁ch í
_v iệc
b iểu
▁trở _thành
▁g ửi
u_l ịch
▁nh ập
▁nhiệ m_vụ
▁s ức_
▁v òng
▁th ông
ả i_
ĩ a
▁U B
t_ l
m_b ảo
▁t ất_cả
▁tr ang
s át
c_n ăng
_s ơ
▁S au
i p
▁giải_ quyết
_d o
_l ại
▁chứ c_năng
▁d anh_
▁đả m_bảo
_th ương
▁n ổi
▁n ông_
ối_ c
i_đ iểm
_t ình
▁201 6
nh ập
▁đ ứng
b àn
đ ộ
▁ph ối_hợp
▁chuy ển
▁kh ỏi
▁v ăn
▁quy ền
▁đ êm
▁ch ơi
▁tài_ chính
on e
▁l ợ
▁địa_ bàn
▁Ch ủ
_ngh ị
ãn g
▁trung _tâm
c_s inh
▁nướ c_ng
▁kho a_học
▁nh ìn
▁ ả
▁Nh à
▁nội_ dung
u ôi
▁ch ân
▁yê u
è o
▁bu ổi
▁v ai
n_h ình
▁Ô n
▁tr a
▁ O
_n ữ
ẳ ng_đ
ừ a_
▁chính_ sách
▁th u_h
▁hiệ n_nay
▁đề _nghị
▁m ạng
▁2 1
▁Ôn g
n_đ ấu
▁hồ _sơ
n_đ ịnh
▁đ ô
▁phụ c_
i r
▁b ổ
▁d uy
▁cả m_
ngh iệm
▁ áo
qu a
▁d ành
ẳng_đ ịnh
▁u s
ọ a
_t iếng
▁ub nd
▁UB ND
▁l ời
▁b ước
▁g ọi
▁tài_ sản
_ch í
▁kh ẳng_định
▁nước_ng oài
á m
ứ a
▁m ặ
▁th ời
▁ ủy
▁b ác
▁và i
_ T
▁d u_lịch
o o
_t in
▁đ ôi
▁họ c_sinh
▁201 3
▁thờ i_điểm
▁t ấ
▁vă n_hóa
▁tình _trạng
▁2 4
▁U S
▁đ oàn
▁k ý
▁thay _đổi
▁b ố
nh_h ưởng
_th ắng
▁5 0
ó i
▁ả nh_hưởng
▁b ình
_t ại
t_đ ầu
▁ph ù
_tr anh
▁đ ẹp
▁ &
ng_ viên
▁T ôi
▁ ứ
_t ự
▁tr ao
▁m o
▁M ột
ĩnh_ vực
▁công _trình
â ng_c
▁đ ánh
▁V ăn
▁đă ng_k
▁ng a
▁công_ v
▁th ẩ
▁phụ _nữ
e b
▁thủ y
_t ập
a p
▁s ân
▁đồng _thời
n_ nhân
▁giá _trị
▁th ấp
▁th ương
▁bắ t_đầu
▁ph ường
▁2 2
n_c ông
▁d a
▁giá m_đốc
_t iết
▁l ĩnh_vực
ung_c ấp
▁l ễ
n_ g
▁th i
▁công_ b
▁t í
i_đ ồng
i_ c
_h iểm
▁v i_phạm
▁lớ p
▁ho à
▁ng o
▁giáo _dục
▁đón g
ương_m ại
▁c ộ
▁c ung_cấp
▁Đ iều
▁qua n_hệ
▁Ch ính_
▁đ ổ
▁vị _trí
▁ph ương_
▁201 0
_b ay
▁n âng_c
▁chị u
k ỳ
u t
▁b iể
▁xuất_ hiện
_th ế
▁us d
▁d ẫn
▁l ượng
▁US D
n_ viên
▁thiế u
▁th ật
_l ệ
▁ch iều
▁chỉ _đạo
▁hình_ ảnh
t_k ế
▁201 7
▁thành_ công
▁d iện
▁n ền
ỏ e
▁thành_ viên
▁m ục
P h
▁cầu _thủ
▁m a
ĩ nh
▁đăng_k ý
▁Th ủ
à m
▁đ ườ
▁đ a
▁v ượt
▁T ổng
c m
_th iện
u ổi
▁h ướng
▁tập _trung
n e
ẵ n
_tr ì
. 1
▁máy _bay
▁2 3
▁quá _trình
o a
▁h ội_
ã y
▁19 9
_ph ép
▁nguy ên
▁thiế t_kế
_t ố
▁k éo
▁t ỉ
▁ Ả
▁g ồm
ớ m
en t
▁ngh ề
uy ế
_ ý
C M
▁th ú
▁đào _tạo
▁gh i
c_s ống
▁201 1
▁s ân_
▁h ội
ú i
▁k ê
é m
▁Ng a
▁giao _d
▁S ở
▁đại_ diện
ần g
▁l ạ
▁khách _hàng
▁ch áu
_th ư
▁tiế n_hành
b ình
▁t ích
▁đ ất_
▁xác _định
▁d ài
▁Th ị
▁Chủ _tịch
g ờ
▁tuy ến
▁gi ống
▁g óp
▁th ương_mại
l o
▁m ắt
▁ch ă
▁chu ẩ
uyệ t
▁thu ốc
▁v u
t_b ị
▁hợp _tác
▁l iê
_đ ồng
▁kỹ _thuật
▁l uật
▁Chính_ phủ
▁phù _hợp
i_ l
▁ý _kiến
▁th í
e w
anh_ ch
▁ch ất
▁t ươ
_t ay
▁ch ẳng
▁l ê
▁ch ọn
i v
▁s ớm
▁201 2
_h ữu
kh ẩu
▁cơ _hội
▁x in
▁tr ần
▁b ó
▁ngh e
▁v n
ã o
▁s u
▁Nh ững
▁trực _tiếp
▁C ông_t
T h
▁hành_ chính
▁t oàn
▁cụ _thể
▁Ả nh
▁th ích
u_ n
▁t ối
▁phục_ vụ
▁giả i_ph
e x
▁qu ý
n_c ứ
▁thiế t_bị
g u
▁s ức
▁đ o
u ẩn
▁đ áng
▁nh anh
▁công_b ố
▁công_v iệc
▁chuy ể
▁điện _thoại
▁x a
_ qu
▁m ặc
▁hành_ vi
_tr ai
ă ng_c
x ét
▁giao_d ịch
▁vă n_bản
▁y _tế
▁th i_
▁t ử
▁l ịch
▁tr ình_
▁gia i_đ
▁k ỷ
▁Qu ốc_
▁ngh ị
_tr ang
▁n ổ
ng_d ẫn
▁bệnh_ viện
▁tấ n_công
n_n inh
▁b ài
▁b á
ê n_l
kh ách
▁v iên
_ch ế
n_b ị
▁thực _tế
▁th ường_
đ ộng
▁h u
▁kh ông_
▁m ẫu
ăng_c ường
_th ần
ng_n g
▁là n
▁H ồ
n_ph áp
▁thủ _tục
s ắc
c_ l
▁hợp _đồng
▁tì m_
o v
▁n ộ
▁kho ản
▁thể _h
▁s a
▁cuộ c_sống
▁s ông
▁ al
▁số _l
_t iện
s t
▁đ âu
▁h ãng
▁mục _tiêu
nh_ m
▁kiể m_s
▁l oài
i on
▁th i_đ
▁nh ờ
ầ n_đ
▁giai_đ oạn
▁h ướ
▁ngh iêm
▁Công_t y
▁cảnh_ sát
l ý
▁chuẩ n_bị
▁ ổ
▁công_ nghiệp
ạ n_nhân
▁ph iên
▁Qu ả
▁v ay
▁quan _tâm
▁đ ông
▁ Ủ
▁hoàn _toàn
▁ch ấp
▁ngu ồ
▁thể_h iện
▁tình_ hình
m_ ph
▁t iếng
▁thông_ báo
n_ph òng
▁h uy
▁chính _thức
▁2 6
_tr ò
_s ung
_v iên
ủ ng_h
▁4 0
y êu
▁th ố
n iên
▁Ph ó
▁tr ậ
_b áo
▁201 8
▁ph ản_
▁a n_ninh
▁Gi á
▁t ăng_cường
n_gi ả
a k
▁ +
▁sở _hữu
_th ác
▁bổ _sung
_ngh iệp
▁nh u_cầu
▁b óng
_ y
▁h iểu
▁t ù
▁ngo ại_
n_d ụng
▁ q
▁Kh i
▁n ạn_nhân
▁hướ ng_dẫn
▁k m
▁đà n_
u l
▁s ơ
▁đ ức
▁th ử
ên_ nhân
_t ưởng
▁Q uy
_t iên
t_ ch
▁2 8
ph ục
▁đại_ học
▁T ổ
▁v iết
▁2 7
▁Đ ại_
▁ủy _ban
▁trở _lại
▁h y
ar t
▁chuyên_ gia
▁đ áp
▁áp _dụng
r e
▁qu ay
▁đ ối_
▁hà ng_h
ợ t
ậ y
i et
▁y ếu
▁hô m
ú y
▁t ạm
▁b iệ
i e
▁t ấn
▁nhân_ viên
▁1 ,
_đ oàn
m_ ch
▁d ầu
x uyên
▁u ống
▁c ử
_th ảo
▁tiêu_ ch
_l uận
▁n ợ
▁nâng_c ao
ng_ nh
▁t t
a g
▁khá n_giả
▁gi ành
_đ ộ
▁kiểm_s oát
N G
n gờ
kh ỏe
▁tr ánh
▁T T
▁ch i_ph
_t ộc
_th uận
▁n ặng
ê n_b
▁Ủ y
_b iến
▁thủ _tướng
▁L ê
i_ h
▁Ng ày
N H
ẵn g
in e
t on
▁Tr ần
u ân
▁ngh ỉ
▁l ương
▁tr ái
▁bất_ ngờ
_th iết
▁k ịp
▁N ếu
▁trậ n_đấu
▁h cm
▁khai _thác
▁công_ ch
▁Nh ưng
▁ch a
▁H CM
▁th ậm
▁ng ồi
C h
▁Đ ức
▁cổ_ph iếu
ụ p
▁l ự
▁b í
e c
▁c ải
▁Công_ an
▁biệ n_pháp
▁sức_ khỏe
▁sinh_ viên
▁thường_ xuyên
a_ kh
ú a
▁ba n_hành
▁2 9
5 0
▁thu ê
▁c l
▁ch áy
_th ực
▁m ối
▁đ ẩy
▁ph o
▁l òng
il l
▁chính_ quyền
▁ch ỗ
è m
▁ch ờ
ỏ n
_gi á
▁t ương_
t_ m
s ố
▁C ó
▁m ạ
a b
▁ngân_ sách
▁mù a
ph òng
▁phương _tiện
ỏn g
ối_c ùng
▁c ũ
ên_b ố
▁chi_ph í
▁nguy ên_nhân
▁bao _g
▁quy _hoạch
▁B an
▁đồ ng_
▁đ ạo
m_ l
▁Kh ông
ọ t
_l ời
ù i
▁ngh èo
ar d
m_n g
▁thành_ lập
▁bao_g ồm
is t
ọ p
▁s t
▁ *
▁đàn_ ông
m_s át
▁h ỏi
_kh ẩu
gi ới
ph úc
▁b iên_
u_ d
▁thí _sinh
kh ảo
. 5
▁r ừng
_ph ần
iễ m
▁nổi _tiếng
ng_đ ồng
_th ưởng
▁hoàn _thành
▁m ay
▁b ảng
▁Ng ười
▁Th ể
▁kh í
_g ái
▁l âu
a_ch ọn
▁xuất_ khẩu
am p
▁Đ ây
▁tr ồng
n_đ ộng
▁Tr ước
▁điều_ ch
▁th ư
▁việ t
r i
▁ >
r an
▁s uy
▁c âu_
▁diện _tích
_k iện
▁m ưa
. 2
3 0
▁hành_ động
▁đô _thị
▁tuy ên_bố
▁lự a_chọn
_s ử
▁t ây
▁th u_
▁độ c_
n_đ ầu
▁ph ân
▁m ã
ần_đ ây
▁200 9
i_n ạn
_ph áp
h ại
▁bác _sĩ
▁n ông
es s
▁nh ân
▁thẩ m_
▁t inh
▁Tr ung
n ước
▁ổ n_định
▁thanh_ niên
▁th iệt_
▁tr á
ng_ v
▁đ ảng
▁t i
▁diễ n_viên
▁m iề
y r
▁V iệt
▁thực_ phẩm
▁b ài_
▁v ừa_
▁0 ,
▁ph ê
▁m inh
▁giải_ph áp
▁cu ối_cùng
▁k iến
▁t iến
▁ta i_nạn
▁ng ọc
▁că n_cứ
_d ài
▁nh ẹ
o ạt
▁b ay
▁tổng _thống
▁s ắp
_h ình
▁ph ổ
nh iên
▁điều_ch ỉnh
▁sử a
▁co i
▁ph ong
▁ph ạm
▁Ủy _ban
▁k ết
_ ứng
▁tỷ _lệ
▁n uôi
m_ c
▁l ưu
▁T ừ
▁truy ề
▁3 1
▁qu ê
▁Thủ _tướng
▁thể _loại
d ự
l uận
_ L
n_ quốc
▁h a
_t ả
nh_ phúc
đ ội
in a
▁bó ng_đ
▁thi_đ ấu
▁đ ấu
▁l ư
_c ực
▁Th anh
▁cuộ c_
▁nông_ nghiệp
T r
g uyên
_v ọng
▁kh ở
▁cả m
m inh
m_ xét
▁s ách
▁V ới
▁h iệp
▁vụ _việc
▁0 1
▁toà n_bộ
▁g ần_đây
▁t ức
▁tr ụ
▁ph ò
ớ n
c o
uy ết
▁chính _trị
▁dân _tộc
▁c à
▁k g
_th uộc
▁b ạ
▁lịch _sử
▁hàng_h óa
▁Ng oài
▁ph ầ
_th ao
õ i
▁số_l ượng
▁trả _lời
▁v ệ
▁nộ p
▁h ậ
▁ –
es t
▁D o
▁d òng
▁dự _kiến
iê n_bản
▁bóng_đ á
▁ph ố
▁nh ớ
_t uyển
▁k ẻ
_t ô
k iếm
▁tr ọng
▁cộ ng_đồng
▁h ãy
_đ iểm
▁tích _cực
▁m ấy
_th ôn
e v
▁đ iệ
ng_l ực
▁k ích
c_ m
▁b ức
▁độ i_b
▁c ục
_t ài
▁19 8
▁ch ụp
▁ng oại
_tr uyền
▁tr ưởng
m_n ay
▁điều _trị
▁đ ỏ
▁T H
i g
▁nó n
_b ản
▁t ô
▁đội_b óng
ị a
▁chiế m
o ản
▁ á
▁M inh
▁hạ n_ch
▁chuy ến
▁V ă
ng_s ản
▁d ịp
▁B ình_
▁h ồi
ù a
gu e
kh í
▁6 0
▁đ ảo
í n
▁th ắng
▁ch ợ
▁đ ứa
▁cô _gái
▁ca _sĩ
▁Nhà _nước
▁liên _tục
_r ộng
▁m áu
▁h ải_
_th úc
▁đại_ biểu
o b
▁chiến _thắng
m_ d
_ngh ĩa
▁giá m_sát
▁hạn_ch ế
c ảm
▁đ ơn
▁vai _trò
n_ng ười
_ Đ
n_l ợi
_ quyết
i k
▁th ôi
▁T ại
_y ếu
ứ t
▁tr anh
▁cổ_ph ần
▁Ng ọc
▁điện _tử
▁hiện _tại
▁n ỗ
▁k èm
▁qu ỹ
▁đ ời
_ em
u ốn
▁lý _do
▁n êu
▁l ẽ
_c ơ
t t
▁vừa_ qua
▁kh uyế
▁thực_ sự
▁xe m_xét
n_đ ường
▁hộ i_đồng
▁thu_h út
▁v ận
▁tăng _trưởng
▁t ờ
ó t
▁t ính_
▁ho àng
▁qu ân
▁x ếp
ấ u_
▁Th anh_
▁th ầy
▁ch ữa
▁v ẻ
▁tiêu_ d
yr ia
ng_ g
i_n g
▁d ư
▁mở _rộng
▁hạ nh_phúc
▁bệnh_ nhân
u ấn
▁nón g
_s au
▁co n_người
▁Quả ng_
ụ c_đ
▁th á
▁ ủng_h
▁ủng_h ộ
▁b iế
▁t âm_
l iệu
el l
▁cho _phép
▁Thể _loại
▁quân_ sự
. 3
ph í
▁nông _thôn
i f
▁đ ại
c k
▁làn g
ng_b ộ
ng_d ụng
▁h òa_
▁r út
▁c ậu
▁chủ _yếu
▁đất_ nước
_ xuất
▁đ oạn
ph áp
▁x ung_
▁đ ố
o p
an k
_v ấn
▁l ái
▁chế _độ
▁trẻ _em
▁họ c_
▁c ự
▁tìm_ kiếm
▁ngh ìn
▁th ất_
_đ ảm
_tr ương
_ph ẩm
▁hô m_nay
_c ấp
▁xe _máy
▁tr ò
i_đ ộng
n_đ ại
▁v iện
▁ch ữ
▁bản _thân
_kh í
▁thị t
▁th ỏa
▁đáp _ứng
▁tr ăm
ấ u_h
▁t à
▁c ú
▁nhập _khẩu
▁quân_ đội
anh_ch óng
▁ ư
▁d ạy
▁h ầu
m_đ ịnh
ỳ nh
▁hình _thức
▁t ặng
ò i
▁nh anh_chóng
▁đị a
▁t iêu
t_n g
▁truyề n_hình
u p
ng_kh ông
▁t ài
m_s óc
▁ph ú
▁nguy _cơ
▁nỗ _lực
▁trung_ ương
a v
▁b ản_
▁l á
_t ắc
▁n iề
▁tinh _thần
c e
_th iệu
ng_c ách
▁ch ở
▁kh ủ
▁T ây
_l iệu
▁đầy _đ
▁ch ục
_đ ô
▁bảo _đảm
▁th ôn
ên_l ửa
▁s á
▁ âm_
▁v é
▁đ au
▁H ải_
_h uy
▁thẩm_ quyền
_t ư
_x ã
ốc_ độ
▁chi _tiết
_th ấy
▁kinh_ nghiệm
▁bộ _trưởng
▁chú _ý
n_g ái
n ăng
_ M
▁xu ân
ướ p
▁chă m_sóc
▁giới _thiệu
▁Th ái_
▁tr ú
_m ạnh
▁k i
▁chiế n_l
▁5 00
_h ai
▁nghĩ a
p p
▁sự _kiện
▁h ả
▁kh ối
iê u_
i ch
▁r ộng
r y
l v
▁200 8
▁d ừng
▁tr ắng
▁thể _thao
▁đầy_đ ủ
▁truyền _thống
id eo
▁s ạch
▁N am
▁đị nh_
▁hiệ n_đại
▁th e
c_l àm
h ạn
▁A n
▁ứ ng_dụng
▁t ái
nh ạc
▁mà u
▁cả nh
▁Ngh ị
▁kéo _dài
▁t ên_lửa
b ay
▁góp _phần
ng_kh oán
r ai
é t_
▁th o
l ai
e al
▁t ốc_độ
▁3 5
▁đơ n_gi
x ử
▁co n_gái
_t úy
▁h ành
▁vă n_phòng
▁nh ạc
▁thi_ hành
▁ô _tô
. 4
▁s ỹ
▁s âu
▁thu_ nhập
▁ph a
▁thanh _tra
o k
▁Ph áp
ẹ n
ea gue
ươ ng_h
▁t ương
G i
è n
ớ t
n_s ố
▁cơ _thể
▁việ c_làm
i b
▁c ặp
▁hội_ nghị
x úc
▁th ân
ng_ lượng
▁s ợ
▁báo _chí
c ư
▁ph ả
▁kh óa
▁t âm
ch uyện
_t ầng
c a
er s
▁tr ị
▁cảm _thấy
▁kết _thúc
▁th ăm
▁t ết
▁tuy ên
▁V ũ
▁s iêu
_tr ấn
ai l
▁cuộc _thi
▁r ơi
iế n_
i_nh à
▁bị _cáo
i an
▁ph ép
g ọi
▁m inh_
h a
i_ v
▁ án
▁cần _thiết
▁Ho àng
_d ân
▁tươ ng_đ
▁nghệ _thuật
▁d ẫ
gi ải
▁đ ộng
▁đ em
_th ái
▁L uật
▁T ài_
▁b ờ
▁vụ _án
_m inh
▁thứ _hai
m_ h
_đ ịch
▁ ar
o an
▁nhà _máy
▁Giá m_đốc
_ H
▁tr ình
▁7 0
ề m
in es
▁đề _xuất
▁mù a_
▁nh ấ
▁đ ợt
▁qu án
_t iến
▁s ong
▁kh a
▁ma _túy
▁ch iều_
ục_đ ích
i_s uất
▁tử _v
kh oản
▁nhà _
▁gi a_
▁tham_ dự
▁b ão
▁c ầm
▁b ắc
▁H u
▁d ữ
▁bảo _hiểm
▁quy ề
▁ ấn
n et
▁l ắm
f f
ự a
▁N ăm
t e
▁vận _tải
▁Ch ỉ
_t uổi
n_ Đ
_h ọc
as h
, 7
▁thị _trấn
▁Đ à
ụ t
it y
▁tiêu_ch uẩn
▁th ảo
▁t òa_
▁phương_ án
▁trao _đổi
_t ỏ
▁quốc_ hội
▁tử_v ong
_d õi
_m ô
▁m ời
▁chiến_l ược
or e
▁s ơn
▁nghiêm _trọng
▁s ẵ
▁g ái
▁b ề
▁rõ _r
_d uyệt
_th ầu
▁H iện
▁kh ắc_
n_m ạnh
_th ụ
▁đ ông_
▁đó ng_g
L V
▁Ch úng
oo k
▁đ ăng
, 2
gi ác
kh ai
▁b ắn
▁đ ọc
▁c ánh
▁x ong
e z
▁chứ a
▁l ộ
▁thỏa _thuận
▁tr ọ
, 6
t h
▁đ ịnh
ng_ r
▁quy ết
. 0
▁x anh
▁h ấp
▁Ph ú
▁h òa
_m ắt
▁tập _đoàn
▁lã i_suất
o ái
▁tiêu_d ùng
i o
n_l ực
ắc_ ch
▁mo ng_m
▁sự _nghiệp
gi ao
▁l ũ
▁nhậ t_b
▁Nh ật_
▁câu_ chuyện
_g ắng
▁danh_ sách
▁V ì
_nh ất
am a
_ quốc
ắc_ch ắn
▁vũ _khí
▁theo _dõi
▁nhà_ ở
▁tr ừ
_ph ận
u b
▁chứ ng_khoán
d a
▁Tổng _thống
▁phê _duyệt
▁bình _thường
▁c an
▁m ục_đích
▁k iểu
▁cố _gắng
▁s ai
▁c ân_
_h ành
_t ăng
▁ch ung_
▁19 7
▁kết_ hợp
▁đ ầu_
▁h ồng
▁C ục
ar k
▁đơn_gi ản
▁g iết
, 4
m ôn
▁t ội
▁I n
▁b ầu
_gi ờ
▁vô _c
▁hiện _trường
▁n ửa
▁tương_ lai
_s át
▁3 6
▁d ần
▁x ét_
_ B
▁h lv
_d ẫn
▁H LV
▁Th ông_t
▁th ương_
▁kịp _thời
▁ z
. 6
, 3
_c ả
▁Nh iều
b ại
_th ải
el s
▁hạ t_
_nh iên
▁tr o
▁vô _địch
▁duy _trì
▁truyền _thông
_n ên
▁tra ng_b
▁trở _nên
▁8 0
, 8
▁C ả
s ia
▁c ắt
▁mô _hình
▁b uộc
▁trá i_ph
_tr ách
d anh
▁x ăng
n_s àng
▁Bộ _trưởng
▁cạnh _tranh
t y
▁nhấ n_mạnh
▁nguy _hiểm
. 8
▁s àn
. 9
iê m_
▁ch ắc_chắn
▁ph ạ
l d
▁sẵ n_sàng
▁cự u
▁V N
▁r ượ
▁c am_
o ảng
▁nhật_b ản
▁con _trai
n am
▁Ph ạm
ây _giờ
▁tư _vấn
▁H ộ
B ản
_t ừ
ng_nh ất
▁sân_ bay
▁hạ _tầng
▁x ấu
p t
▁ng ă
▁Nhật_ Bản
s e
▁t uyệ
▁kh ô
▁l ượt
▁thu a
▁t iể
s ao
▁tình_ yêu
▁V iệc
▁th ẻ
ụ y
▁yếu _tố
▁trang_b ị
▁t ộ
▁ra _mắt
▁ch ậm
ương_h iệu
▁K ế
▁m ôn
▁vậ n_động
▁h ưởng
▁v ideo
▁n ội
▁3 00
▁t ại_
▁phát_ biểu
ệ nh_
ch iến
n_ r
. 7
ng_ nhận
l ộ
▁B à
▁xuất_ sắc
s en
▁Th ế
▁ấn _tượng
1 0
u ốt
n_ kết
_th ơ
▁cơ _bản
▁tr ời
▁Đ ể
▁mạ nh_m
▁d u_
▁mặ t_
ph one
u ống
ac k
▁ba n_đầu
l an
ng_l oạt
▁nă ng_lực
▁đóng_g óp
▁công_ c
▁m ũ
▁x ứ
n_ch uyển
▁chứ ng_nhận
_ Ch
▁r ời
▁d ây
▁phân _tích
▁b ánh
▁h át
▁tuy ể
▁tình_ cảm
▁tác _động
▁mạnh_m ẽ
▁sửa _đổi
_s ản
▁vô_c ùng
ch ất
▁lu ật_
▁th ương_hiệu
B ình
▁c p
▁th oát
▁c ướp
▁v ò
▁L iên_
▁gi ó
a z
k rai
on al
▁ng ủ
▁c ơn
▁m ắc
▁nghệ _sĩ
▁vệ _sinh
_t inh
▁b ày
▁c âu
▁mà u_
▁gh i_
▁Quốc_ hội
▁h ương
▁m 2
▁chấp _nhận
▁l y
▁tí n_dụng
▁l an
▁r u
▁g am
▁đ en
▁kh ắp
▁thiệt_ hại
▁l ờ
▁giáo _viên
ư _dân
▁4 5
▁kinh_ phí
_k ết
▁n ắm
▁9 0
▁Th ành_
i_s ao
▁đối _thủ
▁h ề
D ương
▁C P
▁mô _tả
▁th ả
▁D ự
â u_h
▁ ưu
▁tự _do
▁ anh_
▁th iên
▁hà n_quốc
▁thố ng_nhất
▁Hà n_
▁nhậ n_định
n_s ĩ
▁k im
a_h ậu
▁khá m
▁C ơ
▁chuyên_ môn
▁công_ nhân
▁k ém
i_nh uận
ch ỉ
um p
▁Hàn_ Quốc
u i
▁xác _nhận
▁rượ u
r id
_đ ông
▁cửa _hàng
▁nó i_ch
ch ủ
▁ch àng
▁điều_ hành
▁qu ần
▁mong_m uốn
_t ệ
▁g ắ
n guyên
▁dễ _d
▁t ầng
▁b ồ
or d
▁B ảo
▁tác _phẩm
▁tài_ liệu
ng_k iến
▁thủ _đô
▁H ọ
▁rõ_r àng
ho ạt
▁d n
n_d ịch
n_b iến
ân g
▁vậ n_chuyển
▁Quy ết_định
▁b ậ
▁3 2
▁b iểu
or t
y m
▁chủ _động
▁tộ i_phạm
▁tu ấn
▁D N
▁ch út
s inh
i_d ùng
▁c ăng
▁Th u
x ác
▁cu ốn
al l
▁kê nh
▁tuyên _truyền
▁co m
▁hạt_ nhân
o d
▁c am
âu_h ỏi
, 9
▁Hộ i_đồng
▁đ iể
uy ến
▁B ắc_
n_đ ộ
▁g ấp
a_kh úc
▁t ung
▁Trung _tâm
▁cơ _chế
_n iệm
▁Đ ảng
▁tiếp _nhận
ầ u_c
_c ứu
▁dự a
▁chuy ên
a e
▁lợ i_nhuận
▁x ét
▁w eb
l ực
▁qu ang
▁h ài_
▁T uấn
▁200 7
▁ph iên_bản
ng_m inh
▁d ọa
▁e u
▁s h
T C
▁s óng
▁phổ _biến
▁l a
▁nhân_ vật
▁kh ổ
▁ph i
▁huy _động
_c ấu
▁dễ_d àng
_d iễn
▁ ă
▁hà ng_không
▁b ây_giờ
n_b è
ơ m
▁20 20
▁ Z
_tr ận
▁A r
▁ng ừng
e e
ng_s ố
▁mà n_hình
▁Tr ường
qu anh
▁đ ờ
n_đ ổi
l ệ
▁tổ ng_hợp
▁tr à
▁quốc_ phòng
▁ng ược
s on
▁ngườ i_dùng
n_đ iểm
T T
n_c ầu
▁ is
▁hy _vọng
▁tr ạm
t_đ ộ
▁c ứu
kh iển
▁liên_ kết
▁du_ khách
s ư
▁C ô
▁tr ợ
▁niề m
, 1
A n
ho w
▁m ai
ng_đ ầu
▁th ẳng
n_đ ạo
▁H ai
▁t ầ
▁tuy ển
▁t ầm
▁thanh _toán
_c ận
S ơn
_ quyền
▁khắc_ phục
▁tự _nhiên
gi áo
▁c a_khúc
▁biên_ giới
▁sự _việc
▁th ân_
▁s úng
▁n am_
▁0 2
▁b iến
▁d ấu_h
er a
▁r ủ
i_đ a
▁c âu_hỏi
▁ch ứng
n_ k
▁bạ n_bè
m ạng
▁quy _mô
▁l ợi
▁Đ ến
▁ng ắn
▁g ỗ
▁b om
▁ngườ i_
▁thị _xã
▁Đ ồ
▁điều_ khiển
▁thu_h ồi
▁tố i_đa
▁Ph ương
_l ục
b ank
_s ạn
ng_c áo
▁m ó
t v
▁n ắng
▁độ c
▁th ừa_
▁tr ưở
▁V à
T V
▁ng ã
i_s ống
o h
▁học _tập
▁cam_ kết
▁B ên
a h
▁l ẫn
▁n ỗi
m_ qua
kh ấu
▁Đ ối
al ia
▁s ữa
▁v õ
Â u
▁thu ậ
t_ v
▁ngườ i_m
_tr úc
▁c ảng
▁g ốc
t_k iệm
e g
Gi ang
ip p
ph ần
▁lư u_
c_đ ộ
krai ne
▁cuộ c_đ
▁S t
_tr ời
i_ ích
▁cải _thiện
▁t ỏ
▁tr iều
or ld
▁phân_ b
▁v iet
▁b ả
▁h ạng
e u
_đ ời
▁k ia
ng_k ê
▁ch ào
▁h ơi
▁ngô i_sao
h ọp
c_đ ẩy
▁tương _tự
▁âm_ nhạc
▁đồ ng_h
▁kế t_n
▁dấu_h iệu
▁s át
▁công_ s
▁tiế t_kiệm
▁thời_ hạn
▁X uân
▁g à
▁duy _nhất
▁lợ i_ích
ớ p
▁h ải
d ương
_n ẵng
_v ề
▁C òn
o i
_c ố
▁đà _nẵng
▁Nh ư
iê n_h
▁công_ch ức
▁đồng_ ý
▁hấp _dẫn
_ngh iệm
n_c ảnh
_th eo
m_ph án
▁nông_ dân
▁ ông_
▁l ệnh
▁nghị _định
▁l úa
▁thú c_đẩy
▁tương_đ ương
ng_ vật
▁m an
▁qua n_điểm
▁do anh
▁H ội
▁Trung_ ương
n_d iện
▁nă ng_lượng
al ay
_N ẵng
▁b ar
m ộ
▁Đà _Nẵng
▁chiế n_đấu
▁v ù
▁tiếp _cận
▁ph iếu
ng_ch í
▁khách _sạn
▁t óc
▁r ác
n_ x
ng_ph ục
i_đ ẹp
▁hà ng_đầu
▁m ón
▁ch ức
ter net
_m ặt
▁thay _thế
▁t iểu
▁dư _luận
▁phát_ hành
▁đ ổi
▁n âng
▁Ho à
ã m
▁hòa_ bình
ai n
s ống
▁trung_ bình
▁bàn _thắng
▁c ấm
2 3
▁n úi
o u
_h ệ
▁cơ _cấu
▁máy _tính
_c on
▁tr ật
▁b ồi
▁phó ng_viên
▁V iet
▁co n_số
▁h ữ
ng_c ục
▁hiệ u_l
▁l ỗi
▁gi à
▁g ạo
▁ng àn
d on
▁thời _trang
▁co n_đường
▁Ng ân_
▁thực_ vật
▁xung_ quanh
▁biể u_d
_tr ữ
▁cuộc_ họp
▁thi_ công
▁ngh iệp
n_gi ao
▁nh iễm
▁đ ỗ
▁quy ế
▁không_ gian
▁họ p
▁B áo
▁kh ảo
▁nh ảy
m_ m
▁trở _về
els ea
▁kỷ _niệm
▁d i_ch
▁th ă
▁Th ành
▁phương_ pháp
▁gia _tăng
▁b ăng
▁V ề
_t á
▁k iếm
▁tiêu _thụ
độ ng_sản
▁hành_ khách
▁r au
ng_b ố
▁may _m
▁t òa
▁d ao
▁kết_n ối
_s ư
▁vu i
▁cảnh_ báo
▁Qu a
_ng ại
▁cảm_ giác
▁b ò
▁l ong
v ị
▁l inh
i z
▁b ốn
L an
▁đ e
▁h ạn
▁d ò
▁khủ ng_bố
▁toà n_cầu
▁trụ _sở
m_ng oái
▁tr í
▁200 6
eb ook
▁trật _tự
▁m iễ
▁trị _giá
alay sia
_th anh
▁đ âm
▁đờ i_sống
▁3 4
▁su ốt
▁tổ ng_số
▁n ew
iến_ nghị
▁đ ợi
▁công_ khai
i_m ới
▁giấy _phép
▁khu ô
▁dữ _liệu
▁b ế
▁chung_ kết
▁thuậ n_lợi
_k ỷ
▁tù y
▁phản_ ánh
▁h ẳn
▁thế _hệ
_gi ả
▁h ư
▁hô m_qua
▁th a
▁sân_ khấu
h iểu
▁n ét
▁đối _tác
▁sáng _tạo
▁ Ở
▁C H
▁hiệu_l ực
er n
▁chế _biến
▁x i
▁b ù
▁chính_ xác
▁T ết
▁gi àu
t c
▁3 3
▁qu à
▁d ương
▁ý _nghĩa
▁vậ t_l
_t iền
▁khở i_
▁h đ
▁pho ng_cách
▁H Đ
▁M an
_tr ú
▁cấp _cứu
▁tiế ng_
▁A l
▁l ạnh
▁chỉ _số
▁thừa_ nhận
a x
▁sự _cố
b er
ac ebook
▁t ồn
▁tâm_ lý
▁ph ủ
▁k iến_nghị
▁bất_ động_sản
▁thành _tích
A N
▁nh ạ
▁đ ừng
▁qu en
▁gh ế
▁ngoại_ giao
▁S ố
▁đồ ng_b
▁tro ng_s
0 .000
ic o
▁ ung
ị u
▁ch ắc
▁g ói
▁v ườn
g e
▁bộ _phận
_ph ê
▁l ưới
T iên
▁kết_ luận
e p
▁đ t
▁Đ ó
▁c ầu_
u_h ướng
_nh ật
▁hợp _lý
▁3 7
▁thố ng_kê
o ur
▁t im
á nh_
it e
▁v í
â m_s
h uy
▁qu ên
il ipp
▁th ai
▁bồi _thường
▁19 6
_t ốc
▁bố _trí
▁c ười
ng_c ơ
▁đồ ng_chí
▁đổ i_mới
_tr ào
▁ghi_ nhận
▁H ải
, 0
▁may_m ắn
_đ ỡ
▁ âm
▁Tài_ chính
▁hà ng_loạt
▁ung _thư
n_ch ức
▁dự _báo
ì m
▁nă m_ngoái
▁b ang
▁3 8
_tr ực
▁hoàn _thiện
ẫu _thuật
▁địa _điểm
▁v ết
_th ẳng
▁th ái_
▁đo à
▁ng ang
▁r à
▁ |
m an
▁mặt_ hàng
n_h ộ
▁bày _tỏ
▁ Á
h uống
ngh ề
n_h ọc
ấ n_l
▁H ồng
h iệu
▁N ew
▁doanh _thu
▁châu_ âu
▁c áo
▁cà _phê
iện g
▁h âm_
▁kho ả
▁hâm_ mộ
▁quả ng_cáo
m_v i
t_l ộ
ch ứng
▁cl ip
_t ây
▁C ũng
▁đ ấy
▁đội _tuyển
▁g ắn
▁liên _tiếp
a_h è
_c ập
▁m ứ
n a
▁ch ặ
▁tra ng_phục
am s
▁trình_ d
▁tr úng
▁i i
▁mó n_
▁x u_hướng
▁qua n_chức
▁l iền
▁đ ặc
▁độ t_
▁1 .000
▁t ân_
a_ m
▁không_ khí
▁d i_động
▁đẩy _mạnh
▁ch ó
_nh à
▁di_ch uyển
▁t ận
nh à
▁tồn _tại
▁Đ T
▁tiế t_lộ
▁l ệ
▁ngô i_nhà
▁bu ồn
▁bậ c
▁4 8
▁Chúng _tôi
▁d ạng
▁m ãi
▁tình_ huống
▁giúp _đỡ
▁x o
c t
ng_h òa
▁V ụ
▁m ong
▁giải _thưởng
d ài
▁độ ng_cơ
▁tìm_ hiểu
▁ph ạt
ối_c ảnh
▁N H
▁th ưởng
▁K im
▁ư u_đ
ing ap
▁nh iêu
o y
_ph ạt
▁khó c
iều_ Tiên
▁I I
▁Nghị _định
u_h ọc
▁l ỗ
▁tr ộ
u_ b
t ô
▁b ãi
▁ngay _sau
▁d ám
▁t ôn
▁y ên
s h
▁k ịch
un d
ingap ore
▁că n_hộ
▁t ường
▁kiến _thức
▁Ngân_ hàng
▁B a
▁chủ _trì
▁tr ai
▁đ èn
▁tiếp _theo
▁phát_ huy
▁sinh_ hoạt
▁C ông
▁đạo _diễn
▁đề _án
▁ch ấn
_l ắng
t_ch ẽ
▁chặ t_chẽ
▁v i
s k
u_ gọi
▁an d
▁Qu ang
▁chiến _tranh
▁chỉ _tiêu
▁g d
▁đ ài
_ph ạm
▁độc_ lập
_b iệt
▁thông_t ư
▁th ép
▁tham_ khảo
▁l ô
▁l ắp
▁kê u_gọi
_M inh
▁thu ốc_
▁ uy
▁ng ập
ức _t
qu en
▁chứ c_
▁biểu_d iễn
▁nghị _quyết
▁chủ _trương
uyế t_
▁lo _lắng
us t
▁r ẻ
é n
_m ật
v n
▁kh ung
▁th uyền
c_s ĩ
r u
▁L ý
▁công_ dân
e y
t_ nghiệp
▁áp _lực
n_ph í
▁mứ c_độ
_t uyến
▁triều _tiên
▁G D
_ngh ĩ
▁h ạt
▁phạ m_vi
_chí _minh
▁hồ _chí_minh
s ứ
▁Tr iều_Tiên
ầu_c ử
▁hậ u_quả
▁h ùng
_m ạng
▁v ật
x ế
▁l âu_
▁L inh
▁dân_ cư
▁m àn
▁ưu _tiên
ilipp ines
▁l âm
▁b ối_cảnh
n_ ảnh
sen al
▁diễ n_biến
as t
▁chu ẩn
▁ph ẫu_thuật
▁tài_ khoản
▁S ự
▁s ư
P T
▁S ơn
▁hình_ sự
▁đ ình
h ọa
u k
ch ia
▁s m
▁d ũng
d ục
▁t inh_
▁0 3
_Ch í
▁m ar
n_h iệu
▁T ập
▁Hồ _Chí
▁trái_ph ép
▁kh ởi
▁Hồ_Chí _Minh
ic k
V N
▁thủy _sản
n_v ệ
▁đ ường_
▁l ối
▁d anh
ức_t ạp
p o
▁tố t_nghiệp
▁ph ức_tạp
ng_đ ộ
▁m iền
▁E m
▁tr ải
▁ng ọ
▁b ầu_cử
an t
▁đ h
n_l ãm
▁s n
▁Đ H
_th iểu
ầ n_l
▁cao _cấp
▁T ân_
ẫ y
▁gam e
n_kh ích
▁ch ân_
▁g ương_m
▁l ò
▁căng _thẳng
▁thẩ m_định
▁D ũng
▁chiế n_dịch
m ục
▁Qu ốc
▁r ộ
▁Đ ồng
▁hu ấn_l
▁q đ
▁Q Đ
▁b ức_
▁s âu_
▁l ừa
▁t ấm
▁chuy ê
▁4 00
▁phản_ ứng
▁giải _thích
▁trò _ch
▁tập _thể
▁s yria
▁S yria
▁H ùng
i_s ản
▁cơ m
▁đà m_phán
▁l ửa
▁kh ẩ
▁kho a
ter s
m ặt
▁Đ ầu
▁tr ốn
_l ưu
_l ợi
▁t ậ
u d
▁Th ờ
▁B ar
▁qu anh
b inh
_gi áo
▁châu_ Âu
pp le
▁tiề n_đạo
▁thất_ bại
c c
▁liê n_h
▁chứ ng_kiến
4 0
ù m
_s oát
_ C
▁mùa_ giải
▁chuyên_ nghiệp
ụ i
as s
▁lo ạt
▁200 5
▁T ư
▁Ngh ệ
_d ụ
▁Đ oàn
_v ăn
▁bí _thư
▁hải_ quan
▁quy _trình
▁trình_d iễn
1 9
▁luật_ sư
▁khảo _sát
▁tươ i
m ưu
_t ội
ên_l iệu
▁ch ấ
▁bu ôn
▁pháp _lý
_t ĩnh
_đ ề
▁x âm_
▁đố i_ph
▁đ ập
▁ph úc
▁dự _thảo
▁tr ông
i er
▁H iệp
▁sức_ m
▁Tổ _chức
▁Th am_
▁qu ản
nh ũng
▁tài_ nguyên
ô m
n_v ững
in i
_v iện
▁bề n_vững
_th ủy
▁lã nh
▁X ây
20 1
▁Ph òng
▁nh ật
▁ng on
▁tác _giả
▁Th ực_
▁đ òi
▁thảo _luận
u_ v
es ia
▁xu ất
▁l inh_
▁tham_ nhũng
▁v ỏ
▁Ng ay
▁người _thân
_tr ước
▁o f
▁tài_ xế
ng_s ắt
▁phò ng_ng
▁3 9
▁ ấn_đ
o g
▁t ân
▁thiế t_
iế u_n
n_s inh
n_ch ặn
ist an
▁cổ n
or k
▁trình_ độ
▁cổn g
A nh
▁C ă
▁s iêu_
▁b ụng
d ụng
▁gi ỏi
▁V iện
▁th ừa
▁b ắc_
▁phong _trào
▁ngườ i_đẹp
n n
ng_ x
b ộ
i_b ật
▁th ái
▁c ập
▁c ầ
▁B ắc
▁công_ nhận
iế c
▁Th ứ
_t u
_v ị
n_v ốn
▁S h
▁D ù
▁ch ung_c
▁c ực_
ắ k
▁ Ấ
▁Th e
▁trực _thuộc
▁ph áo
▁k ính
▁danh_ hiệu
▁n àng
▁rà _soát
▁hộ p
▁Cơ _quan
▁dân_ số
▁ng ôi
_ an
l u
▁b ằ
▁chấn _thương
▁đ ò
K ỳ
▁Đồ ng_
▁ un
▁thu ận
▁là m_
d ưỡng
▁Đ ược
▁ngă n_chặn
i_đ ầu
▁t úi
▁xử _phạt
▁c át
h óa
▁tố _cáo
▁k iên_
▁ng ụ
▁m iệng
▁L ong
▁suy _nghĩ
l ine
a_ c
▁Đ ông
▁gương_m ặt
_h ạng
▁bảo _t
▁thứ c_
▁M ar
n_n uôi
▁nổ i_bật
n_m ềm
▁tự _tin
▁c ân
a n_
i_ng ũ
▁chứ ng_minh
_ch ối
▁H ạ
▁f an
▁ au
▁ô tô
▁th iên_
▁hiện _tượng
n_h ạn
▁Ch ú
▁ ước
▁gi áp
▁h ại
l y
t_ kh
▁Y _tế
▁nguy ên_liệu
▁Tr ên
▁d ầu_
▁Xây _dựng
▁thông_ minh
▁độ i_ngũ
▁nâng_c ấp
▁từ _chối
▁tác _dụng
en g
▁x inh_
▁M ai
▁0 9
▁ch ặt
i_ ro
o w
▁phầ n_l
i_d ưỡng
n_m ặt
▁nh ắc
.5 00
_t ức
▁H ội_
▁địa_ chỉ
▁xét_ xử
▁s p
▁tr anh_
▁D ương
▁c m
▁s how
b a
▁đồ ng_đ
▁cách _mạng
_đ ức
▁H ương
▁gi ây
u_ m
▁th áo
▁mù i
▁lễ _hội
ướ c_m
▁B ệnh_
▁rủ i_ro
▁bà _con
▁vậ n_hành
đ t
Đ T
▁n ối
▁tiề n_vệ
▁hoà n_cảnh
▁kh en
▁ch ê
ng_h ọc
▁ưu_đ ãi
▁mặ t_b
n_đ ồ
ý t
▁lo ại_
▁kho e
▁giải _trí
ủng_h oảng
ng_ch ế
▁thử _nghiệm
▁h ủy
▁thái_ lan
u ối
▁chấp _hành
▁cả i_c
▁cuộc_đ ời
▁Gi áo
▁N am_
ion s
▁0 4
▁phầ n_mềm
▁lo _ngại
▁quả ng_n
▁nghiệp _vụ
▁d ường
▁Thái_ Lan
▁bức_ xúc
▁0 5
▁t ú
▁V I
▁chiế u
▁100 %
▁v áy
ối_ lượng
▁m m
▁h ó
ng_đ iểm
▁đị nh_h
▁eu ro
▁cải_c ách
_t ín
_t ờ
ng_đ ất
▁c ar
▁l eague
▁Ph át
▁kh ủng_hoảng
ệ t
▁chỉ _huy
ph ối
▁b ê
t_ng ôn
▁đ ỉnh
▁Nh ật
_t ật
▁b ạo
▁cu p
đ ai
_k ý
▁ho a_hậu
b ama
▁tr iệ
▁miề n_
▁Đại_ học
▁C S
u ồn
▁m á
đ oàn
▁L eague
▁Thông_t ư
_qu ản
▁công_s uất
▁ ố
▁nhiệ t_độ
▁t ạp
▁tòa_ nhà
2 5
_ph òng
▁hình _thành
iv er
v ọng
ách _thức
_th ú
▁chủ _nhà
▁nguồ n_vốn
▁châu_ á
x i
_b uộc
▁th ần
▁đườ ng_sắt
▁sức_m ạnh
ngh ĩa
▁v en
▁200 4
▁kỳ _h
ad rid
▁tiêu_ch í
▁thiệt_ mạng
_d ạng
▁triể n_lãm
▁đối_ mặt
▁thành_ phần
▁Đ ại
n_đ ối
▁cảm_ xúc
▁g a
_m ôn
▁Đ ông_
▁200 3
▁giấy _tờ
▁khuyế n_khích
▁Că n_cứ
▁Ng ô
_đ ơn
▁h út
▁phả n_đối
▁Hoà ng_
▁tài_ năng
▁h ắn
▁G ia
▁minh_ họa
▁t âm_s
ng_k ể
am_ m
4 5
▁ph óng
z il
▁Kh u
▁Cả nh_
s ĩ
_th ổ
▁b ướ
▁mũ i
r alia
ầ n_
r ess
▁S N
_huy nh
▁B í
▁x óa
▁đá ng_kể
▁nhà _trường
anh_ch ấp
▁kỹ _năng
▁l iệu
▁ch e
▁độ ng_viên
eu ters
n_đ ông
▁Gi ao
▁cứ u_h
▁I nd
▁hành _trình
▁n iêm_
▁độ ng_vật
▁phần_l ớn
_th ù
▁thức_ ăn
_h ậu
▁quyết _tâm
▁c ộng
U Y
er t
▁quản _trị
b ản
_đ ặt
▁tuyệ t_v
▁tr anh_chấp
l a
▁tình_ dục
i_ kh
▁độ i_
is s
▁nh iệt
▁người_m ẫu
a_ch ữa
▁5 5
▁C up
▁tư _pháp
▁tiế n_độ
▁thời _tiết
ar a
▁c ực
ing ton
▁th ùng
▁h ằng
n_ xét
7 0
_kh ách
n_l ạc
kh ắc
N N
▁chủ _đề
_t úc
c_b ộ
▁s ổ
▁g óc
n_s át
▁Đ ặ
gi ả
▁ ép
▁th ượ
▁vật_l iệu
▁tỷ _số
▁giải_ph óng
▁nguyên _tắc
▁kh ỏe
▁đ ình_
▁C ụ
▁khởi _tố
ad a
▁kh ối_lượng
▁số t
ỗ n
ph át
▁t á
▁c s
c el
▁lã i
▁t ưởng
n_nh ượng
ả i_m
▁kh ánh
ẹ t
ỗn g
▁X ã
h òa
▁sử a_chữa
▁phá t_ngôn
at e
▁tr ứng
▁ng ư_dân
iệ n_
▁đặ c_
H óa
ệ t_m
t_ch ất
▁phụ _huynh
▁b ia
▁tâm_s ự
_x úc
▁người_ yêu
▁gi ớ
n_l ẻ
u chia
▁nguồn _tin
inh o
▁số_l iệu
▁to p
ó c_
▁hợp _pháp
l in
▁H uy
▁th ắ
l and
▁h iể
▁4 3
▁Ch ính
h ôn
n_nh à
▁bình_ quân
▁th ách_thức
▁v ỡ
▁ch ảy
_nh iễm
▁xe _tải
▁chú _thích
i_nh ánh
▁tòa_ án
▁quả ng_b
on a
amp uchia
m_ nh
▁Bệnh_ viện
2 1
▁r ửa
y a
▁B ạn
▁C ao
▁t s
_th ật
▁Vă n_phòng
_t òa
qu ang
▁N ội_
▁tr ưa
▁kỷ _luật
▁d e
y ết
▁tính_ năng
▁tr eo
l et
t a
▁v iên_
▁in ternet
▁biể u_
▁ô _nhiễm
▁trong_s uốt
▁s áu
ams ung
▁4 6
▁ph an
y an
▁chuyể n_nhượng
_th uyết
_s ắm
e i
▁s ả
▁mặt_b ằng
m_ g
▁n ạn
▁niêm_ yết
ù y
ro s
▁toà n_quốc
▁đườ ng_bộ
▁Th ủy
▁S ài_
▁tài _trợ
▁s c
▁định_h ướng
▁T iến
onal do
▁chung_c ư
▁L o
▁r o
▁g ỡ
▁m ê
▁v ĩ
▁miề n_n
▁điệ n_ảnh
▁th iết
oo d
▁lên _tiếng
▁m ộ
▁4 1
▁th an
▁C ùng
▁đa _dạng
▁nhận _thức
▁b ữa
▁s ài_
_đ iện
g òn
▁P V
_tr i
k s
▁gi ọ
▁v ân
_tr ẻ
ch ức
at ion
▁nh a
▁mua _sắm
▁Quảng_ N
▁t iên
▁15 0
▁p v
▁tại_ sao
▁x ả
▁ on
o àng
en n
▁quy _chế
▁Cảnh_ sát
▁4 2
inh_ dưỡng
▁miễ n_phí
▁sài_ gòn
l òng
_t im
▁cáo _buộc
iếu_n ại
ra zil
▁đ ấu_
gi ang
_th ẩm
▁kỷ _lục
▁d ứ
▁đồng_h ồ
_thu ẫn
_h iệu
▁cập _nhật
ật_ sự
▁b ến
▁S o
8 0
▁n đ
▁că n_nhà
▁l ít
▁N Đ
_th ăm
▁giả i_đ
▁lãnh _thổ
G òn
▁B ình
▁Sài_ Gòn
▁cam era
_t án
▁thú _vị
▁yêu _thích
en s
g t
▁ch ùa
▁t ải
▁l ưng
▁liê n_lạc
▁th ập
▁nộ i_đ
Â N
i x
▁tu ân
▁đất_ đai
▁nhậ n_xét
es ter
_l an
▁ý _tưởng
▁Tr ưở
id ae
▁h iệu
▁b ốc
▁V ĩnh_
▁M ặc
_b a
▁nói_ch uyện
_đ ảo
i_h ỏi
▁cụ m
_tr ùng
H òa
▁Ch ị
ra q
▁chiế n_sĩ
ra el
h át
ng_b an
▁b r
▁C on
▁ấn_đ ộ
▁th ơ
▁là o
▁chủ _quyền
▁kiến _trúc
▁kh iếu_nại
▁Bí _thư
▁nh ì
S E
▁qua n_sát
▁cổ _đông
▁tiếp _xúc
▁đồng_đ ội
▁sm art
_qu án
n_Đ ộ
▁Kh o
▁Ấ n_Độ
▁S áng
▁x ú
▁toà n_diện
u_n g
m_d ứt
▁c ắ
n_b ay
▁độ c_đ
N h
▁D uy
▁h 30
ph ạt
▁Đ ình
▁chủ _nghĩa
▁thời_ kỳ
▁d inh_dưỡng
_tr ả
▁xếp _hạng
▁50 %
en d
▁Ch ương_trình
▁hội _thảo
▁tr ương
▁th ở
▁Chú _thích
_tr ắng
▁th ật_sự
6 0
▁gi ấu
▁ký _kết
▁hải_ quân
i_c ục
▁s ẵn
▁H y
ch ế
▁chia _tay
▁0 8
▁4 9
▁L ào
▁chuy ế
▁châu_ Á
▁h uyền
▁19 5
oh n
▁tự _động
▁C L
il e
▁Đặ c_biệt
▁a t
▁nhà _hàng
▁kể _cả
▁chu ỗi
n_g ốc
▁chấ m_dứt
n_đ ảo
▁tuyệt_v ời
po ol
_ An
ải_m ái
▁g ợ
am in
▁m ổ
▁trả i_
▁trải_ nghiệm
at h
▁T S
▁t ượng
▁đò i_hỏi
▁chuyể n_đổi
▁tho ải_mái
▁d ị
▁ô m
▁s ắc
▁ch âu
▁Nh ân_
▁th ổ
▁c ưới
▁đấu_ giá
▁vậ t_chất
_l ệnh
_ D
Ph òng
▁đ àn
▁thế _kỷ
_t ỏa
▁p l
▁5 1
▁chă n_nuôi
n_ nhận
▁nhân_ lực
▁b ớt
▁nguồ n_gốc
▁b ã
▁th ận
▁h ữu
ạ c_
í a
n_v ọng
▁ph ỏ
▁1 ,5
▁ 00
▁món_ ăn
h ồi
▁tr ư
ng_c ấp
▁Ph an
▁biểu _tình
▁trực _tuyến
▁thi_đ ua
m_n ăng
_ V
_th ất
▁gi ày
r em
ut in
▁Tr ương
▁phân_ phối
đ ẹp
▁4 4
▁công_c ộng
ash ington
_t ai
a w
▁d ọc
▁tô m
▁chuyế n_bay
n_l ượng
amp ions
▁màu_ sắc
▁Quả n_lý
▁b o
▁xinh_ đẹp
iver pool
▁f acebook
▁b ạc
n_Đ ông
▁tiề m_năng
v er
d i
▁đăng _tải
▁ví _dụ
▁t ế
▁lưu _thông
▁ch ạm
▁b éo
▁h ậu
▁x óm
▁hữ u_
▁v ĩnh_
▁bổ _nhiệm
ph á
▁nghĩ a_
▁danh_ mục
▁tối _thiểu
▁h iế
▁bí _mật
▁bá n_lẻ
C C
t el
▁kỳ _vọng
▁nh é
H CM
▁ng ực
▁4 7
t i
▁r ạ
▁nhiệ m_
▁Thông_t in
_t ặng
l or
▁2 000
▁tuyể n_sinh
▁tính _toán
▁đấu _tranh
▁t ứ
▁tiế c
f t
ươ i
▁7 5
y ên
▁ ánh
▁Kế _hoạch
1 1
▁t ph
▁tin _tưởng
_t ất
▁liê n_hệ
▁phiên _tòa
▁nội_đ ịa
▁lợ n
▁uy _tín
▁g u
▁Th ái
▁s er
▁s ô
▁Đ ào
▁huấn_l uyện
ic a
▁đo ạt
▁r eal
▁tph cm
▁v inh
ar is
▁ it
▁t ắt
a_ch ất
v ăn
er o
▁tuy ên_
▁đội_ hình
_c ao
▁đại_ hội
▁Ng o
▁TP HCM
▁thường _trực
an s
▁C o
▁Dự _án
▁khác _biệt
▁0 6
▁phụ _trách
i_ giáo
_đ oán
▁nhiệm_ kỳ
m ỹ
▁n ặ
▁b ám
▁học _trò
▁định_ cư
▁Đầu _tư
▁d ung
n ay
▁b ă
e k
▁lưu_ ý
▁công_ch úng
▁độc_đ áo
▁6 00
▁A n_
▁quốc_ lộ
▁ch i_nhánh
v a
▁c ung_
▁bình_ luận
ng_v ấn
▁v ương
i_ph ục
le y
▁M ỗi
▁s ay
▁v iễn
▁gi ấ
▁Ph á
nh_ ủy
▁chí n
▁c n
▁R eal
c om
an i
▁ ol
▁th ô
onal d
▁cộ ng_hòa
▁thông _thường
▁n ém
w s
▁phỏ ng_vấn
▁niềm _tin
▁nói_ch ung
▁thanh_ hóa
_N h
g le
▁công _thương
ym p
▁L úc
▁thi _thể
n_đ àn
▁v ữ
▁đoà n_kết
L ong
_đ ẹp
▁ngh iện
▁trườ ng_học
▁v ẽ
▁xuất_ phát
ng_l ồ
▁Thờ i_
▁phục_ hồi
▁khổ ng_lồ
▁hả i_ph
▁tr ump
▁chiế m_đ
▁bài_ hát
▁tạp _chí
▁n ão
▁ý _thức
▁a f
▁nhạ c_sĩ
▁V inh
▁Đ ộ
▁xác _minh
▁nghĩa_ vụ
ơ n_
1 5
s ite
_kh oa
▁v ua
_n ay
▁Tập _đoàn
ic e
▁x ô
▁di _tích
▁th ườ
▁b ảy
▁Tr ang
▁bình_ đ
▁trộ m
▁Tr ump
_tr ừ
▁mất _tích
▁L u
▁h ầm
n_ng ành
▁6 5
▁phát_ sinh
▁Thanh_ Hóa
x p
▁cuộc_ chiến
▁đ ắt
▁smart phone
g uyện
▁m âu
▁đ ậu
▁cl b
▁dẫ n_đầu
oo gle
▁tham_ mưu
▁ra _đời
n guyện
▁hải_ph òng
▁CL B
▁trọng _tài
▁0 7
▁b ùi
_đ uổi
▁L a
▁ ấp
▁k ín
▁al b
G T
ng_d ây
▁đ inh
▁b iên
▁Ngo ại_
▁m ơ
▁tiê u_c
▁kh âu
▁họ a
t o
c ấp
▁cao _tốc
_h ào
▁x ương
. 201
▁nghiêm _túc
▁phổ _thông
▁t ủ
▁C N
e ch
▁kết_ hôn
▁nghệ _an
▁cử _tri
▁X u
a_kh oa
_c ông
▁s ắt
▁tổ ng_cục
▁th ầ
▁Hải_ Phòng
▁2 .000
▁Tham_ khảo
▁đ ậm
▁m ét
▁bà n_giao
▁a s
▁c ờ
▁tr ích
▁b inh_
▁chuyê n_ngành
▁u kraine
▁V õ
▁U kraine
or n
▁b iên_bản
▁d ày
y l
iệt _th
m_ khảo
▁tr òn
▁Tây _B
▁viên_ chức
▁w orld
ng_ph òng
_ ảnh
▁b h
▁sả n_lượng
Ph one
▁Nghệ _An
▁ am
▁Ch i
▁dự _toán
▁hư _h
▁đồng_b ào
▁mu ối
▁đại_ sứ
nh_ s
▁lã o
t_đ iểm
▁bu ýt
▁kh ố
▁sa i_l
▁p ro
▁tiêu_c ực
▁m ỏ
▁C ách
▁đ uổi
_s ao
▁1. 2
x anh
▁dứ t_điểm
▁siêu _thị
▁biểu_ hiện
▁mâu _thuẫn
i_h ạn
▁cảm_ ơn
▁10 %
▁ °
▁p in
h i
▁10 .000
▁hó a_chất
▁Đ ề
▁đạo _đức
c ách
▁m ái
▁K i
▁c ity
▁vu i_v
at a
▁kho á
▁đ ốt
▁sinh_ sống
▁6 3
▁đ ế
iê n_l
_th iệp
▁giao _lưu
i_n gờ
▁L ao
▁tí n_hiệu
_b ộ
▁5 2
▁th ất
▁th uyết_
_tr ích
▁h ưng
▁b ọn
▁cứu_h ộ
▁Cụ _thể
▁c ường
i_m ạc
n_c ấp
▁đườ ng_dây
▁vui_v ẻ
_thu ê
▁nh ựa
1 2
▁n ấu
t_l iệt
x uân
_T h
C H
▁ch ìm
▁1. 5
▁hoàn _tất
▁h ào
al y
an a
▁khẩ n_cấp
▁Phát _triển
▁d ấu
▁b ật
m ar
▁I S
▁x uyên
▁c ư
▁đồ ng_bộ
▁c ung
▁nhà _báo
v iết
▁quyế t_liệt
_tr ưng
▁c đ
▁Qu ân_
▁h ứ
▁C á
▁nhẹ _nh
▁lâu_ dài
▁C Đ
am_m ê
▁C ộ
▁đồng_ nghiệp
▁tiể u_học
▁cho _thuê
▁Th ắng
▁khoả ng_cách
_th ước
▁ngh i_ngờ
ần_l ượt
▁t ách
▁Hội_ nghị
▁sá t_
▁ph i_
▁Kh ánh
▁tiê u_h
▁nguy ê
▁C ity
▁c ấu
▁a b
▁thuyết_ phục
ng_s inh
▁hiệ n_hành
▁gia_ c
▁hài_ lòng
▁t ai
▁quyề n_lợi
g o
▁d ụ
▁dự _thi
r l
▁cải _tạo
▁Thành_ phố
▁dân_ chủ
▁đ ĩa
_c ách
▁ta xi
ó i_
t_ c
ess i
x h
_ph í
▁ ấm
▁nh ã
▁Nghị _quyết
_th ập
in o
▁tư _nhân
▁l ính
_b iển
▁l ọt
m_c ưới
▁B ùi
▁đông_ đ
▁ngh i
▁ch ấm
▁bồ i_dưỡng
▁W orld
r am
▁hô n_nhân
▁kh ẩn
▁ch elsea
i_đ ộ
ẹ o
▁giá m_khảo
ch ỗ
m a
▁in ch
▁Ch elsea
▁đ ền
_d ưỡng
▁qu ảng
▁nhà _thầu
▁tại_ chỗ
▁l ần_lượt
▁đánh_ b
▁Thời_ gian
â m_đ
▁V ân
i_d ụng
▁chỉ _trích
▁ngày _m
▁n et
▁i phone
nh_s áng
_th ọ
▁l ở
ngh e
u_ số
▁kha i_mạc
▁chế _tạo
_đ ẳng
▁sa i_phạm
ã nh
▁sự _thật
A M
▁dự n
▁ch ốt
▁phụ _thuộc
▁dựn g
▁v it
▁m ẫ
▁H òa
n_nh iệm
l đ
C N
X H
c n
▁nguồ n_lực
▁b ột
▁V ào
▁thiết_ lập
L Đ
ấn_đ ấu
▁kỳ _thi
▁N ữ
▁thuốc_ l
▁tự _hào
▁ng ầm
▁chàng _trai
▁tham_ quan
▁can _thiệp
▁dự _đoán
▁ng ắ
▁t ất_
▁m alaysia
▁l eo
▁v inh_
▁c ư_dân
▁ho t
▁5 6
▁tr ôi
on don
▁H ưng
n_l ời
▁thiên_ nhiên
▁M alaysia
▁mặ t_đ
_x ếp
▁5 4
m_ học
_b é
▁200 2
▁Ng uồn
▁L âm
t_ gi
▁tiề n_l
g oại
▁s ứ
ẫ m
▁chức_ vụ
▁Ho a
▁B H
▁K H
▁C ường
▁thá i_độ
▁t ội_
T ây
▁b ếp
▁hđ nd
▁HĐ ND
▁đ am_mê
▁vẻ _đẹp
ói_ quen
▁d ậy
▁tr àn
n_l ỗi
il an
▁mù a_hè
▁ý _định
▁K ỳ
▁C ar
▁phương _thức
▁5 3
▁5 7
n_kh ổ
▁anh_ h
▁ch im
▁th ợ
▁độc_ giả
▁nghề _nghiệp
▁v in
▁á nh_sáng
▁sắp _xếp
▁doanh_ nhân
▁B ởi
am es
▁a c
ol a
▁m ạch
ướ t
▁ ống
_h ương
N T
el a
▁H iệ
ar i
▁t ạ
▁đ eo
▁Tr ọng
▁th pt
▁Tổ ng_cục
▁phạm _tội
▁k ì
ất_ v
▁20 %
▁công_ viên
▁L an
▁TH PT
▁công_c ụ
▁bất _thường
n goại
▁T iếp
▁tuần _trước
▁h iếm
▁d ạ
▁x ưa
al ax
l oại
▁m iêu
▁S p
i gh
▁đá m_cưới
▁n o
▁H ữu
▁i Phone
▁đ ệ
▁viet nam
▁thứ _trưởng
▁tuân _thủ
▁kích _thước
y o
▁t áo
▁alb um
y ếu
▁tương_ ứng
et ro
_t ảng
ng_ph ạt
▁h è
▁ho a_
▁d ấu_
_t ụ
▁I s
t s
alax y
ent ina
▁6 4
ng_c ố
▁t nh
▁đ ương_
▁n út
▁tr ống
▁A nd
_tr ở
▁tậ n_dụng
▁trừ ng_phạt
_th ờ
▁Hà _T
▁bá n_kết
▁C A
▁gi am
▁t ông
▁ ấ
▁T NH
r ist
▁web site
▁Đ ường
,5 %
▁N ông_
▁th ói_quen
▁r ob
▁xo ay
▁xi n_lỗi
9 9
_g ỡ
▁m ừng
▁Ch o
▁Ph úc
▁Gi ấy
▁hu ế
▁s uất
▁th ụ
▁Kế t_
ar y
b ạch
_ch ủ
▁tnh h
▁TNH H
ymp ic
▁Đ ội
i u
▁chiếm_đ oạt
▁ph ấn_đấu
▁Hu ế
▁đ ạ
Đ ịnh
▁nhẹ_nh àng
▁viễn _thông
t_đ ẹp
▁Ho a_hậu
ất_v ả
▁8 00
▁v ỉ
▁thủ _môn
▁v ươn
▁bài_ viết
▁tố t_đẹp
ho àng
▁xuất_ bản
▁kh ớp
▁Ng uyên
▁Đồng _thời
▁ ẩm
▁kỳ_h ọp
os t
▁l e
▁m iễn
▁d ính
2 2
▁nă m_học
▁T iề
▁thủy _điện
▁v ir
b ằng
m_ph át
▁đa _số
▁a d
_l uyện
▁chú _trọng
▁v ất_vả
▁b ạch
▁Quốc_ gia
▁đề _cập
▁Giáo _dục
▁giải_đ ấu
▁gặp _gỡ
▁c ưỡ
▁Ho a_
m_ph á
▁tr ại
▁H ơn
▁t n
▁r ăng
▁c ứng
d áng
▁miêu _tả
▁lợi _thế
b ia
▁bắ t_b
_s u
▁th ơm
▁N ó
n_k inh
▁công_v ăn
▁ng ăn
▁nền _tảng
▁lợ i_dụng
▁d ung_
▁ứ ng_c
▁l ực
t or
▁ngườ i_b
▁trò_ch ơi
▁y ế
▁30 %
▁m ầ
n_ng ữ
▁củ ng_cố
▁làm_ ăn
_kh ai
▁mà u_đ
▁biể n_đông
▁h ò
ch ọn
▁5 8
▁s an
▁b ỗng
▁ ảo
▁d u
▁đánh_ bại
▁đ ạn
o x
iên_l iệu
_t àu
▁n ụ
▁khí _hậu
▁t ên_
ch i
ệt_m ỏi
▁8 5
▁ngườ i_l
ng_c ộng
▁hiệp _hội
_ch ịu
_h ôn
▁c ỏ
u_v ệ
▁12 0
k e
ot a
▁bảo_t ồn
▁dân_ sự
▁kh uy
▁điều_ lệ
p er
▁thá i_b
▁bạo _lực
m_n on
▁tính_ chất
▁chuyến _thăm
▁xe _đ
▁g ã
o c
s óng
on y
▁Vă n_
m_v ui
▁khen _thưởng
os e
se an
▁thuốc_l á
in d
▁biế n_đổi
▁co n_c
ch ơi
▁nh iên_liệu
▁ el
▁m ệt_mỏi
▁tôn _trọng
▁minh_ bạch
ư u_
▁đó i
▁hoà n_h
▁tổn _thương
▁m ốc
▁T ấn
▁cảm_ nhận
▁B ác
▁Đ ỗ
▁diễ n_đàn
▁trái_ph iếu
ng_đ áng
b ày
▁P H
v ấn
▁U n
▁t ệ
▁biế n_động
_h uấn
▁L à
▁thích _hợp
▁tr ục
▁k iện
▁cân_ bằng
▁th ượng
▁v ải
▁vì _sao
▁d àn
▁chuyể n_giao
▁i ran
ng_l ưới
▁quay _lại
▁ngày _nay
▁bạ n_đ
▁Liên_ kết
▁s ingapore
▁Lo ng_
▁gi ường
tv t
▁I ran
ê nh
▁ch ặn
▁quê _hương
TV T
▁200 1
▁bá nh_
▁tuần _tra
▁T ự
▁giớ i_hạn
▁S ingapore
▁s ợi
▁C an
▁A SE
▁r ắn
▁sai_l ầm
k ích
▁khó i
▁kh e
▁ng ờ
▁hoàn_h ảo
▁giáo _sư
_ ước
n_v ẹn
ũ i
▁a sean
▁anh_h ùng
▁đối _thoại
▁t ùng
h uyết
c_đ ầu
▁bắt_b uộc
▁trái _tim
n_kh o
Y ên
▁đại_ lý
ch ấp
▁s ốc
▁chỉ nh
▁cô _bé
it ed
▁độ ng_lực
▁bã i_b
▁Kết_ quả
▁tr ầm
ối_c ao
n_đ oán
_th oát
l ad
▁H àng
▁tuy ết
ro m
a_ch ạm
▁xứ ng_đáng
▁tên _tuổi
_s ánh
▁người_b ệnh
▁c ẩn
▁liên_ minh
▁đường_ phố
_b ào
_thu ốc
u_ kh
in do
et h
▁lừa _đảo
_x anh
▁t an
n_đ oàn
▁ủy _viên
gi ữ
▁Ch âu
▁đ ầ
▁s ưu
▁bả n_đồ
, 000
▁X em
▁trình_ bày
▁Ph ong
▁phân_ công
ag e
xp ress
▁trưởng _thành
▁nhà _văn
▁d i_sản
9 0
▁tập _luyện
▁đối_ph ương
▁A F
▁hư_h ỏng
▁kế _toán
g an
n_b ó
▁ph ilippines
▁kho an
▁Ph ụ
▁Ph ilippines
▁ASE AN
u_ng ầm
▁xét_ nghiệm
▁hiệ u_
▁ar senal
ng_h át
▁khá m_phá
▁quảng_b á
▁v a_chạm
▁Th ảo
▁đ è
▁lạ m_phát
▁m ây
▁t ắm
▁Ar senal
▁vũ _trang
▁m iếng
▁E U
▁B iể
▁Th áng
▁C ần_
▁tập _huấn
ho a
▁ước _tính
▁đại_ gia
▁lệ _phí
▁gắ n_bó
ro id
_h óa
▁đồng _tiền
▁v ướ
ng_m ục
_ng uyên
▁đ ích
▁thiên _tai
▁nặ ng_n
▁quen _thuộc
_n àng
N ha
u ô
▁quá _kh
▁Quốc_ phòng
▁hội_ nhập
r is
▁on line
▁t ái_
s c
▁tế _bào
▁niề m_vui
▁hu ỳnh
▁ki m_ng
▁cô _giáo
n_ch ỉnh
▁Ch iều
i_s inh
▁cử a_
n_b ang
▁l ắ
▁mạ ng_lưới
▁nặng_n ề
▁3 .000
▁ @
▁quyề n_hạn
en a
▁họ c_b
▁kịch _bản
▁L ưu
▁sâu_ sắc
_ho a
▁nướ c_
▁động _thái
ng_ch ứng
▁s ắ
▁Thứ _trưởng
_ S
▁qu ần_đ
x e
a el
▁nội_ bộ
_b ỏ
▁đề _tài
▁ru ột
▁h iền
ph ong
▁v an
1 3
▁V ậy
▁h ỏa
▁kiểm _toán
▁tích _hợp
▁m át
g entina
▁Gi ải
_h ạn
▁v iêm
▁5 .000
▁th ụy
▁xung_ đ
▁đ ặng
cel ona
▁l ây
▁vit amin
▁phân_ kh
▁M ạnh
▁m úa
▁V in
n t
▁lạ c_
▁kích _thích
▁hậ u_vệ
▁Hu ỳnh
▁t e
c ãi
ước_m ắt
▁T ùng
▁mầ m_non
▁sáng _tác
▁hạ ng_mục
▁k iêm
▁so _sánh
▁19 4
_ch ính
▁ch ương
c ao
▁k êu
▁có _lợi
▁ru ộng
▁khoá ng_sản
▁d áng
n_m inh
▁S u
_gi ải
▁H òa_
_ch ồng
r on
▁Vă n_hóa
▁âm _thanh
ng_b ày
▁tình_ nguyện
t ain
▁A m
t_ h
▁đ ua
▁tỷ _giá
ạc_ nhiên
▁Giao _thông
▁a pple
n_nh a
▁nh ấn
▁mu ộn
▁nh ịp
t_gi ảm
_l a
▁6 2
▁L ương
▁Qu ỹ
▁ng õ
_tr ụ
▁x úc
n_b ạc
▁m ỏng
▁nh ạy
nh i
ng_m ắc
▁thất_ vọng
d u
▁gia_ nhập
_c an
▁L oài
K h
▁gi ọng
ắc_ m
đ iệp
▁ch inh_
e f
▁ng ạc_nhiên
▁tư _cách
▁A pple
▁tiê m
▁g ạch
_k ỳ
c_đ iểm
▁tranh_ cãi
▁m 3
ut h
_t ối
_v ợt
▁biên_ chế
▁Th ụy
▁L ễ
_ba n_nha
▁không_ quân
▁vướ ng_mắc
▁khẩn _trương
▁đồ ng_n
▁tây _ban_nha
▁đình_ chỉ
▁a p
▁giá _cả
▁đố i_đầu
ng_x óm
▁sinh_ học
t_đ ối
▁trư ng_bày
ng_n ói
n_r ũ
▁xung_đ ột
ng_s uất
au l
.1 0
_đ ồ
G H
an_ Nha
▁7 00
▁thực _thi
_gi úp
m_ r
▁tà u_ngầm
▁Tr ường_
▁Đ ặng
▁Tây_B an_Nha
▁triệ u_
▁c ột
▁A ir
▁thưởng _thức
_c ảm
▁l uyện
n_đ ồn
nh ắc
▁T A
▁c anh
▁T u
b ỏ
_th ận
▁quyế n_rũ
an o
▁hà _tĩnh
▁cục _trưởng
▁dự _phòng
n_gi áo
▁tiế n_sĩ
▁ch ừng
▁sang _trọng
ng_l oại
on da
n_nh ắn
▁1. 3
u_n ạn
▁cao _đẳng
▁Viet nam
▁100 .000
▁s ập
▁khuô n_mặt
▁tổ ng_cộng
▁6 7
▁ngô n_ngữ
▁nhân_ sự
▁tương_đ ối
▁ch ai
▁h ế
▁bắc_ k
▁m ồ
_ch uẩn
▁ng ộ
▁Gi a_
e ar
▁B r
▁h eo
▁m ớ
▁5 9
▁Th ổ
▁b ông
m_ nghiệm
▁Tr ườ
1 6
indo ws
▁giá m_định
▁Hà_T ĩnh
_th ách
▁l ấp
▁lưu _trữ
▁t ụ
▁quần_đ ảo
g ữ
▁tổng _thể
▁độ _tuổi
t d
▁V ương
r ộng
▁ch ém
▁thu _thập
▁Th iên
▁g tvt
▁v ở
▁G TVT
▁bị _can
▁ti n_nhắn
▁Hiệ n_nay
▁m ười
▁au st
▁ki m_l
_n ạn
▁phá _h
▁tr ạng
▁gi ật
▁l iệt_
b ur
iệt_th ự
▁cứ u_nạn
ng_k ính
▁hà ng_xóm
▁ph e
▁Bắc_ K
▁f or
Tr ung
▁d ài_
▁thiế u_
ng_r ãi
1 4
▁rộ ng_rãi
nh_ l
▁Ch iếc
▁s ăn
▁C l
l ạ
p a
ế n_
▁cực_ kỳ
▁I t
▁trọ ng_điểm
▁N inh_
1 7
lạ c_bộ
▁Đ inh
▁quyề n_lực
_l ập
▁từ _thiện
_th ăng
Th ương
▁to ur
n gữ
▁C ổ
▁l ộc
▁chê nh_
▁đ ê
_t iễn
▁Đ ả
_đ iển
C B
▁dân g
▁ng ắm
▁tiêu_ biểu
▁n ồ
▁mặt _trời
▁học_b ổng
▁tuyệ t_đối
▁bằ ng_chứng
▁vỉ a_hè
▁Y ên_
▁lắp _đặt
▁nhiệ t_đ
▁thể _dục
▁khố ng_chế
at t
▁bất_ chấp
▁7 2
▁kết_ c
▁cân_ nhắc
▁gi ang
▁cô _nàng
▁nă ng_suất
▁xét _tuyển
n_h àng
▁c ăn
▁bàn _tay
C S
▁tuyể n_dụng
▁chi _trả
▁điể n_hình
▁M ới
_ho àng
▁A ust
▁h ố
▁xe_đ ạp
▁25 0
▁c al
▁đ ỡ
iv e
▁b ụi
▁T âm
lệ ch
_tr ại
_t ân
Ch âu
ng_ch ỉ
▁bảo _quản
▁đồng_n ai
▁b v
m_h ọa
▁cần _thơ
▁đông_đ ảo
c s
▁Q UY
1 8
▁tư _tưởng
▁Công_ nghệ
▁trung_ học
▁s ạt
▁xe _khách
▁gia_c ầm
▁ anh_ch
_ ẩn
ng_k ết
▁B V
▁in don
▁tiế n_bộ
▁h ang
▁con_c ái
▁m ả
g on
▁t ưở
▁chấp _thuận
▁dự _trữ
▁Ind on
n_n ước
▁ti n_đồn
Th ơ
m ối
N ai
▁In ternet
▁indon esia
al a
▁cú m
a_ r
▁F acebook
▁Indon esia
▁thử _thách
▁201 9
▁b iệt_thự
▁đặc _trưng
T hành
▁bu ô
▁định_ kỳ
yan mar
▁khuô n_khổ
ộ p
▁lờ i_
▁trưở ng_ban
▁tên_ gọi
▁đối_ph ó
▁tổ _quốc
_qu ý
▁S ơn_
▁Đồng_ Nai
▁9 5
▁c ận
▁hành_ nghề
er r
▁tiền _tệ
iễ u
▁bình_ dương
▁thông_ điệp
▁s ĩ
▁tay _vợt
▁pho ng_độ
▁Lao _động
ng_ph í
▁người_m ua
▁n ảy
▁cửa_ khẩu
▁tạm _thời
▁Cần_ Thơ
▁ă n_m
x a
ac e
_h át
ối_ l
▁Trườ ng_hợp
▁M ôi_trường
_l ộ
▁ng ọt
▁th ỏ
▁công_ lập
▁b l
▁đ ú
_b ệnh
.2 00
▁S er
s s
▁bộ _máy
v àng
▁hoà ng_
▁T iế
▁tiên _tiến
▁thẩm_ mỹ
▁đ ành
▁đ áy
▁c ắm
er ry
▁theo _đuổi
▁vir us
ne y
▁6 8
ưỡ i
_ qua
▁Bình_ Dương
c ây
ph ận
▁l ẻ
▁c ty
▁đ ậ
ph i
▁k iên
K S
m ẫu
▁ứng_c ử
đ ối
▁học_ viên
u v
ương_ vị
▁tin _tức
_m óc
▁chênh_ lệch
▁C ầu
▁h ẹn
_tu ệ
▁A b
▁nhập _c
is h
▁CH Ủ
▁trang _trí
▁B a_
▁c ản
▁8 4
▁lộ _trình
▁loại_ hình
n_b inh
_đ ội
t_m ục
os co
▁d ĩ
al e
ill a
▁kh ẩu
▁mo d
▁v a
▁H ình_
▁quảng_n inh
▁n ắ
▁H ệ
▁H ãy
▁b át
▁Ki m_
▁công_b ằng
▁đặ c_s
▁gh ép
s ơn
▁ngoại _tệ
▁trực _thăng
▁l ậu
▁ngày _sau
ợp _quốc
▁loại_ bỏ
▁Ch âu_
▁Tư _pháp
▁th ang
▁Th ố
▁ch ánh
▁Thanh _tra
_n am
▁cắ t_giảm
u_đ iện
_n ợ
▁trò_ch uyện
ủ n
▁độ ng_đất
en k
S a
▁h iếu
▁h ỏng
nh_ khắc
_nh ớ
an e
i um
▁đ a_khoa
▁góp _mặt
rem ier
ng_đ ộng
▁cao _su
▁6 6
▁biểu _tượng
▁quảng_n am
_h ại
n_x e
▁H ằng
▁dầu_ khí
ướ c_
▁Quảng_N inh
▁thổ _nh
▁c ỡ
l ang
▁chi _tiêu
▁t ám
▁cá _tính
▁m ảng
ic ros
▁th ạch
ng_s a
▁k em
▁m ượn
▁trí _tuệ
▁k í
▁mặ t_n
i_c ảm
o áng
▁đoàn _thể
n_gi ang
▁khuyế n_m
o ft
▁chứ ng_chỉ
▁gợ i_cảm
▁tiếng_ anh
▁tr ái_
ph ạm
▁tổ ng_kết
▁d ốc
ex ico
▁X e
▁t iệm
▁ho ài
▁hữu_ nghị
▁m ỡ
▁hành _tinh
_ Kỳ
ẻ o
▁C ty
▁O bama
ng_m ặt
ng_c a
▁thiết _thực
▁o bama
ol d
▁thực _tiễn
▁d âu
▁O l
▁d ập
▁T N
_c ười
▁T ân
▁hứ a_h
▁kh éo
_ph ú
▁Công_ Thương
▁Quảng_ Nam
3 5
▁m adrid
Ị NH
▁r euters
▁t ỏa
▁đ uôi
▁m ôi
ig a
▁thư _ký
▁chức_ danh
▁Th ường
▁Qu ý
▁M áy
▁bạn_đ ọc
▁M adrid
▁đả ng_viên
▁tr ước_mắt
i es
ng_ qu
u_h ành
▁thanh_ l
▁hứa_h ẹn
m_ ảnh
▁kim_l oại
▁người_l ớn
▁dẫ n_d
▁vết _thương
_Nh ĩ
▁g an
▁chủ _nhiệm
▁phát_ sóng
▁quá_kh ứ
n_l iền
▁qua _đời
▁P C
▁cấu _trúc
▁lã ng_phí
_t ổng
▁Ng ườ
▁ ùn
▁G u
o ạch
▁T R
▁tr âu
▁L iê
▁Đ ị
▁bài_ học
▁m en
_t ông
▁ph ước
b y
▁D ân_
_v ật
▁đồ _
▁th âm_
▁ngườ i_nhà
▁m y
▁tr inh
▁ng uyệ
▁ứ ng_viên
ng_d ạy
▁Kho a_học
_t ụng
▁h n
▁v ắ
▁ ê
▁trạng _thái
▁chiế n_binh
ng_s áng
▁ch ì
i_d ậy
▁thú y
▁qu ỳnh
▁t ối_cao
▁c t
▁tiế t_mục
▁bờ _biển
▁s áp
A T
▁b tc
▁199 9
▁phân_b iệt
▁sơ _thẩm
▁hóa _đơn
▁dài_ hạn
▁B TC
a f
▁aust ralia
▁giả ng_dạy
i_đ ất
▁Báo _cáo
▁chứng _tỏ
osco w
on d
ch ợ
▁D ân
▁Aust ralia
▁nhập _viện
▁l ụ
▁m ềm
ov ic
▁m c
▁tr inh_
▁h àn
▁chiều_ dài
▁ im
N g
▁vă n_học
c_đ ộng
▁đa u_đ
l l
▁C uộc
▁chất _thải
▁thương_ binh
ị n
ủn g
▁Đ ã
n er
▁vă n_minh
▁bình_ chọn
▁nước _thải
▁N S
it h
▁hy _sinh
▁R iêng
▁ii i
▁in d
Ph i
ch iếu
▁Nông_ nghiệp
▁ủy _quyền
▁s ụt
▁Th úy
▁Ngoại_ giao
▁7 7
▁t ốn
▁7 6
u_ k
▁ph un
▁đo ạ
▁g ọn
▁L ã
▁ng ành_
r es
ĩ _kỳ
▁7 3
▁t án
▁9 8
▁thổ_nh ĩ_kỳ
H ải
en z
▁đ ẻ
▁ch ặng
▁Thổ _Nhĩ
_ngh ỉ
▁dẫn_d ắt
▁ng ựa
▁Thổ_Nhĩ _Kỳ
▁ Ư
▁cân_ đối
uy ề
ng_c ụ
ul l
▁kh uyết
▁l ọc
▁trợ _cấp
▁qu ầ
▁trưở ng_phòng
▁anh_ch àng
▁tiền_l ương
_l ễ
▁thu_h oạch
_gi ác
▁khở i_động
▁bất_ c
ch ester
▁dịch _bệnh
▁t ang
g s
ng_ng ày
▁kim_ng ạch
gh an
Ế T
ng_ T
▁20 .000
▁đ ồn
ủ i
▁nhạy _cảm
▁xú c_động
ữ a_
▁sức_ ép
▁m ật_
one y
▁R euters
▁tỉ _lệ
▁B ản
▁khó _chịu
▁t and
Đ ông
▁k ar
ưở i
▁Ch u
▁Gi ang
▁T ất_cả
▁m ày
▁thí _điểm
▁t iết
n_b ệnh
▁bắc_k inh
▁phi_ công
▁khủ n
ng_ph ú
▁Đại_ hội
▁khủn g
▁s ex
▁H N
▁đấu _thầu
at o
_đ ộc
▁1, 2
icros oft
▁ngườ i_ch
▁Bắc_K inh
▁trợ _giúp
▁b ọc
▁ ơi
▁đầu_ mối
▁đối_ ngoại
_ch ương
_tr ọ
▁v ịnh
▁TA ND
▁ ồ
▁ or
▁cung_ ứng
_đ ường
▁Qu ỳnh
_ch iến
▁su ối
▁n ở
▁đột_ phá
▁mặt _trận
▁họp _báo
▁ch i_cục
▁K inh_tế
▁tập _trận
▁ch iêu
▁T ỉ
ber g
▁khoả nh_khắc
▁D u_lịch
▁Hiện _tại
n ặng
▁H uyền
v ệ
▁quá _tải
▁II I
p e
▁70 %
m_d ò
▁câu_ lạc_bộ
ố p
▁y o
_s uất
▁trọng _tâm
▁th iê
▁nữ _sinh
e on
I Ệ
▁t w
_Đ ỊNH
▁trọ ng_lượng
▁nh ắm
▁thân _thiện
▁Hồ ng_
▁g en
▁Tr à
Ộ I
▁m i
▁vệ _tinh
▁sinh _thái
▁Thực_ hiện
c ia
▁trộ m_c
▁vă n_
▁trinh_ sát
▁phá t_động
u ro
▁m ọc
nh ật
B ộ
▁h iển
▁kết_c ấu
▁phủ _nhận
▁2 ,5
▁em ail
▁c ampuchia
n_đ ề
▁h iến
_nh ập
▁hành_ lang
▁máy _móc
▁c ai
▁lời_ khai
▁m ất_
▁hóa _học
▁yên _tâm
_d âu
▁d i_d
▁C ampuchia
ec t
▁chiều_ cao
▁so ạn
▁Xu ân_
v ào
qu à
▁C ol
▁d uyên
▁c úp
▁R o
▁nông_ sản
▁h ứa
n_c áo
▁l đ
▁h ối_
▁ ước_m
▁Hải_ quan
▁kh uyên
▁phân_ loại
▁s amsung
c_m ừng
▁sưu _tập
▁v ũng
▁dụ ng_cụ
▁L Đ
▁Ph ước
▁Hiệp _hội
▁nh í
▁thă m_dò
▁Biể n_Đông
▁Đ ơ
▁T òa_
▁đ ồi
_ch ất
▁d ồn
▁kh ắc
_d ày
▁giới _tính
▁c ất
▁ ao
▁đị nh_m
▁đ ài_
▁tô n_giáo
▁th ưa
▁0, 0
▁thầ n_kinh
▁kh ơi
▁b i
▁luật_ pháp
gi à
▁dự _định
▁gi àn
▁th iể
a ch
▁c ay
▁bê _tông
▁miền_n úi
▁S amsung
▁bu ồ
n_s ắc
▁Phú _
▁nh ãn
▁new s
▁hàng_h ải
c_m ơ
_c ánh
m_d ụng
▁đầu_ vào
▁nhất _trí
▁r onaldo
▁P l
ot t
▁hiệp _định
▁di_d ời
▁cs gt
I I
▁R onaldo
ân_ ch
▁m ệnh_
ă ng_
▁CS GT
x in
▁quy _phạm
▁truy _cập
▁că n_bệnh
p s
▁T ính
▁th ải
▁ ác
▁Nh ân
▁g ãy
▁9 9
▁ %
▁xúc _tiến
▁nguyệ n_vọng
▁tiề n_mặt
▁pho ng_phú
▁triệu_ chứng
▁h ổ
▁da v
▁dẫ n_lời
▁miền_n am
▁th ửa
▁u 23
▁khỏe _mạnh
▁C ái
▁U 23
r im
_th ang
ượ c_
▁50 .000
▁t iện_
▁Bar ca
▁bar ca
▁hà m_
▁2 .1
▁s e
▁hoa_ kỳ
▁199 8
▁b ể
▁nh ắn
I A
▁b ẩn
▁kh ép
ng_ ủy
nh ở
▁n uô
▁món_ quà
▁gắ n_liền
▁VI Ệ
ng_m ạn
▁cải _tiến
▁b razil
ng_ph ó
▁Đại_ sứ
f i
▁tr ân
▁H ợp
▁nụ _cười
▁đ ầm
▁t ọa
▁h ung
▁B razil
ch úng
▁th ằng
▁D av
ng_l ợi
in k
▁in ter
▁30 .000
▁L iên_h
▁trộm_c ắp
▁đau_đ ớn
ì a
▁đá m
▁biên_ phòng
os s
▁A P
▁Kh oảng
▁7 8
▁đô _la
▁lã ng_mạn
▁Ngay _sau
Th uận
▁t uyệt
▁ho ả
▁ ang
▁s im
▁Hoa_ Kỳ
▁t ối_
▁H ô
▁nội_ vụ
d ấu
▁Ch iến
▁v ạn
▁ly _hôn
▁sô i_động
▁l ông
▁bế n_xe
▁Ch í
▁199 0
▁chú c_mừng
▁Ngh ĩa
ghan istan
▁k inh
ngh i
▁b đ
▁y ork
▁ứ ng_phó
▁Th ậm
▁phòng_ng ự
h ứng
▁mùa _đông
i_ch ơi
er ia
▁6 1
▁đồ ng_minh
▁lương _thực
▁thiể u_số
▁m ờ
▁hiệu _trưởng
▁Đ ất
▁Y ork
▁n a
▁B Đ
_s ổ
▁ng ại
▁Đ iểm
▁bảo_t àng
▁tiếng_ Anh
▁đối_ diện
▁kiên_ quyết
ol f
▁g ánh_
▁thẳng _th
▁vu i_chơi
_N GH
▁khuyế n_cáo
_m ời
_t óc
▁7 4
▁i raq
_c ổ
al i
▁đối_ lập
▁đ a_
▁bỏ _qua
i_ k
S C
ng_ xử
▁S ong
▁I raq
▁is rael
▁đánh_ dấu
▁x a_
_ng ơi
▁độ _cao
▁c at
▁thực_ hành
▁tỉ nh_ủy
▁1. 4
▁d ạo
▁vũ _trụ
▁Is rael
▁Ch ánh
▁tà u_
▁c áp
us h
d ịch
▁h am
▁công_ đoàn
Ô NG
_T R
▁phân_b ổ
▁8 8
▁m ảnh
iên_h ọp
▁kê _khai
▁binh_ sĩ
▁C à
▁A le
▁cố _định
▁thắ ng_lợi
▁l ứa
tain er
ối_l oạn
▁ngắ n_hạn
▁vù ng_đất
▁B á
▁tr ịnh
_s út
ak istan
▁t ướng
▁đ ẳ
▁chỉ _định
7 5
ra d
▁tình_ báo
▁cẩn _thận
ich ael
_đ ỏ
▁6 9
▁h ài
n_ng ại
▁m on
▁ngh iê
M inh
▁thủ _trưởng
▁80 %
▁chă m_ch
▁tiêu_d iệt
▁th ẩm
uy ên_
_ ủy
igh t
▁chinh_ phục
▁truy _tố
u_b iết
▁tr ượt
▁T im
▁11 0
▁ứ ng_xử
y t
▁ [
B ắc
▁n át
_ng uyện
▁khách _quan
▁cách _thức
▁g as
▁Đ ài_
▁x à
▁L ực_lượng
i en
▁n on
_v ỡ
▁c ong
iền g
▁thả m_họa
▁N ói
▁g r
▁Nh óm
▁g ay
▁Ch ưa
▁g ầ
▁buô n_l
▁5 %
▁tr ộn
nh iệm
▁d ỡ
▁l ên_
▁đẳ ng_cấp
▁hiể u_biết
t_kh i
▁thiế u_n
▁chuy ền
▁H iền
▁R ob
▁trái_ cây
_h ơi
_T r
▁Ng oại
n_b ắc
▁khuyết _tật
▁đề _c
ik e
▁T o
h ỏi
▁thường_ vụ
n_b iết
_tr ần
▁w w
▁bả n_l
▁thủy _lợi
▁K iểm
e h
▁sáp _nhập
t_ g
▁b ơm
▁cây _xanh
an n
m_nh ìn
▁Thủ _đô
▁vữ ng_ch
▁t iệc
▁lý _giải
▁ùn _tắc
ắc_ nhở
▁con tainer
▁r ối_loạn
▁tr uyện
h ồn
▁ph ế
_d anh
▁giả ng_viên
▁tranh _thủ
er c
t m
n_b à
▁j ohn
▁i v
▁M ẹ
▁chu ột
▁L iên
ng_c ảm
▁tr ùng
ro up
▁nh ắc_nhở
2 4
iều_ hành
_ch ơi
▁T ên
▁bất_c ập
▁trẻ _trung
▁đồng _tình
▁8 3
ẩ n_đoán
▁lo a
P H
▁Tây _N
▁th áp
w ood
n_n ào
▁Tr ịnh
▁T ú
▁gầ n_g
ữa_ ăn
▁J ohn
▁cực_ đ
▁công_ vụ
▁k iề
▁phầ n_nào
_l y
▁l au
▁B ước
▁t am_
▁w ashington
ell a
▁40 %
▁m ật
▁th ùy
▁liê n_bang
▁nh i
▁qu ét
▁gần_g ũi
ng_ quang
▁h uyết_
_đ ón
i i
i_kh uẩn
▁W ashington
ng_l ong
▁học_ phí
▁Xã _hội
_tr ong
▁M y
▁ph iên_họp
n_ xuất
▁ch ampions
▁kho ác
▁Tổ _quốc
B C
kh u
▁A T
đ ịnh
▁d ược
▁nam_ giới
n_v ật
▁nhì n_nhận
▁Đ ài
p l
▁Cộ ng_hòa
▁Ch ampions
▁cảm_ hứng
▁là nh_m
▁lành_m ạnh
▁nh ầm
_b ao
▁gia _hạn
▁ước_m ơ
▁th ức
▁l iverpool
▁cố _tình
▁1. 6
▁m ư
▁đó n_nhận
▁hành_ h
iếp _ảnh
▁ph ượng
▁huy _chương
ự u
▁Tr uyền
▁dữ _d
▁L iverpool
▁b ơi
▁doanh_ số
▁f l
▁nghỉ _ngơi
▁T ình_
▁ng ón
▁s ch
▁n ấm
▁19 3
▁th ổi
m_l ặng
▁ng ưỡng
▁ os
▁Th ường_
▁l ượ
ok ia
▁b lo
▁miề n_bắc
nh am
▁tí n_nhiệm
▁tra ng_điểm
▁p ark
▁n inh
▁H oài
▁tất_ nhiên
▁200 .000
▁đ b
i_d ương
ân_ c
▁qu e
▁ch án
▁Th ực
▁học_ viện
▁In ter
▁r ải
▁đặc _thù
▁d án
▁khả _thi
▁Đ B
_t ỉnh
_g a
▁l iều
▁tt x
▁nhạ c_
▁TT X
▁tờ _báo
▁cuộc_đ ua
▁Tài_ nguyên
r ối
c on
▁n inh_
x ứ
qu e
▁bí _ẩn
▁b ọ
▁hả i_sản
o e
ng_h oàng
▁ngành_ nghề
m_ kh
▁M ọi
▁hồ i_giáo
_s ự
l es
▁b ữa_ăn
_g ìn
▁đá ng_
▁t ồ
▁n ếp
▁thận _trọng
▁miền _trung
▁v i_khuẩn
f ord
▁Nội_ vụ
▁p utin
▁liệt_ sĩ
▁8 6
▁B ị
▁h ưu
r ic
▁dấu_ ấn
▁p c
▁P utin
▁D iễ
▁ ]
▁ch è
ng_h iến
▁K T
_d uy
▁Q L
▁An g
▁Hệ _thống
▁người_ch ồng
▁tầ m_nhìn
ir e
h am
b i
▁linh_ hoạt
▁đà n_bà
▁đồng_h ành
_đ ại
▁r ét
lo an
▁ch ẩn_đoán
_kh o
_C H
▁ngh i_phạm
▁Ch ứ
▁tr ùm
m_b é
▁r ào
▁buôn_l ậu
▁E l
▁rạ ng_sáng
▁e x
▁hồ i_phục
▁l ạc
▁đặ c_điểm
w n
▁v ố
_tr ội
▁9 2
▁P ark
▁Do anh_
▁ra d
▁phò ng_kh
▁T oàn
▁giấ c_mơ
▁h ù
ov a
▁Nh iệ
▁phân_kh úc
▁Ủy _viên
uyệ n_viên
▁1.5 00
▁giữ _gìn
▁th ăng
u ế
▁d ở
▁Đào _tạo
▁ Ý
▁Th ương_mại
▁giọ ng_hát
_th áp
▁Quy _định
▁n ướng
Ỉ NH
▁cư _trú
▁thực _trạng
▁hợp _lệ
▁D i
k a
▁sinh_ nhật
▁t ẩy
▁r ạp
▁New s
▁mặt_đ ất
▁m èo
▁huyền _thoại
▁Nhân_ dân
▁trung_ vệ
▁bình_đ ẳng
▁điệ n_b
gi ận
_b ạc
▁phòng_ng ừa
▁ttx vn
▁quả ng_ng
▁chi p
▁TTX VN
id e
g a
8 8
▁h ẹ
▁màu_ xanh
▁th iệ
do l
▁chất_ liệu
▁h ar
▁h ẹp
an ia
▁S ao
▁đầu_ b
▁D anh_
▁ Ú
▁chất_ vấn
▁bộ _đội
▁ww w
▁d ải
▁nha n_sắc
c áo
▁quyết _toán
▁q l
▁tư _duy
▁quảng_ng ãi
_tr ồng
▁x ưởng
▁đài_ loan
▁co n_d
▁chỉ _thị
▁C T
iến_ quân
_ quân
▁g oogle
▁biên _tập
om a
▁D ung
▁dữ_d ội
▁Hồ i_giáo
▁p al
▁so ng_
▁gia _l
▁thanh_ khoản
▁thương _tích
_ R
▁b ào
▁b e
c ar
▁C ấp
▁l am
▁ch ả
x y
▁vững_ch ắc
▁bướ c_đầu
▁điể m_s
n_kho ăn
_tự u
. 00
▁t inh_tế
▁Th ư
▁V ị
t_b iểu
▁Phá t_biểu
L oan
▁v iê
▁hợp_tác _xã
▁0 ,5
▁đề _thi
▁L àm
g ãi
b iz
t_ng ào
ạ c_sĩ
M ỹ
m_ch ế
▁Đài_ Loan
▁199 2
ắc_m ắc
_đ ầu
▁th ảm
▁tú i_
▁Ch i_cục
▁Kh ánh_
▁chức _trách
n_đ án
▁H iếu
▁nguồ n_nước
▁M ặt
.1 1
b o
▁tính_ mạng
▁thượ ng_đ
▁chủ _nhân
_n iên
▁Gia_ L
▁10 5
▁diễ n_xuất
▁P T
▁khởi_ công
ed ia
▁thực_ chất
▁to án
▁thích _thú
▁ngọ t_ngào
▁Quảng_N gãi
▁đánh_b ắt
▁cây _trồng
▁Th ùy
s út
_t ù
_k ịch
ng_đ ốc
▁bảo _l
▁th ắc_mắc
▁chiều_ nay
▁bă n_khoăn
▁7 9
▁kiểm_s át
▁thành_ ủy
_h ộ
▁sát_ hại
▁phó _tổng
▁nhiệt_đ ới
▁ngoại _trưởng
▁Tr inh
▁m ực
l er
é c
▁1. 0
▁R ất
▁L y
r en
▁s on
u_c ó
▁ngoại_ ngữ
b c
Ộ NG
▁giải_ cứu
▁phò ng_không
, 00
z a
n_v inh
▁kha i_
nh_h òa
▁tự a
▁sá ng_kiến
▁t ồi
▁1. 1
▁lý _tưởng
n_h ồi
▁vị _thế
▁nội _thất
▁500 .000
v e
▁trang _trại
▁thất_ nghiệp
▁d ưa
▁A d
▁tự _nguyện
▁bản_ quyền
▁ en
▁199 5
▁ngày _trước
▁kho ản_
▁t iên_
▁C ử
▁khá m_nghiệm
▁f ran
▁l ùi
▁hình_ phạt
▁T ỈNH
ian o
_đ iều_hành
▁Tòa_ án
▁phân_ giải
▁bá n_đảo
▁ph iến_quân
_h òa
el d
az a
▁song_ phương
▁chiến _thuật
com bank
▁cố ng_hiến
1 %
iv es
t_đ ể
h ước
▁Độ c_
▁Đề _án
▁b ú
▁nghỉ _h
C T
I V
let ico
_tr ái
▁C am
▁r òng
▁kiể m_định
▁e m_bé
▁4 .000
▁H ar
▁b ấm
▁giao _tiếp
h ạng
▁l ai
▁thẳng_th ắn
▁ph à
▁mod el
_b ình
▁khởi_ nghiệp
▁A nh_
ail y
▁kinh_ hoàng
▁ông_ chủ
_b ị
ng_ nghe
2 6
n_b ù
▁th ù
▁l át
n_ch ứng
l inh
▁r è
_th ừa
▁hà ng_r
▁xuất_ nhập
▁ph ấ
_b inh
▁G oogle
▁nhân _tạo
ấ n_
▁Quốc _tế
ại_ d
e in
▁phòng _thủ
▁c ống
▁Đại_ diện
▁B iên_
▁hài_ hước
_tr áng
▁c ước
▁nă ng_động
▁sá ng_l
▁đông_ n
▁S ch
▁giả i_ng
▁hàm_ lượng
▁d ừa
▁H S
▁p t
▁đội _trưởng
▁nhà _c
▁giá _thành
▁đề n_bù
▁B ạch
▁90 %
▁ngă n_c
▁nhân_ chứng
ot o
ư u_điện
n_h ợp
▁nh iếp_ảnh
▁xe _hơi
ộ m
▁vu i_m
▁t v
▁vô _tình
▁th ao
▁C al
▁ch úc
▁v ây
▁d à
▁cao _điểm
▁AF P
▁v ội_
▁K inh_
▁af p
_v ũ
▁xe _tăng
▁ho ang
▁mẹ _chồng
▁l âm_
▁ti n_c
4 6
▁Tr ao
▁P al
▁trá i_đất
▁nhiệt _tình
▁triệ t_để
I D
tt p
▁đ ắ
t_c óc
▁K iể
▁t ê
▁hậ u_
▁đồng_b ằng
ệ n
▁Th iế
▁bản_ án
▁đông_n am_
ib ya
▁tr ầ
▁8 7
t_ng ột
_đ ạc
▁kỹ _sư
▁dây _ch
_l ượng
▁già u_có
▁hệ _điều_hành
ầ n_d
u_l òng
▁h s
_gi ảm
▁tin_c ậy
_tr ăng
▁Đ iện_
▁ngày_m ột
▁199 7
eo r
N am_
▁Hình_ ảnh
▁9 00
▁Ph ượng
_h ãi
▁Th ông
▁khá nh_hòa
ị t
▁B ay
▁tỷ _phú
▁cấp _ủy
▁d uyệt
ẩ m_
▁độ t_ngột
▁Ch iế
▁ngh iêng
▁Đông_ Nam_
▁Th ạch
▁cố _ý
▁bắ t_cóc
▁điệ n_lực
er m
▁số _phận
▁bảo _mật
▁v ội
▁k t
un ce
ent us
▁tứ _kết
▁cổ _vũ
▁tiêu_h óa
▁suy _giảm
▁huấn_l uyện_viên
▁x ách
▁r ực_
n_h ò
l am
w ard
▁đồ ng_loạt
▁ ạ
▁l iệt
▁d ãy
▁t iệ
n_độ ng_viên
▁sợ _hãi
u ột
▁Hà _
▁2 .2
▁lớp _học
▁Th ay
▁chân_ sút
▁ch ắn
▁sư _phạm
E A
▁đ ựng
▁Thực_ vật
▁lạ m_dụng
r ỡ
▁C a
▁T in
m_g ái
i_m ăng
uv entus
▁N ước
▁h c
▁bản_ sao
▁trao _tặng
▁kiề m_chế
▁ho ãn
▁vui_m ừng
▁e d
▁o unce
▁phân_b ón
▁bắt _tay
▁giải_ng ân
▁hiệ n_diện
▁B ồ
▁N G
▁cửa _sổ
y d
▁đồng_ nghĩa
ol l
▁hẹ n_hò
▁kh áng
▁Qua ng_
▁vậ t_
▁hào _h
▁học_ hỏi
▁L ần
▁H A
▁v ĩnh
▁dav id
▁19 0
▁rực_ rỡ
Ê N
al k
▁định_m ức
▁soạn _thảo
▁sáng_l ập
9 5
gu ồn
▁đề_c ử
▁phả n_b
▁thuê _bao
ill i
n_l uyện
▁chữ _ký
▁9 6
▁hỗ n_hợp
it ter
▁3 50
B iên
or m
▁bạn _thân
▁lắ ng_nghe
▁Khánh_ Hòa
▁d ông
N guyên
▁Quân_ đội
▁Dav id
▁khở i_đầu
▁M i
▁L e
▁S an
Qu ang
▁18 0
▁thành _tựu
▁h ung_
▁199 6
▁chứ ng_c
▁ch ăn
▁199 4
▁m ắm
▁đại _tá
▁v al
Đ ồng
▁1, 3
n_ ngh
▁co l
_T H
▁B l
▁gi ọt
▁nó ng_b
▁v ắng
▁199 3
▁d ọn
▁giảm _thiểu
▁tuổi _trẻ
_ PH
N inh
▁rè n_luyện
▁Đ iều_
▁mo ur
is a
i_v ấn
▁thập _kỷ
▁o p
▁quá n_
▁m ark
ub e
▁m ươi
_đ ua
eng er
▁M our
▁gia n_l
▁góp _ý
▁khô i_phục
▁F ran
▁màu _trắng
▁T V
▁15 %
▁Tỉ nh_ủy
i_ch ức
_h ọa
▁phụ _lục
▁dân_ gian
▁nhã n_hiệu
X uân
▁khách _mời
▁Th ượ
▁Hòa_ Bình
▁tính_ cách
ề u
▁NH ÂN
or s
ot h
▁th ấm
▁l i
▁chuyể n_biến
er g
▁giải _tỏa
ph u
▁m essi
▁M essi
▁Gia _đình
▁s eo
▁l ang
▁Nh ìn
_L an
ọ n_l
▁tr ọn
▁mour inho
▁cô _dâu
▁xa_ x
▁Mour inho
▁ph anh
▁nh ậu
▁cản _trở
▁hà _lan
▁đ ắk
▁xuất_ xứ
q t
▁ng âm
k y
n_x ao
▁l ặ
Q T
,7 %
▁hiện _thực
▁tố _tụng
▁huyết_ áp
▁M a
▁Ch ương
▁vậ n_động_viên
▁L ộc
▁lạc_ quan
▁M on
▁đoạ n_đường
bur g
▁ à
▁hả i_dương
_tr ải
▁hoà n_chỉnh
▁m ậ
▁Lã nh_đạo
ố m
Ph ong
▁tiể u_đ
n_n iệm
gi n
if orn
▁m ì
▁triệu _tập
r ay
▁Hà _Lan
▁ấ m_
ic tor
▁gian_l ận
▁đ ạp
▁v ương_
▁M U
▁phân_ cấp
▁vĩ _mô
▁Ch ung
ò _m
▁bh xh
▁vò ng_loại
_D ÂN
e an
▁ í
▁p aris
▁chứng_c ứ
▁Y o
▁l ondon
▁BH XH
_t ang
ng_s ơn
▁tô n_vinh
▁60 %
▁lu ồng
▁8 2
▁quốc _tịch
i_ giới
_t ú
E C
m_l âm
▁h ạnh
▁bình _tĩnh
▁Thường _trực
▁gam es
▁L ondon
À NH
▁P aris
n_r ộn
m ình
▁đáng_ yêu
ra b
▁ph ổi
▁Kh oản
_l ạ
▁H ậ
▁e m_gái
▁xô n_xao
i_đ ại
▁Đ ắk
▁h ằ
▁trân _trọng
iforn ia
7 %
▁tí m
▁liên_h ợp_quốc
▁bất_ ổn
▁can ada
▁ngh i_vấn
▁13 0
g om
▁ai r
▁đánh_ đ
▁chu ối
t op
▁a x
▁b út
.1 2
▁nhà_c ửa
▁Can ada
▁triể n_vọng
▁dạ _dày
▁thí _nghiệm
▁Th ượng
▁tổ _hợp
▁thập _niên
▁tâm _thần
▁D u
▁Đ ô
▁đ ống
▁T ờ
▁C ầu_
.6 00
▁ch anh
▁n ồi
▁cu a
▁show biz
▁hế t_m
_b ắc
▁B ằng
▁l ật
▁từ _chức
▁Thái_ B
▁Ph ần
m_b ắt
,6 %
▁ẩm _thực
▁tư _thế
▁trình _tự
ình_ dương
▁nguồ n_c
▁Thành_ ủy
▁n s
▁Ngh iên_cứu
▁g ối
y n
ic s
ph ụ
▁đà m
▁b ơ
▁thị _phần
_đ ào
s âu
▁c ườ
▁h ở
▁H D
▁NHÂN _DÂN
,3 %
▁T ỷ
▁V F
▁Ph ương_
▁c án
n_nh ạc
▁g alaxy
▁d ũ
▁kỳ_h ạn
▁r ò
▁m in
▁k ề
▁t am
u_ ch
▁điều_ hòa
▁tình_ c
▁đă ng_quang
▁H ãng
▁1. 8
▁tr e
▁h d
▁k iều
▁X Ã
▁tư _lệnh
▁y ến
▁tiến _trình
▁S inh
▁Thể _thao
▁S c
▁th ống
▁m óng
nh_ v
▁biể n_số
▁kh ăn
▁qu ỷ
▁thân _thiết
_đ oạn
▁nhà _hát
_v ững
▁sa i_s
▁sân_ chơi
▁k ẹo
▁ngày_m ai
▁Họ c_
_l iệt
nh_đ ồng
▁hà m
▁mô i_giới
▁đồ _chơi
í u
▁N ơi
▁Th ăng_
▁thái_b ình_dương
▁nguồn _thu
ng_n ổ
,8 %
b óng
▁phá_h ủy
▁L oại
▁ta ng_vật
▁tiế ng_nói
▁qua n_niệm
ation al
_th ượng
▁ng ưng
▁G alaxy
▁b ấy
ie v
.8 00
▁dự _bị
▁ er
▁g iếng
▁x ông
▁giải _trình
n_m áy
▁G S
▁Kh oa
▁vật _tư
▁áo _dài
▁M ức
▁Đ ạo
_ph ủ
▁l h
▁b ùn
▁gh en
▁V ideo
▁Ph ải
u_k ém
▁Thế _giới
ng_n iên
▁Ch ẳng
▁Tiề n_
▁bậ n_rộn
▁phương _tây
▁s am
4 %
_ gia
and al
▁yế u_kém
▁bỏ n
▁vũng _tàu
_s ợ
▁bỏn g
▁Gi ả
▁đ ùa
▁r am
▁9 3
▁C u
i_ r
▁nh ung
▁T M
▁8 9
▁là nh
6 6
▁ng ũ
▁Thái_B ình_
▁giữ _vững
_s ơn
ix el
▁s al
▁Thái_Bình_ Dương
,2 %
▁C uộ
▁n n
▁ ẩn
▁tr ông_
_x ưa
▁H àn
▁yê n_b
▁M o
.4 00
m er
▁nhắn _tin
▁C ần
▁viện _trợ
Y T
▁báo _động
▁E uro
ur e
▁t m
▁ngộ _độc
▁d u_học
x á
n_đ ốc
▁đông_nam_ á
id a
▁v oi
▁quảng_b ình
▁x i_măng
▁L H
▁bình_ ổn
▁S ản_
▁m ía
▁C TC
▁A t
ot e
ại_d âm
▁bãi_b iển
▁V al
ar e
v ong
▁bản_l ĩnh
▁tấ m_g
▁thườ ng_niên
l àng
▁ng ư
▁g s
▁V À
_ch ấp
il le
▁d iệt
m e
,4 %
▁Đông_Nam_ Á
▁Hải_ quân
_th ấp
▁7 1
u ộng
▁g b
▁N N
▁s út
▁chiến _trường
_ K
▁nghị _sĩ
im a
u_m ến
▁d ưỡng
▁mái _tóc
▁m ại_dâm
g ành
ng_ng ười
_nh ỏ
▁Nguy ên_nhân
6 5
▁xâm_ nhập
n gành
▁M ay
▁m l
_c ảnh
▁i m_lặng
▁chân _thành
▁m ilan
▁T ình
▁bác _bỏ
▁Qu á
▁VIỆ T
▁3 ,5
▁m ac
▁bài _thi
h ậu
▁ngoại_ hình
▁tr ữ
▁gh é
▁đoà n_viên
▁Thực _tế
▁L ệ
▁V n
▁m e
ly wood
▁Á nh
▁l ee
il a
▁m ụn
H ưng
▁thờ i_đại
▁nh nn
▁M ilan
▁màu_đ en
_ch iếu
▁NH NN
▁tỉ _số
▁hữ u_h
os h
▁s et
ng_ an
▁nghỉ _dưỡng
▁l ữ
▁ngh iêm_
▁nắ m_bắt
T P
▁khung _thành
ng_T àu
▁Nh ờ
it t
▁nhà _nghỉ
▁Vũ ng_Tàu
▁Quảng_ Bình
▁v ang
▁P ro
▁Gi ới
▁Chỉ _đạo
▁g ó
▁K iều
▁nuô i_dưỡng
▁G h
▁L ee
▁Trao _đổi
▁thú _y
▁Th ương_
▁thế _mạnh
▁199 1
_t ắm
▁tham_ vọng
▁l ặp
▁k ép
ng_ch iến
▁thủ n
▁r ạch
▁ol ympic
el le
▁thủn g
▁tay _s
▁dây_ch uyền
▁r ối
▁d ã
▁mỹ _phẩm
a_ b
_N AM
▁phê _bình
▁phúc _thẩm
▁thương_ vụ
▁thu_ gom
n_d ạng
_l éo
▁l ối_
▁Tr í
▁tự _tử
▁q h
▁Th uận
ed er
_c ung
▁bình_đ ịnh
▁s ởi
▁tt g
▁c ắn
▁L âm_
ọ c_
ưở ng_
▁b ận
▁V O
▁Cổ _phần
▁T B
▁Ol ympic
▁Doanh_ nghiệp
an y
at es
▁M C
▁á m_ảnh
▁QUY ẾT
▁m ực_
▁r i
▁khéo _léo
▁n eo
m_ lo
ệ ch
n_g ửi
ưởng_ ứng
m_ch áy
ng_đ ợi
Ụ C
▁phụ _kiện
▁M ặ
▁Tự _do
▁Đ iện
▁để _ý
▁ho ài_
▁tr i
▁liê n_đoàn
▁al ex
▁Quảng_ Tr
▁s ea
.3 00
▁nảy _sinh
▁bảo_l ãnh
▁1 000
▁H ạnh
▁hằ ng_ngày
i_b áo
ng_s ong
▁khai _trương
▁danh _tiếng
▁màu_đ ỏ
▁nóng_b ỏng
_s úc
▁Q H
▁ch ôn
u_ kỳ
▁tra ng_s
▁ngón _tay
▁ch ọn_l
▁20 30
n_l ửa
▁ind ex
▁đ ịch
▁Gi ờ
▁M ục
x x
▁s en
▁điều_ động
nh_đ ất
▁tấm_g ương
▁197 5
rid ge
▁gia _súc
▁Truyền _thông
_l ạc
_th oảng
_d âm
▁v p
▁phát _thanh
▁thân_ hình
t_đ i
▁S ang
_h ôi
▁ 000
▁Qu ân
c ơ
ũ y
đ ồng
▁xuất_nhập _khẩu
ẻ m
▁D ưới
8 5
ng_ B
▁bề _mặt
ea e
▁Hải_ Dương
▁hạ _cánh
▁r ú
▁tự _chủ
▁1. 7
2 7
▁t ưới
▁O n
▁xâm_ phạm
▁th ọ
▁gay _g
▁chă m_lo
▁ ôn
▁cá nh_đồng
▁công_ch ứng
▁v ú
▁xu ân_
▁liên_ ngành
ac o
▁i p
▁họa _sĩ
Ph ú
▁t ất
_v ua
▁Nh i
▁c ành
▁V P
▁12 5
▁v ov
▁H C
▁cổ _tức
▁nhà _thờ
ak a
_H ỘI
▁hiệu_ ứng
▁tưởng _tượng
_đ áng
▁thu ần
▁nghỉ_h ưu
▁tập _hợp
▁cú _sút
▁Tr ả
▁đô n_đốc
▁mo ng_đợi
▁cà _m
m_ nhận
8 %
▁l ưỡi
▁Hạ nh_phúc
▁sĩ _quan
▁300 .000
l ịch
▁hội_ viên
l iền
▁d âm
▁c ò
▁máy _ảnh
▁ngã _tư
▁cà_m au
ar ia
l t
▁hội_ chợ
▁V i
▁A i
▁B ến_
2 9
_l ụt
▁khá ng_chiến
▁d onald
▁chứng _từ
▁Thu ế
u ông
▁nguồn_c ung
▁r ồng
▁T am_
▁G B
▁đ an
▁b iệt_
▁D onald
_l ạnh
3 3
▁m ạo
▁tr ì
▁tiề n_gửi
el and
▁lượ t_đi
▁đất_ liền
▁b ích
▁l ồ
▁thế _chấp
▁ph ơi
▁Đ ă
đ ạo
6 %
▁r e
▁L am
▁vị t
j i
▁Ale x
▁thượng_đ ỉnh
▁ngọ n_lửa
▁trợ _lý
ân_c ận
_c ai
▁l ân_cận
im ir
▁mả nh_đất
▁Th ấy
▁kích _c
▁t b
ives how
▁Ngoại _trưởng
▁ho ành
B ank
▁l ục_đ
_t iệc
▁mồ _hôi
▁tay_s úng
▁độc_ quyền
ng_m ộ
▁l ặn
▁th ịnh
▁hệ _số
ch e
▁tiếp _thu
▁tranh_ luận
▁lâu_ nay
▁gh i_ch
▁d ồ
▁Kiểm _tra
ng_ nghề
_t ùng
▁b en
▁thủ _thành
ươ m
Ò A
C K
▁h ôn
u_đ ựng
ệt_m ay
▁Kh u_vực
▁độc_ hại
▁nổ i_dậy
b on
▁N T
_B AN
▁mã _lực
▁T op
▁Đ áng
▁Đơ n_vị
▁V àng
▁l ăn
▁nh o
▁Ủ Y
▁chị u_đựng
▁đ òn
▁phả n_hồi
▁H ol
▁g ương
a_m ãn
▁trình_ báo
▁v ạch
▁vật _thể
▁v ượ
▁ ứng
▁nghĩa _trang
▁lào _cai
▁qu ỳ
▁qua _lại
▁sinh_ vật
▁công_ đ
nh_m ắt
▁dầu_ m
▁H ành_
▁Bình_ Định
_M au
▁Cà _Mau
▁ng ữ
▁v ứt
▁m art
▁gay_g ắt
▁thỏ a_mãn
▁bệnh _tật
▁hoa ng_m
n ợ
▁chuyê n_đề
▁t ị
▁t ắc
gi ống
▁thă ng_long
r in
▁chủ _ch
▁Kh ông_
▁a g
▁siêu_ mẫu
▁VIỆT _NAM
▁tâm _trạng
▁y ên_
▁tiện_ ích
▁l ấn
ed es
a_ Tr
▁h ưởng_ứng
lad imir
▁Thượ ng_
▁đá m_cháy
▁tuyên_ phạt
▁hãng _tin
▁tối_ ưu
m_ quyền
▁liên_h oan
▁thủ _công
4 7
▁ỦY _BAN
▁XÃ _HỘI
ặ m
▁t ia
▁b lu
k im
C P
▁Dự _kiến
▁Thăng_ Long
▁đ ứt
est ine
▁liên_ doanh
▁đế m
▁TT g
n_ph á
▁S ử
▁điều_ khoản
▁kh iêm
▁Nội_ dung
l iệt
at ar
▁đ ụ
t_b iến
▁HĐ QT
▁hiế n_pháp
▁hđ qt
▁hết_m ình
▁m ùng
▁M à
▁h uyệ
▁Ind ex
▁đổ _bộ
▁Tr iệu
▁c ồn
2 8
▁tiế ng_v
ỉnh _thoảng
▁người _tình
▁mặt_đ ường
n_ng ừa
2 %
▁T iểu
▁c ốc
▁Tr ưởng
▁gia_l ai
▁thiếu_ nhi
i_ ý
ru ột
▁độ t_biến
▁Tr iể
_th ở
os a
l ợi
▁P G
▁miền_ Trung
▁gói _thầu
▁tàu_ chiến
▁th uyề
▁k iế
▁h ôi
▁c ã
▁k ẹt
_đ ất
enk o
w e
▁d el
_t àng
▁yê u_mến
▁là ng_nghề
ng_c ầu
▁ph ẩ
▁l ọ
▁bù ng_nổ
▁s l
_C ai
u ela
▁sai_s ót
g er
▁mư a_r
▁Độc_ lập
▁ng ọn
▁tây _bắc
i_n iệm
▁tiểu _thuyết
▁Quy _chế
▁lên_ án
▁g ác
n_ph ạt
▁phương_ Tây
▁đồ_ ăn
ế ch
▁k ĩ
us s
i_kh uyên
c p
▁Lào _Cai
▁n e
▁chủ _nhật
▁tội_ danh
_t ết
▁l ă
▁l ậ
▁trung_ cấp
▁ar gentina
_t úng
k ok
▁xú c_
▁đả m_nhận
▁GD P
ra h
▁vắ ng_mặt
▁s il
▁thái_b ình
▁ ích
▁quảng _trị
n_đ êm
▁Kh ách
▁ úc
▁gd p
▁198 0
eal and
er k
▁Ar gentina
▁t ao
▁giúp _việc
▁thể _lực
▁cưỡ ng_chế
▁đại_ chúng
ng_h oa
6 7
▁Gia_L ai
▁Qu ận
3 %
▁bar celona
ng_đ oàn
▁hiển _thị
▁Ch uyện
▁Th i
▁chủ_ch ốt
▁Bar celona
▁ph ục
▁rác _thải
▁D ịch
▁nhân _tố
▁hoang_m ang
▁M c
▁tầ ng_l
▁m as
▁bao _b
▁x ó
t_ nh
▁V ợ
_ Sơn
▁lưu_ giữ
▁ ốc
▁đối_ xử
▁phá n_
▁thẩm _tra
▁ngă n_ngừa
n_v ay
.7 00
▁L ịch
▁mưa_r ào
n_v ũ
▁X in
▁gi rl
_y ên
▁H T
ng_đ ắn
▁V an
H oàng
▁mực_ nước
▁cứu _trợ
▁QUYẾT _ĐỊNH
_H ÒA
▁á nh_mắt
_r áp
▁sơ _sinh
▁bản_ chất
▁tho ái_
▁l ồng
▁s ho
_tr ộm
_l ĩnh
▁ph iên_
6 8
_t ắt
it a
_th ứ
m ent
▁I V
▁8 1
▁Ú c
▁tiề n_bạc
x ã
▁giớ i_chức
▁E n
í p
▁h ag
▁tr iều_
▁mặt_n ước
▁b ỉ
▁Ph i
▁tho áng
_h ấp
ng_g iềng
_t áng
▁bảo _hộ
▁tử _hình
▁anh _trai
▁chu i
▁ <
▁táo _b
▁danh _tính
▁lê n_đường
▁ngăn_c ản
▁A f
▁K ể
ez uela
▁đả ng_bộ
m_b iến
▁trườ ng_sa
▁H ồi
▁T àu
▁đồng _tính
▁phụ _cấp
_chính _trị
▁chính_ đ
m_đ iểm
▁điều _tiết
us e
▁lá ng_giềng
▁vượt _trội
▁nh ẫn
▁16 0
▁tư _liệu
▁ho l
▁hài_ hòa
ph ú
í _nghiệp
▁ro ck
▁bí _quyết
▁n ô
▁mậ t_độ
▁15 .000
un ich
▁Quảng_Tr ị
▁x ích
▁D e
▁S ông
n ói
ac om
▁m ắc_
▁2 .0
ng_ch ất
_th oái
▁VO V
▁nhân_ đạo
▁tồi _tệ
▁ngh iệm
▁M art
▁Trường_ Sa
▁nhà _x
▁gợ i_ý
▁m g
_ Q
_b ắt
▁giọ ng_ca
▁b ưu_điện
▁hào_h ứng
▁ấm_ áp
ắc_ rối
▁g ò
▁To à
▁u p
▁vinh_ dự
▁A s
▁cá nh_
▁Đ êm
▁ho a_h
▁25 %
▁and roid
ad e
▁T ối
ol i
u_d áng
▁Th iếu
▁g ầm
n_ch ọn
▁cố _vấn
▁v ff
m_h ỏi
▁miền_ Nam
▁p er
▁xu ố
▁w indows
▁v đ
ia l
▁g olf
▁chào _đón
m en
▁c ậ
▁C ỘNG
▁th iện
▁ch iê
▁d i_c
▁hô _hấp
▁Cục _trưởng
▁V Đ
▁l ốp
▁V í
▁thể _chế
▁Th ật
▁v ướng
▁it aly
▁VF F
▁S H
▁ ic
F A
▁trong_s áng
m y
▁phá _vỡ
▁nguy ên_
▁s ú
▁nh ường
▁h é
▁lý _thuyết
▁198 2
▁h ttp
▁thuận _tiện
Ĩ A
▁l ap
▁kiể m_điểm
▁thần _tượng
▁It aly
▁l iveshow
ươ ng_đ
▁ Â
▁lục_đ ịa
et er
▁And roid
i_c an
▁th ắp
▁ ổn
u_đ áo
rim ea
▁t em
▁ki m_c
▁gi an
▁chữa _trị
▁rõ_r ệt
▁v o
_m ai
▁thường _trú
▁diễn _tập
▁B ang
▁Thái_ Bình
▁văn_ nghệ
ng_s ông
x ạ
▁chủ _quan
▁gia_ vị
▁đ oán
▁siêu_ xe
ng_ph át
▁Đ i
_n ã
V iệt
▁ ưa
iv ers
▁khí _tượng
_gi ật
▁r ắc_rối
▁đánh_b ạc
▁đ iệp
▁B ố
ằ ng_s
▁địa_ phận
_c ột
▁em _trai
m i
▁kỳ _lạ
▁đệ m
n_s ự
▁cả m_biến
E D
▁Đ ạt
▁bộ _chính_trị
▁phần _thi
▁d ệt_may
▁phòng_ng ủ
▁Ph ía
▁đ ắc_
_tr eo
▁đ ắp
▁T ỉnh
▁Nh ất
▁T ô
▁s ạc
▁bù ng_phát
_t ấn
▁vật_ dụng
▁phá _sản
kh oa
▁tâm_ hồn
▁Học_ viện
▁hòa_ giải
▁9 7
▁công _thức
▁s ụp
▁vật_l ý
_l ỗ
5 5
_thu ế
ưu_ chính
▁CỘNG _HÒA
▁ng ân
▁tầng_l ớp
▁tờ _trình
▁ch ố
ằng_s au
▁trụ _cột
▁lâm_ nghiệp
▁M V
i_v ọng
▁nhà _b
▁ út
▁G ames
▁bu ông
▁hàng_r ào
Ph ước
m_đ ông
▁Thường_ vụ
▁Đối _tượng
▁T a
kh ác
▁ố m
nh_đ ai
▁cao _tuổi
▁b ách
_ngh i
▁tr ù
▁và nh_đai
▁nh ặt
▁x ấu_
▁chuyên _trách
▁miền_ Bắc
▁sc andal
ậ n_
▁truy _nã
gi ảng
9 %
▁t ả
▁cảnh_ quan
▁h ảo
u_kh ổ
▁c a_
▁W indows
▁khá i_niệm
_t ặc
▁lối_ sống
▁un ited
▁v tc
▁hu ệ
_NGH ĨA
▁kiể u_dáng
▁khuyến_m ãi
▁mặt_ khác
ầ m_
▁tr ăn
▁lờ i_khuyên
▁p ol
▁M ã
▁công_ch úa
▁kh ang
▁danh_ dự
▁quà _tặng
n o
▁s ă
▁cáo _trạng
▁dung_ lượng
▁t ỏi
n_nh iên
,9 %
▁thủ _đoạn
▁chứng _thực
ng_b ảng
▁kho ai
▁K ỹ
▁Un ited
_gi ãn
▁S ư
▁cấp _b
ng_s ự
▁tây _nguyên
▁l ơ
▁xuố ng_cấp
▁ng ưỡ
▁bài _toán
▁R ồi
▁bay ern
▁giao _hữu
▁cực_đ oan
▁h onda
▁ố ng_kính
▁h t
▁quầ n_ch
▁nh át
c ấm
at ch
▁Bay ern
▁m ìn
▁198 8
9 8
Ị CH
▁6 .000
▁màu_ vàng
▁hợp _nhất
▁đình_ đ
▁a n_sinh
▁ ẩ
▁đa u_khổ
▁B ích
▁s ữ
m_m ạch
▁n d
_ ức
▁m v
▁E d
4 8
l ong
▁r ao
_c ưới
▁sở _thích
▁g óc_
▁c as
▁kha i_báo
▁M ình
i_ C
▁r ùa
▁điểm _thi
▁10 6
▁b inh
▁mùa_ xuân
k ế
▁công_s ức
O S
▁địa _lý
▁CHỦ _NGHĨA
▁Ph im
et a
▁B en
▁Nhà _máy
▁j ong
▁w h
c ứng
▁tính _từ
▁1, 0
ot te
i_đ ời
ức_ giận
▁kh iêu_
▁mối _tình
▁tr ưng
▁đú ng_đắn
▁trọ n_vẹn
ym ar
▁Th ịnh
▁s à
iề m
4 3
erc edes
i_n ói
▁vò ng_bảng
▁că n_phòng
▁th iêu
▁thuyề n_viên
▁gi ật_
▁báo _giới
▁198 9
▁s ông_
▁Quy _hoạch
▁L ạ
▁hối_ lộ
L a
i_m ẻ
▁phê _chuẩn
u_ nhân
i_n guyên
▁V TC
▁lo _sợ
▁ch ửi
▁Ch ia
▁mớ i_mẻ
▁Gi áp
_Ch ính
▁nam_ định
▁m ề
▁thư _giãn
m_l òng
i_đ ặt
▁sơ _tán
ũ a
▁quần_ch úng
▁h ứng
ng_s âu
▁bắ t_n
▁nhà _thơ
▁h ẻm
on s
▁thân_ m
▁Hu ệ
_l ưỡng
▁bu ồng
▁bài_ báo
▁ eo
ec k
▁đường _thủy
_s ách
▁c ấy
▁m yanmar
iv al
▁m ặn
▁M yanmar
am il
ấ c
▁Thủ _trưởng
ậ c
▁hàng _thủ
▁PT NT
▁pt nt
▁h ương_vị
▁ninh_ bình
▁gia n_hàng
▁hoa_h ồng
▁gắ n_kết
_s ức
▁T iể
▁an t
▁hoa ng_d
T ân
w ay
p y
▁đột_ xuất
s u
▁te en
▁tr ào
▁Q U
▁lo an
▁1.2 00
▁m eg
▁kim_c ương
▁t ịch
▁K o
▁n lđ
▁N LĐ
▁âm_ mưu
▁suy _thoái
▁tí n
▁Nh ận
▁thông_t ấn
▁động _tác
▁x inh
a_h ình
▁Đ iệ
m_ ẩn
▁mạ nh_
D I
▁cổ _điển
l i
▁tuyể n_chọn
ò_m ò
▁thiết_ yếu
▁kiên_ c
▁đá m_đông
▁g o
▁câu_ nói
ng_m ạnh
▁d ương_
▁h iề
▁chiều _tối
ệnh_ cấm
▁c ọc
▁l âm_s
▁cú _đ
_l ũy
▁thương_ vong
▁Nam_ Định
▁ăn_m ặc
i_n ổi
n_ng ợi
▁ngh i_can
▁quy _tắc
,1 %
▁liên_h iệp
▁b ại
óc_ dáng
▁b ắp
7 7
▁c ôn
▁kho ang
A S
▁bộ _luật
▁lắp _ráp
▁H onda
▁ng ỡ
▁h iếp
▁tử _cung
▁L ợi
▁đình_đ ám
ng_kh en
▁v h
▁v iêm_
▁kiể m_lâm
▁tiề m_ẩn
▁S am
▁thă m_hỏi
▁40 .000
c u
▁khe n_ngợi
▁Th êm
▁lư u_hành
c b
▁hoành _tráng
ens is
c ốt
a_h át
▁V ận
▁đô la
▁đương_ nhiên
3 6
▁phán_ quyết
▁qu ãng
▁c r
▁khoản_ nợ
AT O
▁th ạc_sĩ
_Chính _trị
▁kh úc
_tr à
ng_c ảnh
_Đ ức
ấu_h ình
▁14 0
▁gánh_ nặng
ed a
c_n inh
▁V H
▁o an
▁thủ _lĩnh
▁Bộ _Chính_trị
▁chào _m
▁Trưở ng_phòng
▁HA G
▁B S
i_c ập
▁Ninh_ Bình
3 8
▁gi ãn
▁Ch ợ
▁bình_ yên
▁h i_vọng
▁l ỡ
▁và ng_m
▁y _học
_tr ánh
▁T ăng
_r ỉ
▁tích _lũy
▁H ầu
▁bài _tập
▁qu ầy
sk i
▁TH CS
▁th cs
▁t ò_mò
▁x ăm
▁bãi_b ỏ
ần_d ần
▁a n_giang
▁Tây_N guyên
▁lờ i_nói
▁tu ổ
▁dạy _học
▁n ato
▁d ép
▁ch ăm
K T
▁ngã _ba
t_g ặp
▁tuyển _thủ
▁Bồ _Đ
▁thư _viện
▁ưu _thế
▁h iv
D A
ủ a
▁lo ng_an
▁cà i_đặt
▁ngh ịch
4 4
k ia
▁c òi
▁J ong
▁thu ật
▁t ức_giận
ng_ Đ
▁H IV
_th ầm
▁Đ àm
▁trung _thành
▁a i_cập
▁đặc_s ắc
c_l ợi
▁K iên
▁Liê n_đoàn
▁đại_sứ _quán
50 .000
▁xếp _hàng
▁vò ng_c
▁trang_s ức
▁v s
▁hò n_đảo
▁đ iên
ff ord
▁C âu_
▁ax it
ụ c_
▁Chủ _nhiệm
▁dũ ng_cảm
E O
▁miề n_đông
▁Y ến
▁N ATO
ân_ch ương
n_d ị
▁A n_ninh
▁p remier
▁chủ _lực
▁bắ t_gặp
▁luyện _tập
▁d ại
▁N o
▁b ầu_
▁v óc_dáng
▁gi ận
▁V ấn_đề
▁ti m_mạch
▁g om
▁M ac
▁C uối
▁dễ _thương
▁Tr a
▁trầm _trọng
▁Liên_ minh
▁x en
▁m ồi
ng_n iệm
▁P remier
▁c ốt
▁A i_C
▁s un
▁Ai_C ập
▁n ới
▁ồ n_
gh ép
▁t âm_đ
▁Công_ nghiệp
▁n ứt
▁H O
▁số ng_s
▁th ỉnh_thoảng
▁thủ _phạm
_ch o
▁đ ằng_sau
▁thẩ m_phán
▁l ệnh_cấm
_đ àm
▁ng ó
n_l ành
▁tác _chiến
▁S a
j a
▁ph ật
_b án
▁l ục
▁N ă
▁mo b
▁Th ọ
▁bảo _dưỡng
▁l ỏng
om e
c ử
▁tiêu_h ủy
▁Ba n_hành
▁Nh ung
ử n
▁thực_ ra
▁áp _đặt
▁l ót
▁giả n_dị
▁l ướt
▁bình _thuận
▁lap top
▁C ây
te in
ửn g
4 9
l ines
▁Mặt _trận
▁m exico
u_đ ạn
_l ong
▁đị a_hình
▁dân_ phố
▁sống_s ót
gi o
▁thá i_nguyên
qu ay
▁Long_ An
▁M exico
▁thế _trận
ing s
▁Thương_ binh
▁làm_ quen
_c ản
▁C ứ
▁nhà _trọ
▁c a_hát
x ách
▁n ắp
▁lặp _lại
Ph úc
▁tình _tiết
and er
▁hủy _bỏ
▁đ ứ
▁rò _rỉ
as er
▁n ạp
▁o xy
▁quy _chuẩn
▁Liên_ quan
om p
▁10 8
▁cđ v
5 %
▁CĐ V
▁H uyện
▁h en
▁b ưởi
_Đ ông
_l ạt
▁đấu _trường
m_ch ất
▁tiể u_b
▁hộ i_đ
u ra
▁ et
i ro
▁so ng_song
▁198 6
n_ph ong
▁sơ n_l
▁mỹ _nhân
▁S EA
▁cs đt
▁v ọt
uộ m
▁ph ùng
▁CS ĐT
_ng oại
ar s
▁kinh_ đ
▁phú _yên
▁hộ _chiếu
▁Tuy ết
▁cầu_ v
▁c úng
▁Ví _dụ
▁thủy _văn
▁b ks
n_m ắt
i_ch ăng
▁ch ợt
▁S eo
▁phong _tỏa
▁trúng _tuyển
▁B KS
▁dung _tích
▁tưở ng_niệm
ần_l ễ
k ý
▁đ ính_
âm_đ ồng
▁rob ot
l ục
c i
n y
n_k ém
an ce
▁l ấ
9 2
▁cổ _truyền
▁ es
▁r ẽ
▁Công_t ác
▁giá n_đ
▁ch én
▁l âm_đồng
▁c ương_vị
or a
M ai
▁9 1
3 7
▁khởi_ kiện
_nh a
re am
▁ba n_đêm
▁v ăng
▁G r
▁sinh_ sản
d e
▁ch ậu
▁ch èo
lo b
▁dầu_m ỏ
▁rad ar
▁c ấu_hình
I C
▁s iết
ra ph
_t ốn
▁đường_ ống
▁Xu ất_
▁phẩ m_chất
▁Kh á
▁b ẫy
▁S óc_
▁bắ c_ninh
▁phòng_kh ám
ers on
▁cầu_ gi
▁B u
▁p an
▁Thái_ Nguyên
▁ph ô
▁túi_ xách
▁h 00
▁tổn _thất
u an
and a
▁gi eo
▁nhập_c ư
▁s ương_m
▁lứa _tuổi
▁đ èo
s a
_r ơi
▁loại _trừ
ph ải
▁đa_ phần
▁Bình_ Thuận
Nh ất
n_h ưởng
9 7
▁T ài
▁tố n_kém
m_đ êm
N gh
▁ca_ nhạc
▁nha _trang
▁11 5
▁trụ c_
▁nh ôm
▁tài _tử
▁n q
▁Ph ùng
▁m ini
▁nguy _kịch
▁bầu _trời
▁m oscow
▁bướ m_đêm
▁họa _tiết
ao ke
▁kỹ _lưỡng
ng_b ăng
u_đ ộng
a_Tr ang
▁th èm
m_nh iệm
▁coi _trọng
▁tỷ _trọng
H à
▁M oscow
▁đạ n_đạo
. 20
n_c ử
ề nh
▁hộ _khẩu
_tr ốn
▁N Q
▁2 20
▁ngưỡ ng_mộ
▁K iên_
▁tho á
▁bảo _trì
▁ti vi
▁n t
▁Th iên_
▁bộ _nhớ
▁u 19
▁Nh a_Trang
i_ch âu
▁R a
g en
▁Ph o
▁U 19
▁thì a
▁Lu ật_
▁cứu_h ỏa
d ạng
3 2
▁ch áo
▁C ảng
▁h ã
▁thua _lỗ
h ải
▁đà _lạt
▁Cầu_ Gi
n_h ữu
▁Đ ăng
▁H ôm
▁xuất_ huyết
▁ồn_ ào
▁Phú_ Yên
▁mùa_ m
Ả N
▁g ánh
▁bữa _tiệc
▁kiên _trì
▁đả m_nhiệm
▁s óc
▁hiếp _dâm
▁ch ốn
▁ngoài _trời
▁L ập
▁thông_ số
▁kinh_ n
▁kinh_n g
ph ước
▁ph ẩm
▁sa _thải
_h ưởng
▁n iê
_đ iệu
▁bình_ nh
_b ơi
▁hoàng_ gia
▁thay _mặt
▁v ững
▁cô _đơn
▁đ iền
▁Bình_ Nh
k in
▁gi ườ
▁bồ _đào
▁trẻ _con
▁r es
ig n
_L ạt
▁hiện _trạng
ầ m_l
▁Đà _Lạt
▁m al
▁An_ Giang
▁khả _quan
▁đặc_s ản
▁Đ ội_
▁hoang_d ã
tt e
▁nhà _ga
▁d ần_dần
▁k on
▁2 %
▁sơ _bộ
▁M in
▁đườ ng_l
▁nghệ _nhân
▁ngày _lễ
▁2 .3
▁Bắc_ Ninh
re en
▁hung _thủ
▁Ng ân
▁p s
▁Liên_ H
_l òng
_s ẽ
rl ines
▁B o
om bia
▁1 %
▁Vận _tải
▁m b
▁thu_h ẹp
▁bình_nh ưỡng
ard i
▁chính_đ áng
▁kiể m_d
▁B é
▁p ar
▁vĩ _đại
▁Bình_Nh ưỡng
es h
_tr ộn
ào _N
▁tr ấn_
d er
▁nữ _hoàng
▁ch ăng
▁ai rlines
▁Đ ức_
m_ k
▁đả ng_ủy
i_v ị
▁N D
▁th ánh
▁C ẩm_
▁tậ n_hưởng
▁bồ_đào _nha
▁H oàn
▁t el
▁H ay
▁v tv
▁qua n_ngại
▁v án
ào_N ha
▁c ài
▁v iếng
▁thiếu_n ữ
▁đầu_b ảng
j c
▁Bồ_Đ ào_Nha
▁j ack
_l ạp
▁cơ _động
▁ng ẫ
▁Đ ừng
▁nghiệm _thu
ak e
▁B ảng
▁M inh_
▁bế _tắc
_ Quốc
▁f pt
n es
a_ch uộng
9 6
▁sạch _sẽ
▁Th ông_
▁Thị _trường
▁ư a_chuộng
▁Lâm_ Đồng
▁vđ v
▁ấn_đ ịnh
▁m icrosoft
▁k iều_
▁g ốm
▁mã _số
▁Trưở ng_ban
▁tr ực_
▁VĐ V
▁chuyên_ viên
et t
_đ ốt
▁to y
▁M icrosoft
_qu anh
▁di_c ư
ng_h ậu
▁m ệt
▁nhân_ văn
▁mùa _thu
▁đồng _tháp
▁r ă
▁tự _ý
▁hy _lạp
▁nh iệt_
▁khuô n_viên
ng_n úi
▁lòng _tin
▁đại_ dương
▁S m
eor ge
_ng ợi
ho i
▁Hô m_nay
▁vòng_c ấm
▁ ớt
▁chấ n_chỉnh
ng_c ông
▁ ập
▁cộ ng_sản
▁linh_ kiện
▁chu ồng
ut ube
▁cảm_ ứng
▁n é
▁m ic
_h ồ
▁1, 8
▁ ân_
▁h e
▁nhà _dân
▁công_c uộc
Á C
o ph
▁chú a
on et
▁vừa_ phải
▁đ un
▁ta i_
▁P er
▁trung _thực
▁khuyến_m ại
▁Hy _L
▁miễ n_dịch
▁vù ng_sâu
▁Hy_L ạp
▁B ỉ
r al
kh ánh
u el
▁yê u_
em a
▁C B
▁tr ơn
▁l õi
▁b iê
▁n ương
ea k
if e
▁ng ài
▁b è
▁Air lines
ng_ K
if er
▁mẫ u_
ng_kh iếp
▁thành_ quả
ư ng_
▁gia_ công
▁N ên
▁khuy a
4 2
▁c b
ar ez
ng_đ ường
m_ ơn
▁mạo _hiểm
▁qu ế
▁PG S
▁V TV
▁ngày _xưa
▁c ở
ar l
▁man chester
▁nh ánh
▁l ụt
▁đồ _họa
▁tuần _t
_ho ạn
▁bl ack
t_ r
ng_m áy
Th áp
st on
▁biế n_chứng
▁khủ ng_khiếp
▁kar aoke
er y
▁mô _tô
n_kh ách
d ị
s uốt
▁T oy
▁bu s
▁l ề
a_kh óa
_x ỉ
d s
ng_r ỡ
▁Man chester
▁v ấp
▁m iss
▁pháo _hoa
▁Đ ườ
ng_m ai
k ẹt
▁t ớ
▁kiến _tạo
b or
▁G I
▁đườ ng_kính
Í NH
7 2
ay a
▁Đ úng
▁Tuy ên_
it co
▁vù ng_núi
l ưu
n_gi ữ
▁bất_ lợi
▁công_t ố
▁ang el
▁cánh_ cứng
▁ban k
▁cơ _khí
▁Ph út
▁mắc_ kẹt
▁cu ố
▁lan _tỏa
▁dư _nợ
▁cn tt
_tr uyện
▁Ngh e
▁đơn_gi á
▁N a
▁V KS
_L ong
▁CN TT
nh ìn
▁1, 6
▁198 5
▁cảnh_ giác
s i
ra gon
X X
▁m ông
c_đ ẹp
M T
▁gó c_độ
s ức
▁mơ _ước
▁xâm_ hại
▁x í_nghiệp
▁b t
▁chào_m ừng
▁s ếp
n_h út
▁tâm_ huyết
▁sơn_l a
▁ ủ
▁h ạch
▁H ỗ
▁Đồng_ Tháp
▁d ưng
▁x h
▁p gs
▁V en
▁sex y
▁con_d ao
a_ v
▁b er
ak i
4 1
_thu ần
▁xinh_ x
_m ộng
▁198 7
▁chu ông
▁hn x
D C
▁v ỗ
▁l ường
▁b in
ot or
ngh iệt
▁bù _đ
▁r ách
s uất
▁châu_ phi
▁s v
▁c ạn
▁khá ng_sinh
▁mở _m
▁lo _cho
ch uyển
▁ý _chí
▁xe _
▁L oan
▁sương_m ù
▁v ks
▁F PT
▁Ang el
▁lệ ch
▁p op
▁thực_ đ
▁tăng _tốc
▁E x
▁g ậy
▁quy ển
.000 .000
▁tuy ến_
▁ngoại _tình
▁trả _giá
▁đơn _thuần
gi am
▁M ẫu
▁gh ét
▁g m
▁cơ _giới
▁HN X
▁h ero
▁hội_đ àm
▁nhà _trắng
u_c ần
_thu a
ất_c ánh
▁quê _nhà
▁T ay
▁mất_ m
ng_h ồ
ng_l ớn
▁rộ ng_lớn
d ùng
▁tị _nạn
▁Hoà n_
▁gi am_
▁su ýt
▁k iệt
▁i b
c_ng ủ
▁m or
▁t iện
▁v ách
▁m óc
it o
▁ ướt
▁nhiễm _trùng
h ối
▁qu anh_
u_d àng
▁thanh_ xuân
h à
▁tiếng_v iệt
c l
▁2 .5
▁c ất_cánh
▁p r
c_ c
▁H iế
ad al
▁bh yt
▁đ ùi
_tr iệt
▁BH YT
chủ n
▁Trả _lời
chủn g
▁tệ _nạn
▁m ỉ
▁H ậu
ub a
▁Phá t_
s p
i_b ộ
ver ton
▁T ôn
▁Tr ạm
▁đề u_đ
▁khiêm _tốn
▁lưu_ lượng
_T ỊCH
▁N e
▁tấ m_lòng
▁tải _trọng
▁p en
▁G P
L ộc
▁dị _ứng
▁hỏa _hoạn
▁Cầu _thủ
▁hả i_đ
▁qu ạt
▁p cc
▁ca p
▁chu a
▁b s
▁T ử
▁C ựu
J C
▁tr i_
▁người_ già
_n ông
▁P CC
n_đ ịa
▁s ung
▁th ầu
▁nhậ n_lời
▁T iền
▁nguyê n_đán
▁co n_
_t áo
▁ho a_m
_ ít
c us
▁r iê
▁b ún
▁m ail
h út
▁chì a_khóa
▁dị u_dàng
▁h it
_l ỡ
▁vội_ vàng
▁tu ầ
▁giải _thể
7 8
▁b ro
▁H am
▁bắc_ giang
▁K CN
_d ương
l ệnh
ow er
▁s ò
ictor ia
▁kh iế
▁Nhiệ t_độ
▁tự _x
uk i
▁t ước
h ài
_gi ang
▁ký _ức
▁toy ota
▁rào _cản
▁dao _động
▁vinh_ danh
est ival
▁t ống
▁m at
_ch ứa
i_m ở
▁mặt_n ạ
▁Sơn_ La
▁to k
▁Quốc_ lộ
▁r ớt
on es
▁giật_ mình
▁G ần
▁sắ c_đẹp
n_ch iến
▁hoà ng_sa
▁huy ết
i_nh ớ
▁t ụt
▁học_ hành
▁bình _th
▁Chứ ng_khoán
T N
▁Công _thương
_Tr ắng
▁S un
▁bỏ _lỡ
▁riêng _tư
▁chào _bán
▁V ĩnh
▁th iên_h
_ch ữa
▁ti n_học
▁giao_d iện
▁thố ng_đốc
▁toàn _thể
▁ph ối
▁ch u_đáo
▁tịch _thu
▁X H
or y
▁Hoàng_ Sa
▁tu i
▁t ơ
▁3 %
▁h ương_
▁17 0
▁b ưu_chính
▁xu _thế
▁T ăng_cường
ng_b ệnh
▁Bl ack
in bank
▁thủy _thủ
▁n i
▁k iê
h ận
▁giấ c_ngủ
▁af ghanistan
al es
▁Thụy _S
6 3
un t
▁M ark
▁Tỷ _lệ
Ự C
ch er
▁b ot
▁tương _tác
▁thanh _th
▁Af ghanistan
▁g ar
▁d er
▁đại _tướng
tt q
▁b ol
▁Á o
I NH
▁mà n_ảnh
TT Q
▁H iệu
▁tạo _hình
▁T w
▁r ung
ợ n
▁hag l
▁T ok
a_c ạnh
▁B er
▁M ob
re g
▁HAG L
▁duy ên_
▁a v
▁bất_ đồng
_ch ân
đ ông
Ứ C
ell i
n_ch iếm
▁bà _nội
▁2 .500
▁Tiếp _tục
c ol
ật_ giáo
IỆ N
▁Bác _sĩ
▁g ầy
▁xoay _quanh
▁gh i_nhớ
O T
▁M od
▁M as
▁tụ _tập
▁Phú _Th
▁ph u_nhân
▁quán_ quân
▁phò ng_h
▁mà _cả
▁dò ng_sông
▁nồ ng_độ
▁xe_ ôm
_ng ữ
▁khí a_cạnh
▁d iệu
▁hiệ n_vật
▁thân_ nhân
▁hữu_ ích
_r ể
▁Toy ota
▁2 .4
ian a
▁lấ n_chiếm
▁tuần_t ới
▁Bắc_ Giang
▁Cá t_
▁c tc
▁mộ t_khi
▁m t
▁CHỦ _TỊCH
b in
▁so i
▁trở _ngại
is e
i_h ai
▁cung_ đ
▁tồ n_kho
▁tr ấn
ng_k ý
kh am
▁g ấu
▁H ưng_
▁i P
▁b al
▁bản_ sắc
▁M iss
▁quán _triệt
▁chăm_ch ỉ
▁xách _tay
▁Nhà _Trắng
▁gi án
▁khánh _thành
▁cầu_gi ấy
▁p akistan
_T ổng
_l ao
▁m el
_ ích
8 3
ex t
H C
▁quá _m
▁3 .1
ag o
▁B e
▁đột_ nhập
▁que n_biết
▁tuyến_ phố
ust in
ag en
▁cuộc_ gọi
▁hđ xx
▁HĐ XX
▁xâm_ l
▁P akistan
ng_kh oa
▁Chia _sẻ
▁4 ,5
▁chân_ dung
▁Đả ng_bộ
ng_B an
▁quảng _trường
▁S e
▁sâu_ rộng
▁pcc c
z y
i_đ oàn
▁PCC C
m_đ ội
▁tự_x ưng
▁x ẻ
▁ưu_đ iểm
▁tác _hại
.9 00
▁bước _tiến
▁cá _tra
▁k w
▁m ichael
▁đa u_lòng
ng_m ột
u_c ơ
▁t àn
▁Đại _tá
t_ch ặt
x ô
▁bảo _trợ
7 3
▁B ất_
▁Hiệp _định
▁n én
▁c c
▁tim es
▁nh u
▁phòng _trọ
▁ph ản
ng_ch ảy
▁n ọ
i_đ ịnh
▁198 4
▁quá_m ức
▁M ichael
_tr iều
▁phá_h oại
▁l í
_m áu
ng_ Sơn
kh óa
_qu ang
▁B ài
▁hữ u_cơ
▁H óa
▁Cầu_Gi ấy
▁Đ ố
▁đề _phòng
▁N inh
▁A g
▁cầ m_quyền
▁thầy _giáo
▁h ồn
▁m ắng
▁Đ ôi
▁th ắt
▁r ụng
▁Bảo _vệ
en cia
▁c or
▁gắ n_máy
▁bộ _môn
▁v y
▁tiề n_giang
▁m ass
_đ ặc
▁bù_đ ắp
l ái
▁n âu
▁đường_l ối
▁xinh_x ắn
▁13 5
▁ch ọc
w a
▁thắ t_chặt
▁khắc_ nghiệt
u_ s
▁Cu ối_cùng
▁phú _thọ
▁ra nh_
▁vò ng_một
▁thanh_ lý
▁đánh_ m
▁hạt_ giống
n_ng ày
▁ghi_ hình
_ch ua
▁th ối
acom bank
i us
▁l uộc
eder er
▁Ng ành
▁m il
_tr ắc
▁B ài_
▁c ấ
▁Phó _Tổng
krai na
▁p o
▁xo ắn
in t
u_n iệm
▁ranh_ giới
c_l ộ
ậ n_h
▁o anh
_th ạch
▁n ú
▁khá ng_cáo
▁b ôi
_t ầm
N A
▁tây _nam
▁Tr ẻ
▁B ây_giờ
ung_ l
▁T ương
▁thửa _đất
▁trư ng_cầu
▁qu i_định
▁lư u_niệm
ẽ n
▁C Ủ
▁M al
▁khí _đốt
▁k ẽ
▁d ưỡ
iệ u_
▁r ich
▁Th ương
▁hà ng_công
▁4 50
▁tỉnh _thành
▁15 0.000
7 6
▁l ĩnh
▁ch u_kỳ
▁197 0
gu ay
▁bộ c_lộ
h m
▁K iến
▁h áo
n ational
▁liên_ xô
▁kê u_c
▁s ỏi
▁s g
▁lạ nh_l
▁cấp_b ách
▁pl ay
▁đá _quý
_d ị
▁ph ấn
enn ifer
▁mô n_học
▁Ng ọc_
▁g ừng
▁vố n_vay
▁gi ác
▁ctc p
_đ ổ
▁CTC P
õ n
▁CỦ A
▁ca _ngợi
▁ca f
▁4 .0
▁tiền _thưởng
▁dòng _tiền
_ G
m_ x
h an
d ạn
▁trẻ _nhỏ
▁Hỗ _trợ
▁v ạ
▁ông_ hoàng
n ội
▁w est
Ư Ờ
▁Phụ _nữ
▁H ướ
▁cách _biệt
n_ng ập
▁T ác
▁sụp _đổ
▁ho ng_k
▁r ước
8 6
▁nhân_ rộng
▁Mục _tiêu
▁hòa_ nhập
▁x ào
▁gì n_giữ
▁as s
▁x ấp
▁c ừ
v en
▁M B
▁âm_ lịch
▁com p
▁C ậu
▁pro tein
9 3
▁Phú_Th ọ
▁tr ại_
▁biểu_d ương
▁M or
▁Ho ng_K
ng_l ẽ
▁mùa_m ưa
▁C ảnh
▁rob ert
▁l ún
▁tí n_đồ
▁Đả ng_ủy
▁hong_k ong
▁V y
▁nh iễ
▁c ỗ
▁x é
▁v ne
ng_x ạ
▁ch iên
▁áp _thấp
_ng àng
h ướng
▁M u
▁Liên_ X
▁t y
▁S inh_
_tr ục
▁mạnh_ dạn
▁hoa n_ngh
▁kẻ _thù
▁Hong_K ong
▁hà _đông
▁hoan_ngh ênh
▁S al
▁lý _l
▁tỉnh _táo
▁Liên_X ô
▁Ho ạ
▁V T
▁Tiền_ Giang
r eland
▁tái _tạo
▁g õ
_ ạt
▁cộ t_
▁M T
ước_ kia
▁điể m_ch
▁Rob ert
h c
▁rạ ng_rỡ
t_m ắt
_ ra
ak u
ược_ gia
▁phó ng_xạ
▁V Ề
▁vụ _trưởng
▁m ương
ar do
▁hạ _long
_l ánh
▁diễ m
▁tiểu _thương
▁Hà _Đông
▁W est
▁l ăng
▁vậ n_dụng
el lo
▁tri_ ân
▁tiên_ phong
m_ kích
▁19 45
▁10 3
d c
ec o
▁A S
ol e
▁bài _thơ
▁o ff
ag a
el e
ng_h ải
om as
▁Hạ _Long
▁s w
▁k è
▁gi ã
▁n okia
Ư Ớ
▁vị _khách
▁đánh_đ ập
ng_ch ừng
n ik
ev e
▁th ác
▁đụ ng_độ
▁chó ng_mặt
ờ n
▁nhậ n_diện
▁P L
er e
▁ngo an
▁Luật_ sư
▁t c
_ho ạt
▁tiê m_kích
▁kh i_hai
▁đồ _đạc
▁hoàng _tử
▁thủy _tinh
▁S G
_n inh
Ì NH
▁F I
▁On line
n_m ực
▁mệnh_ danh
▁táo_b ạo
▁qu ấy
ế m
▁hành_ lý
x ứng
▁P S
▁J ack
▁Th ừa
▁phản_ công
_t iếc
▁tiêu_ đ
▁ht x
▁C ÔNG
▁truy _bắt
▁xứ _sở
▁HT X
ng_b iên
▁lặ ng_lẽ
▁tình_c ờ
▁n ấy
▁tỉ nh_
▁T ường
a ho
▁hành_h ung
at us
▁T i
k i
▁d ược_
▁kiên_ giang
▁B Ộ
▁c ương
▁cộng _tác
▁tiểu_đ ường
▁N okia
n_ ủy
7 1
▁cấp _độ
▁B ăng
▁mở_m àn
▁sư _tử
▁V ừa
▁kho án
▁s jc
v ốn
▁quân_ nhân
▁c ẩm
_b ối
▁A N
▁d ắt
▁S JC
▁vàng_m iếng
v iễn
_t ấu
▁đồ_ uống
▁n ick
▁s ương
8 9
q g
Q G
▁S áu
▁số _hiệu
▁nhà _giáo
_v àng
▁động _từ
l ễ
▁d ọ
▁minh_ chứng
▁tri _thức
▁lã nh_
▁ph ương_h
▁đặc_ nhiệm
▁tiếng_ Việt
▁phân_ chia
▁cảnh_ cáo
T A
_ ẩm
▁b óc
nh ư
▁nh anh_
▁G a
m t
▁khó m
i_l àng
3 4
▁nhậ n_biết
▁ho ạch
▁cu ba
iu ra
▁D iễm
_b ê
▁công_s ở
on i
▁k ỉ
▁M ộ
t_ x
▁thuế _suất
▁X ét
▁ one
▁b óp
_l à
▁8 .000
m in
▁tr úc
▁v ớt
▁Đ a_khoa
▁khẩ u_
▁Đ á
em en
▁it alia
▁n ấu_
7 9
q h
▁T C
▁tok yo
▁pháp _lệnh
re y
▁cầu_v ượt
▁7 .000
▁C uba
k t
X uyên
5 2
▁nh ạt
▁ta b
▁đều_đ ặn
_r ịa
▁n ạo
▁Tok yo
7 4
▁nhà _r
▁kích _hoạt
3 1
und er
it s
▁It alia
▁to m
▁bà _rịa
i_ g
ng_b óng
▁phân_b ố
▁Kỹ _thuật
▁198 3
▁điểm_s ố
▁ăn_m ừng
▁l ôi
▁quy ên_
us on
▁chuyên_ án
▁lậ t_đ
▁bằ ng_khen
▁hồ i_h
▁t àng
▁th on
▁d ì
_m ệnh
▁châu_ Phi
▁ ong
_m ạc
▁tâm_đ iểm
▁tiểu_b ang
▁nước_ng ọt
▁liên _tịch
Q H
▁thành_ đ
▁lây _lan
▁M ở
▁chuẩ n_mực
▁Th ời
▁tân_ binh
▁bài_ bản
ên_l ề
á ng_v
pp o
ấu_h ổ
ầu_c ơ
n_d ẹp
▁C ap
▁lạ ng_sơn
▁c ưng
▁ba n_ngày
▁họ _hàng
m_ hoi
▁B M
et ing
ng_nh iệt
aho o
▁sô i_nổi
▁hero in
ng_ yên
▁G T
sk y
▁r om
▁d ượ
▁197 9
_tr e
▁đương_ kim
_gi am
▁hải_ lý
▁tù _giam
▁Kiên_ Giang
▁thất _thoát
_đ á
▁r ụi
▁9 4
▁blo g
▁ngoại_ hạng
▁d iệ
_đ ẻ
▁v t
▁chuyể n_động
▁tự _vệ
▁k o
▁thao _tác
ardi ola
▁l en
▁hiế m_hoi
▁tủ _lạnh
▁ng ầ
▁mật_ ong
▁mỹ _thuật
k iến
▁dự _luật
r ick
▁hiệ n_hữu
▁tr iế
ord an
▁tiếp _viên
▁cườ ng_độ
▁cuố n_hút
▁thương_ lái
_th ầy
▁x ấu_hổ
ur d
▁trưở ng_đoàn
at ia
▁e v
▁T el
_m ình
▁viet tel
ud e
n_l oạn
▁Sản_ phẩm
n_ T
ạ nh_
▁ id
▁s el
▁hóa _thân
▁V iên
_th oáng
or th
▁đ ầu_cơ
▁y ou
▁j e
erg uson
▁e xpress
▁h ái
▁h i
_ng oài
▁Đại _tướng
▁bắt_n guồn
▁co n_r
u ch
▁T uổi
iệt_th òi
▁hồ _chứa
▁b ìa
▁nấu_ ăn
▁vữ ng_mạnh
▁p etro
_Đ iển
6 4
ng_c ao
▁chọn_l ựa
▁c ro
▁t al
et ty
▁Tim es
▁nh ượ
▁Hiế n_pháp
9 1
▁7 %
▁mất_m át
▁R e
▁thụy _điển
▁cảnh_ quay
b ạn
▁1, 4
▁g l
▁n uốt
▁Ban k
▁lý _luận
f a
c ác
g óp
▁dọ n_dẹp
▁T ất_
rah im
_d iện
n_n ăng
ng_l oạn
▁Dân_ chủ
▁r ễ
▁th iệt_thòi
▁liên _thông
ot ti
i_d ào
st an
▁Thụy _Điển
▁mở _đầu
▁d ệt
▁lư u_động
▁trẻ _tuổi
▁c ẩ
▁dồ i_dào
▁Số _lượng
▁ba _lan
▁Lạ ng_Sơn
▁cà _chua
on t
l ing
▁Tr ưng
n_l an
▁M at
▁A ss
n_gi ờ
▁Ph ối_hợp
i_ng ược
l im
u_ xanh
▁chuyên_ dụng
▁s ung_
Tr ăng
▁Hồ _sơ
_th ai
▁giải_đ áp
_s ữa
▁quy ên
on ia
Th ạnh
▁3 D
▁bđ s
▁BĐ S
▁K ý
t_b ỏ
_h ức
▁Ba_ Lan
▁quý _giá
▁định_ vị
▁lang _thang
▁tự _sát
▁kh uất
▁S V
▁d ê
im b
▁x ơ
▁K ar
_tr òn
ng_l ẫy
ng_b iệt
▁3 d
▁mề m_m
ch âm
9 4
▁nh ỉ
▁v ét
▁Đại_ biểu
_th uyền
m_ng ưỡng
▁sp ort
▁v nd
▁ngô i_làng
▁ph ở
▁đ ục
▁ro oney
▁vù ng_cao
ac eae
if a
▁riê ng_biệt
_l ái
▁hà _giang
▁d es
i_nh i
▁công _trường
5 4
▁bảo _hành
d en
▁t ốc
▁n ốt
▁đăng_k iểm
▁chỉ _dẫn
▁Ch ấp
▁Ro oney
_R ịa
▁trung _thu
z o
▁phả i_chăng
im e
▁chuyên_ khoa
▁Đ ánh_
▁Bà _Rịa
▁tr ạ
▁ngỡ _ngàng
▁Ch ế
▁r ang
▁B ro
n_v ăn
▁cử _nhân
▁ba n_nhạc
▁e vn
▁sơ _đồ
▁C ố
▁Ch uyên_
n_h òa
▁X ác
▁quyên_ góp
▁ng uyệt
▁háo _hức
▁x ương_
▁hoàng_ anh
v ẽ
6 2
▁3 .2
▁P etro
▁hoà n_vũ
6 9
▁ip ad
▁s ét
▁ch ùm
▁K ết
t_ xa
▁ho r
▁Th iện
ac t
▁Viet tel
▁b m
c is
▁m ốt
s ter
▁P an
▁thân_m ật
▁tọa _đàm
▁đối_ chiếu
▁vẻ _ngoài
▁t ạt
▁lá _c
▁s ony
▁kh ỉ
i_n am
▁góc_ nhìn
▁cướp _giật
▁r en
ẫ n_n
▁chú _rể
▁ch ật_
▁bao_b ì
▁X II
▁ch iêu_
▁Ph an_
▁l uận
_t ìm
▁k eo
itco in
ết_đ iểm
▁ngầ n_ngại
▁dày _đặc
▁đ úc
▁g t
▁F DI
▁hé _lộ
▁bắ t_mắt
▁truyền _tải
5 3
▁cở i_mở
▁S L
y le
▁10 4
▁Kh ai
▁Hợp _tác
n_đ ài
▁b ật_
▁địa_ chất
ib an
▁co n_nuôi
▁tiếp _thị
▁in f
n_ph ương
▁t át
Đ ình
▁g ót
▁lu ân_
Kh ánh
u_h ụt
_ Dương
_d ỗ
▁bị t
▁Hoàng_ Anh
▁C lin
▁n ề
ar o
m o
▁lật_đ ổ
▁kiểm_d ịch
▁Ngườ i_đẹp
▁chiến_l ược_gia
▁Hoạ t_động
ng_b ằng
▁n ấ
8 2
▁buộc _tội
▁h an
r ông
v ận
▁v iền
▁hoạ t_
▁S te
▁j ames
▁V ND
ro v
▁At letico
▁E VN
▁at letico
▁trà n_lan
▁tha i_nhi
_v ai
aw a
▁ch en
▁b id
▁cao _tầng
m_ng ặt
▁sổ _đỏ
▁Thanh_ N
▁Th u_
l ính
▁pl us
▁c ường_
▁m au
▁m h
▁nghiê m_ngặt
▁S ony
▁canh _tác
otte nham
U NG
ắc_ xin
▁khuy ết_điểm
▁m ắ
▁k cn
▁ch ớp
▁yên_b ái
6 1
▁n ôn
▁W h
▁hoả ng_loạn
ng_ giá
▁Thủ _tục
▁Hà_ Giang
▁v ac
▁f ile
õn g
▁nghiêm_ khắc
▁f di
i_l ạ
▁B ách
it al
▁to tte
▁g ục
▁hiệu_ suất
▁Thanh_ niên
▁T òa
▁thể _chất
▁totte nham
▁đ iệu
▁đ ức_
▁J ames
▁S ỹ
▁ng ất_
▁lh q
▁LH Q
▁vô _số
▁T ottenham
▁Đ a
▁thiếu_n iên
iê u_l
▁lưu _trú
▁chung_c uộc
▁tố p
▁xuất _trình
▁thiế u_hụt
▁S il
am i
▁l g
▁kh ử
▁tình _thế
▁lđ lđ
▁LĐ LĐ
▁d ừ
▁tổ n_h
▁Đ ất_
▁chính_ h
▁cl in
▁b ên_lề
ad or
c ast
▁giáo _khoa
▁Yên_ B
▁sóng _thần
c y
_x át
▁nữ _tính
▁60 .000
▁chế _tài
▁L G
▁dò ng_chảy
▁G ò
▁Nguy ê
▁t ẩu
kh ích
▁b úp
u_h ỏa
▁cự _ly
ng_ph ạm
▁tập _kết
▁Tư _lệnh
▁thứ _tự
3 9
▁A CB
▁20 25
m_ nhân
▁j ose
_t ạng
▁Ch a
▁198 1
▁đ iển
c_đ ường
▁thủ _đức
▁Qu ỳ
re et
▁miền _tây
▁Tây_B ắc
▁nh ọn
ed an
▁gia ng_hồ
▁m ộc
▁l ibya
▁thanh_l ịch
il d
ng_ gi
▁trả _thù
▁s ưng
▁từ _từ
▁b ik
▁l ội
ng_s uốt
▁J ose
▁tạm _trú
_tr àng
▁điểm_ch uẩn
▁Thanh_N iên
▁đàn_ em
▁mu ỗi
▁ om
▁lụ a
▁Dịch _vụ
▁L ibya
▁thoái_ vốn
▁cu ộn
h ạnh
▁bất_ lực
▁D iệu
▁đườ ng_đ
▁nh uộm
▁nh ó
m_ch ức
▁Lý _do
▁10 7
▁T am
▁vương_ quốc
▁giam_ giữ
▁to a
▁phố _cổ
_l ường
t_kh ác
▁Mặ t_khác
▁m ưu_
ng_đ a
n_kh ởi
▁phần _tử
l âm
ng_l òng
ex us
▁Hiệu _trưởng
▁ngh i_l
illi am
▁M H
j ok
▁đố ng_đa
L âm
ung_c ảnh
▁bào _chữa
▁lan _truyền
▁chiế t_
▁ ­
▁nội _thành
i_ph áp
▁nhà_r iêng
▁giọ ng_nói
▁sản_ phụ
▁trí _thức
ng_Đ a
▁th âm
▁B àn
▁Đố ng_Đa
▁Tr uyề
▁m àng
ad y
▁số _ít
u z
os ter
_m an
▁thương_ lượng
▁400 .000
▁đánh_m ất
▁trung_ đông
m_ch ủng
und ai
▁tình_ nhân
▁xấp _xỉ
▁v á
▁tổn_h ại
▁trình_ làng
▁ph iề
▁bệnh_ nhi
▁Yên_B ái
▁v ắc_xin
▁trung_ gian
▁gh ê
▁tha _thứ
▁kh anh
▁phấ n_khởi
▁c ọ
▁cu ồ
ấn_đ ộng
_l ắk
▁đề _cao
▁kha i_sinh
ov o
ut s
nh_m ì
5 8
at er
▁vụ _kiện
õ m
▁36 0
.9 0
▁196 0
▁duyên_ dáng
n_ng ưỡng
▁mạch _máu
▁ng ây
▁đắk _lắk
n_ch ương
▁t ĩnh_
▁tr iệt_
▁h p
▁T W
uy ễn
▁chi_ph ối
▁tái_ hiện
▁đồng_b ọn
▁nhà _tù
rist iano
▁chủ _đạo
▁tr ước_kia
▁Nh ã
▁B lu
▁phòng_h ộ
▁ngày _tết
▁v e
_c ải
ông_ m
▁kh át
_đ ốc
▁khá m_xét
▁a n_
▁Th í
▁á _hậu
▁j uventus
▁ac b
▁lu ậ
▁nhậ m_chức
▁2 ,2
▁viện _trưởng
▁dân_ quân
▁truy _tìm
▁J uventus
▁b bc
▁Triể n_lãm
▁L i
▁vĩ nh_h
▁vĩnh_ viễn
▁Trung_ Đông
▁chị _gái
_v ây
▁nghỉ _việc
▁cân_ nặng
u ệ
▁cho _ra
en ce
▁g ang
▁tu ần_lễ
▁Giáo _sư
b ao
n_phí m
▁thông_ cảm
m_c ảm
ec kham
▁d ẫu
▁ng ươi
▁chiê m_ngưỡng
_kho ác
▁ch ậ
an do
▁âm _thầm
ar m
▁tiến _triển
▁T ín
▁thượ ng_
r as
▁C or
▁chiều_ sâu
it z
▁cường_ quốc
▁chính_h ãng
▁B ao
▁biệt_ danh
▁ch ấn_động
▁ Ứ
▁triều_ đ
▁v isa
n ổ
r ừng
▁R am
▁G en
▁thụ _lý
v ết
▁đồ _d
▁R om
▁nhập_c ảnh
▁thế _lực
▁sóc _trăng
▁xúc_ phạm
er on
m_đ ộng
▁Bộ _luật
▁nhân_dân _tệ
▁p aul
▁điện_b iên
▁kích _động
▁đóng_g ói
▁Vị _trí
▁B BC
▁phạ m_nhân
u g
▁đồ ng_phạm
▁T iên
▁s ẹo
▁O r
t_n uôi
▁cụ c_bộ
▁T oán
▁hoà n_
▁ph ái
▁hội _trường
▁s i
Th ủy
8 4
▁g ợi
▁hoàn_ kiếm
▁An _toàn
v ed
K iếm
▁ch ảo
▁1. 9
▁kh ỏa
▁b ẻ
▁x oa
▁Tiế n_sĩ
Qu ân
▁ngo ạ
nh ẫn
▁con _tin
_L ắk
▁Kh ắc
▁môn _thi
▁bê _bối
it an
▁tuổi _thọ
▁ch ật
▁bình_ minh
▁T ại_
▁Đắk _Lắk
ng_h ình
▁v iễ
▁Vụ _việc
▁U N
5 6
n_l âm
▁vậ t_nuôi
▁quý _h
▁n v
▁hình _tượng
▁xác _lập
▁quy _luật
▁bình_ phước
▁TH A
man n
▁giai_đ iệu
_đ o
▁mớ i_lạ
▁M ù
▁Hoàn_ Kiếm
▁côn _trùng
▁phương_h ướng
▁x ay
▁sức_ hút
▁phạ m_l
qu án
▁V ina
▁25 .000
_ch ỉ
_d ành
▁D el
▁thực _tập
▁m anh_
▁phản_ cảm
▁B iển
▁F or
▁Th ầy
▁biể n_Đông
I Ể
▁r âu
▁a sia
▁s ôi
▁tà n_phá
▁n áo
m it
▁2 ,3
▁hội _tụ
▁chào _đời
▁trầ m_cảm
▁tiê m_chủng
c_n uối
jok ovic
▁Tất_ nhiên
▁kích_c ỡ
_th ềm
▁hiệp _ước
▁ser ies
▁Đ oạn
▁bà n_bạc
▁197 2
▁thành_đ ạt
ph a
▁trá i_ch
▁iP ad
8 7
▁tr ăng
t_v ọng
ai r
▁l iga
ng_đ ế
▁tinh_ vi
ch ịu
ic an
▁P aul
▁đ iề
ng_n ước
t r
▁quý_h iếm
▁d aily
_l iêm
ỉ u
▁siêu_ âm
▁tuổi _thơ
▁H P
_l ô
▁từ _liêm
▁Tại_ sao
▁V ịnh
ru z
Ư Ơ
▁20 21
▁ar ab
p ort
▁H ương_
d l
▁khí _thải
▁L iga
▁ngu ội
▁Thủ _Đức
▁ngoại_ ô
▁S ẽ
▁dấu_ vết
_tr ăm
▁tiế c_nuối
▁nghỉ _lễ
▁d ay
▁khiêu_ khích
▁B ản_
▁ly _khai
▁t or
▁Thờ i_điểm
▁nh ức
_ quả
_L iêm
▁thương_ nhân
▁10 2
Ạ I
▁Thố ng_kê
▁trà n_ngập
▁lũ y
▁Từ _Liêm
▁Đại_sứ _quán
▁c ent
ƯƠ NG
▁Liê n_bang
▁c ầu_c
▁cá _thể
▁Th ăng
▁thiếu _tướng
▁h òn
i_k éo
▁S up
▁Q uyền
d am
▁phần _trăm
3 70
m_ch ứng
▁bà ng_hoàng
▁khá n_đài
ul a
▁Chỉ _huy
▁Qu an
n_đ e
▁vĩnh_ long
▁B OT
ng_l iêng
▁đầu _thú
8 1
▁bệnh_ lý
ng_m ạch
▁chạy _đua
▁tội_ ác
úng _túng
c ổ
▁c and
▁gi ơ
▁kêu_c ứu
▁t ướ
▁ră n_đe
▁mẫ u_m
▁V iết
vi ch
m_s inh
▁đá m_m
▁W eb
▁T iêu_
▁kí p
▁bao _vây
▁u td
▁lũ _lụt
▁Điện_ Biên
as on
▁tiêu_đ ề
▁lô i_kéo
▁5 ,5
▁nguy _hại
▁thiê ng_liêng
▁tự _mình
n_ qu
▁nh ị
ầm_l ẫn
▁Đ o
▁r ưỡi
▁Chỉ _thị
ng_r ắn
_c ôi
ỏ m
▁kh ă
▁l ại_
▁B iết
▁từ _đường
▁s ườn
▁tw itter
g ủ
▁S w
▁th uyết
n gủ
▁11 2
▁hoạt_ hình
▁al l
H oa
▁s ót
▁ồ _ạt
▁đột_ nhiên
▁cứ ng_rắn
▁B uổi
▁Biên_ phòng
▁s ắc_
▁Sóc_ Trăng
▁gr and
▁nhân_ công
_v ợ
▁kiên_ nhẫn
▁G ần_đây
▁hư ng_yên
▁ng ụy
▁K ỷ
fi eld
_ch ọn
▁T Ổ
▁áo _khoác
▁bá nh_mì
▁bình_ dân
y e
▁T iên_
▁Kết _thúc
▁k e
▁chủ n
▁G ar
▁ âu
_đ ược
▁Cl ip
▁Tây _
▁chủn g
▁l ắc
▁Nhà _hát
m_đ ầu
ur i
ani el
▁10 1
a eda
▁h ă
▁mệnh_ giá
▁h ông
▁11 3
▁vĩnh_ phúc
▁U td
▁đ ấm
▁m ttq
ur t
▁M TTQ
▁x ì
ắc_m àu
▁Lễ _hội
▁Dự _báo
▁dược_ phẩm
▁kh ích
▁B ảy
▁clin ton
▁tr ô
▁x ổ
▁Đ ịnh
▁l úng_túng
▁đồ_d ùng
▁cal ifornia
▁Kh anh
▁tiệ n_lợi
▁Clin ton
▁Bị _cáo
_m i
d ũng
▁trăn _trở
▁phần _thưởng
n_d ựng
▁sứ c_sống
▁khu _trục
az z
▁Cal ifornia
▁trái_ch iều
am e
▁tai_ nghe
á n_học
▁D ùng
▁d inh
▁r un
▁bà n_phím
▁Đ ịa
▁12 %
▁mồ _côi
▁đ u
▁chiều_ hướng
▁tái_ xuất
▁o z
▁Bình_ Phước
▁th uộ
▁D A
en e
▁địa_ chính
▁D aily
l ỏng
▁g ạt
▁nước_ nhà
▁tí n_ngưỡng
▁s ản
▁hài_ cốt
▁dà n_dựng
▁că n_bản
▁v ol
▁Tương _tự
▁hậ u_cần
▁D uyên
▁ngoại _trừ
ng_ ghép
▁mềm_m ại
at i
▁d ặm
▁hoàn _trả
c er
_x ử
▁cầ m_đầu
▁O anh
▁ghi_ âm
▁Điệ n_lực
_ph ì
L iêu
P L
if ic
▁d ịu
▁Ngh ĩ
▁cầu _thang
_t ọa
▁trại_ giam
n_h ướng
▁lão _hóa
▁gián _tiếp
id er
ân_ viên
_h oại
▁kh ải
▁m ăng
▁lấy _được
nh ân_viên
▁2 ,4
ev a
▁nhân_ loại
▁x ám
▁w on
▁m ác
t ic
n_m ạch
▁sá ng_chế
▁Ph ân_
▁c úc
▁f i
▁r áo
▁giá ng_sinh
▁b ẩ
n_ nghị
lob al
▁yo utube
▁hà _nam
▁lo gi
▁thừa _th
▁mic ro
_tr ễ
▁Hưng_ Yên
_m ạo
▁phân_ h
▁công_ nhân_viên
▁Tr ách
▁H iển
▁phí m
▁ch ồ
_t um
u ck
_t an
▁bạ c_l
t_l ui
▁chuyể n_hướng
▁ch i_bộ
▁Vụ _trưởng
▁d r
m_c ười
▁công_đ oạn
▁tù _nhân
▁trào _lưu
n_n àn
▁bạc_l iêu
▁á n_phạt
▁B al
ot land
c ảnh
▁kon _tum
▁Qu ảng
▁Tuy ến
ig eria
▁hiề n_lành
▁co n_gi
▁Liên_H ợp
r ed
▁thụy _sĩ
▁Vĩnh_ Long
▁rú t_lui
.1 00
▁Bản _thân
ng_kh iếu
▁j o
▁Hội _thảo
▁Phụ _lục
5 9
5 1
▁Vĩnh_ Phúc
▁phà n_nàn
▁m ỳ
▁trá i_ngược
ell y
S D
▁D ầu_
▁chủ _quán
▁nh ầm_lẫn
r at
_d ư
▁cả m_động
▁mỉ m_cười
▁bỏ _rơi
▁8 %
▁H e
_v oi
▁T or
▁T ạ
▁Chiế n_l
▁ru ồi
▁bẩ m_sinh
▁197 8
_s ấu
▁d iệp
i_m ộ
▁thông_ cáo
▁chung_ sống
▁Bảo _tàng
▁O ne
▁m p
▁h ít
v an
▁tán _thành
_s âu
▁h ack
ng_l ái
▁người_ quen
▁Cá n_bộ
▁r ẫy
ap ixel
▁Thụy_S ĩ
▁kinh_đ iển
▁Q uyên
▁Liên_Hợp _Quốc
▁Chỉ _số
▁tinh _trùng
▁ch éo
y s
▁nguyên _tử
_ngh ệ
▁Chấp _hành
▁c ẩu
▁S ai
n_ áp
▁ng ứa
c ụ
▁B ol
▁24 0
▁Không_ quân
_l oạn
▁hc v
c ỏ
▁196 8
k iều
▁1, 7
▁l im
▁c ởi
ánh_ án
▁Tr ận
▁ph iế
▁kh ung_cảnh
▁tử _thi
▁Điện_ B
▁phi_ hành
▁Lịch _sử
▁lo go
▁c anh_
i_h ùng
▁Dự _thảo
▁hạ n_h
b ão
▁h ối
▁can xi
ov er
▁Liên_h ợp_quốc
▁tt hc
▁x ạ
▁B ạc_
▁ ách
im es
▁hế t_l
▁m ạn
I N
▁gi òn
▁bik ini
▁r ung_
▁ưa _thích
▁HC V
▁st ar
▁bản _tin
n_m ục
▁A NT
▁Kh ải
ng_d ậy
▁sơ _mi
▁3 20
u_ nhiên
i_đ ội
lu ồng
▁khảo _cổ
▁chủ ng_loại
▁sân_ cỏ
▁m ad
▁T om
▁n at
a vi
▁Trách _nhiệm
▁công_ lý
os k
▁z ing
▁tr ắ
▁G o
▁yê u_đ
▁hộp _số
▁h á
▁r ầ
▁TT HC
▁an_ ủi
▁sinh_ động
▁Bảo _hiểm
es el
_ch ép
▁đáp _lại
ik a
g ười
▁vne xpress
r et
▁h ọng
_ in
▁tiêu_ch ảy
▁vô _tư
Th anh
▁197 6
_th ục
▁ngẫ u_nhiên
▁ngh i_
▁v ina
T re
▁hình_ dáng
▁lãnh_ sự
▁Nguyê n_đán
▁ngoạ n_mục
▁dân _thường
▁quy _tụ
▁tây _ninh
n_h ải
▁T ám
▁d i_
▁Hà_ Nam
i_s ắc
▁thanh_ bình
▁Đ an_
▁bắ c_bộ
n_ ý
5 .000
▁bến _tre
▁kiể m_nghiệm
ri bank
iếu_n iên
▁nhỏ _nh
▁nhiệt_đ iện
ƯỜ NG
▁sứ _mệnh
▁tr ễ
▁chung _thân
▁m ụ
▁Đánh_ giá
▁v ực
_b ằng
▁Tw itter
▁V ùng
▁Chính_ quyền
▁Hướ ng_dẫn
▁ch rist
▁12 .000
▁l iều_
▁binh_ lính
▁cô _lập
▁Trưở ng_Ban
▁g ọ
_m uốn
▁C O
▁ il
▁n ể
▁đ ụng
▁ uyên
▁lồ ng_ghép
ce an
▁B ức
ev en
_k im
as e
▁s ành_
ng_nh ạc
d uyệt
▁phát _tán
▁m ịn
▁phân_ luồng
▁khở i_sắc
▁đầu_ g
▁sơ _kết
v el
Tr ường
▁Bạc_ Liêu
▁ngoại_ hối
▁Danh_ sách
▁s âm
Ở NG
▁đ ẫm
▁phá t_n
▁chuyên_ dùng
n gười
▁Qu ế
b s
▁Y ê
▁Y ou
▁Ngân_ sách
▁nó c
▁M uốn
▁hấp _thụ
Ư ỞNG
▁đại_ lộ
▁ý _muốn
▁T ới
▁tàng _trữ
▁cá _m
▁th oại
▁a ff
▁thă ng_hoa
▁Th ừa_
▁ \
▁H ọc
▁d ong
▁X ử
▁khở i_điểm
▁Sử _dụng
n_T um
ng_v àng
▁tùy _chọn
▁Ko n_Tum
▁so uth
▁chủ _quản
▁thừa_ kế
▁M ô
▁nhân_ quyền
▁tất_ yếu
▁dân_ dụng
5 7
C ông
▁đo _lường
▁x ê
▁độ _sâu
▁Qu ỷ
▁Đ iể
▁L ượng
I M
▁su per
▁béo _phì
E R
▁giả _mạo
▁b ứ
▁Truyề n_hình
im bank
ốc_ liệt
▁nam_ phi
▁N V
▁công_ dụng
▁6 %
▁kinh_ng ạc
▁Ch rist
▁điều_ phối
i_ph í
▁Sp ort
a_ch ua
▁dĩ _nhiên
▁g roup
▁hứng _thú
▁quan _trắc
_gi áp
▁cuộc_ chơi
▁seo ul
▁nhậ n_dạng
ẫn_n ộ
▁chính_ quy
▁R i
▁lộ ng_lẫy
▁Quá _trình
ng_l úc
▁đặc_ quyền
▁kh ốc_liệt
_r anh
▁hạch _toán
▁C ặp
▁f ifa
▁lạnh_l ùng
▁thời_ lượng
▁tươ ng_đồng
m b
▁Cuộ c_sống
k o
ro p
T âm
▁s ắc_màu
▁h ét
▁vượ t_b
_h ổng
▁thích _ứng
▁hữu_h iệu
Kh ê
▁Seo ul
▁Chính_ sách
▁c ù
▁kh ao
▁nă ng_khiếu
▁ghi_ch ép
▁mạnh _tay
▁trước _thềm
▁chất_ x
▁p et
▁B T
▁dò ng_nhạc
▁mẫu_ giáo
st ag
▁Ph ố
▁x anh_
▁khuyế n_nghị
_th ám
h ụt
▁Nam_ Phi
▁truy _đuổi
▁nh ện
▁chuyể n_hóa
▁12 8
▁phế _liệu
_c ứng
▁gỡ _hòa
▁ư u_
▁phát_n ổ
ad i
ill ary
▁gi ỏ
▁f ed
▁b ig
▁con_d ấu
▁ ướp
_ch uyển
▁tay _đua
▁Công _trình
g ộ
a_c am
▁ art
▁dã _man
▁hồ n_nhiên
▁hội _thi
▁N ông
▁Tình _trạng
_d ầu
▁thiên _thần
▁đ ắng
▁quá i_
▁F A
am as
▁Tây_N inh
▁Giấy _phép
▁gh e
▁giá m
n_m ạo
2 00
▁Gr and
al o
l us
d in
▁T ố
▁dễ _chịu
v ương
▁cá _sấu
▁K m
▁197 3
▁r od
amil k
n_n ạn
▁đ ỉ
▁nhân_ khẩu
▁điều_ dưỡng
a_ k
▁Giải _thưởng
▁H ành
▁v ắt
▁hội_ chứng
n gộ
▁ngô i_vị
▁V ốn
▁khá t_vọng
▁c ard
n_đ ơn
▁FI FA
ng_c ự
▁Hà ng_không
▁c eo
om berg
▁mưu_ sinh
▁búp _bê
erk el
▁tu r
▁Cơ _sở
▁Ph ù
▁ Ă
▁H an
▁trung _tá
▁quân_ khu
▁3 .0
▁M il
_th ánh
▁So uth
▁N ạn_nhân
l ao
ber t
n_n úi
▁l ầu
▁kh ú
▁đắc_ cử
▁co n_vật
▁t ấp
n_b áo
▁P ar
▁80 .000
▁Ng uyệt
▁m ép
▁Tổ ng_hợp
▁điển _trai
▁lý_l ịch
▁f ord
▁ng ả
▁V ẫn
▁í t_khi
▁phản_b iện
▁O sc
▁C EO
b ài
uyế t_m
N et
▁tạo _dựng
ok e
▁tưở ng_chừng
▁k ệ
▁ph ẫn_nộ
▁Bến_ Tre
▁Th ú
▁d ẻo
▁tá i_ch
▁th oa
▁c ast
ig an
▁l at
ch ánh
b e
m_ ứng
▁hộ _tịch
▁Hậ u_
▁hình_ như
▁Ca _sĩ
▁v ác
_Đ ình
▁đón _tiếp
▁nghèo _kh
▁dung_ dịch
▁hol lywood
▁t k
▁cú_đ úp
▁độ ng_mạch
▁t ech
nh_v ượng
lo v
_d ịch
▁R od
_t ổ
▁os car
ò m
▁thi _tuyển
▁lạ _l
▁h ỏ
▁t q
▁B ệnh
▁Y ên
n_v ợt
▁lữ _hành
ân_ch uyển
▁Câu_ chuyện
n i
b us
▁thâm_ hụt
▁197 4
or i
▁di esel
D ũng
đ iệu
▁chiêu_ mộ
▁d a_cam
▁Yê u_cầu
▁cô n_đồ
u_h àng
cast le
▁Toà n_bộ
▁lò ng_người
ng_c ười
err ari
▁Cô _gái
▁đám_m ây
▁70 .000
i_d ối
▁mùa_ bóng
▁T Q
x o
▁E r
▁lỗ _hổng
ers ie
▁Hol lywood
stag ram
▁bả n_địa
▁hơi _thở
▁tr ổ
▁bom _tấn
▁s ắm
▁l ừ
▁ch ay
▁biế n_dạng
▁ng ỏ
▁s ào
▁g ặ
▁khoai _tây
▁Kh ang
_l ắp
▁Vă n_bản
▁l in
▁V ân_
cel otti
▁Ch i_phí
▁p u
▁ Í
▁và nh
▁l aser
▁hỗ n_loạn
▁b g
iên_h uế
▁thừa_th iên_huế
▁B ID
▁lờ i_h
▁nhanh_ nh
l os
▁Ngoại_ hạng
▁bàn _thua
▁L ại
ò e
▁hạ m_đội
▁Cộ ng_sản
▁Máy _bay
▁bạo _hành
▁H ình
▁J o
s ơ
▁ch ô
ng_k ỳ
▁tâm_ linh
▁Nh ậ
▁thượng _tá
▁b y
▁M el
▁diệ n_mạo
▁Osc ar
▁x uyên_
▁Ph ật
▁khỏa _thân
▁lu ân_chuyển
▁m ich
▁phòng_kh ách
▁4 %
_tr ặc
ng_nh iên
▁khích _lệ
b ook
▁k u
M ã
▁hủy _hoại
eg a
▁F ord
▁đo _đạc
▁lạc_ hậu
▁Thố ng_đốc
▁R ich
▁s ant
▁tân_ bình
▁L ợ
▁má i_nhà
▁phụ _tùng
▁toàn _thân
▁lâm_s àng
▁hồi_h ộp
▁hoạch _định
_b áu
ru guay
ung_l ũng
▁đ ực
as a
if f
▁đa _năng
▁T K
▁Sự _việc
_c ầu
▁C om
▁10 9
▁phong _tục
▁hung_ khí
H uế
gi ản
u_h iệu
b ột
▁1, 1
▁st ress
▁giáp _ranh
ne ws
▁ âm_đ
▁nó i_dối
▁U yên
▁kiên_c ố
▁rầ m_r
▁trọng _tải
▁ba _đình
▁k v
▁cố t_l
kh át
▁ninh _thuận
▁trục _trặc
s in
▁t ật
Tr à
▁kết_ án
qu ỵ
▁biểu_ quyết
▁x oài
▁tạ m_ứng
▁bar ack
▁l ặng
i_ Châu
i_c ơ
a_ch ỉ
▁giao _thừa
▁lắ c_đầu
▁đẩy _l
▁đầ u_đạn
▁thiê n_đường
▁L ời
_ho ãn
▁h ao
▁Đ ang
▁TH Ủ
▁Bar ack
▁ủy _thác
▁t ó
▁d ấy
▁98 1
▁ng ạch
▁hỏi _thăm
▁xe _l
i_l òng
▁xâm_l ược
▁áp _sát
▁2 .6
▁đơ n_phương
ng_ch ân
▁bất_ bình
▁cách _ly
▁hành_ xử
al d
▁cả i_l
▁bu r
▁giải_ khát
ab a
▁hoà ng_mai
L T
▁ưu_ ái
u_l ong
ộ n_nh
▁Tân_ Bình
▁M ich
ath er
▁phong _thủy
▁D iệp
▁tr èo
▁m ít
▁Công_ đoàn
▁B ó
▁A C
▁mỹ _đình
▁T ông
▁H en
▁A D
▁L ộ
_l ụy
▁độc _thân
▁Ba_ Đình
n_s ẻ
_t ươi
▁cải_l ương
▁sành_ điệu
▁b ùng
▁mass age
▁V ật_
▁đá _phạt
▁tham_ chiếu
▁thích _nghi
▁thị nh_vượng
▁xa_x ôi
▁máy _chủ
▁Tiêu_ ch
▁xe _b
t_kh ao
▁T ứ
▁for m
v ã
▁phương_ châm
▁đậ m_đ
n_g àng
▁b ô
▁th ấu
▁S ức_
▁nga ng_nhiên
un a
▁thông _thoáng
▁ph en
▁M ấy
▁chính_trị _gia
▁tiế ng_cười
▁hậu _trường
ia t
▁p at
i_l ửa
▁gọ n_gàng
_d iệt
▁h 45
ig er
▁vữ ng_vàng
▁s ắn
t_ ơn
▁tr ắc_
ương_m iện
ng_b uộc
▁Hoàng_ Mai
▁Mỹ _Đình
▁thống _trị
▁r ảnh
▁n ản
▁hoài_ nghi
ash in
_tr ọt
▁D iện
▁bầu_ chọn
ng_ C
▁đáp _án
ama ha
▁đầu_g ối
▁bình_th ạnh
▁Vn E
i_s ơn
▁đoàn _tàu
est a
▁tiện_ nghi
▁mong_m anh
c đ
v o
_đ ài
c os
▁2 ,7
▁mẹ _đẻ
▁ngô i_mộ
▁nam_ bộ
▁để _dành
▁người_ nghe
c_ng o
ng_ph ấn
in ess
ương_đ ại
iss an
j ect
▁biê n_độ
▁công_ phu
▁V iễn
iên_h òa
j et
▁rà ng_buộc
▁xổ _số
▁th am
▁lo ng_biên
▁khởi_ hành
▁b oy
▁b iên_hòa
▁pal estine
▁r ót
▁Ng ược
▁Pal estine
_tr ung_
▁chuyển _tiếp
▁Quy ết
ra c
▁kiện _toàn
▁m ét_
▁S ant
▁b ồn
C Đ
▁v ladimir
qu ản
_đ ịa
n_ph im
▁gi ặt
▁N âng_c
▁V ladimir
▁t é
Ph ủ
▁chuyể n_dịch
▁m tv
▁l ân
▁thu ầ
en ter
▁h ân
▁k ính_
u_ x
▁Biên_ Hòa
▁biế t_ơn
▁kh ơ
▁197 7
▁b el
u_h ồng
▁Long_ Biên
▁Bình_ Thạnh
▁lờ i_ch
ist o
▁thỏa _đáng
▁Kh ả
▁đột_ quỵ
▁t ụi
c_l iệu
ex as
▁toà n_
▁p ep
▁Châu_ Á
▁diễ u_hành
▁đ ương_đại
▁M TV
u e
ill as
▁I P
▁vòng _tay
▁Chiến_l ược
▁vội_ vã
_d iệu
▁điệ n_năng
▁b ill
ev er
▁áp _đảo
og a
l ạnh
▁hủy _diệt
_ph át
▁khai_ giảng
ol ie
▁nh ộn_nh
▁sát _thủ
▁t óm
_ quy
k er
K H
▁l ive
▁ ơn
▁t ắc_
▁Ch ồng
▁K ính
▁B G
▁n ăng
em ent
_ch ắn
▁trình_d uyệt
▁C ổng
▁hu ân_chương
▁t ần
k ov
▁kh ắ
▁vận _tốc
▁g old
▁C ro
▁Ch áu
▁quỹ _đạo
▁M ùa
▁nh ốt
▁châu_ lục
▁ ế
s oi
▁đ a_c
▁Hô m_qua
▁ghi_ch ú
▁Z ing
▁Tr úc
▁quầ n_vợt
▁nh ú
▁xó t_xa
t_đ iện
▁c ớ
▁Gi ữa
▁hành_h ạ
▁cử _chỉ
_ph ong
▁l ẩn
▁K iệt
▁võ _thuật
c_s ơn
▁kh ống
▁kỳ _diệu
▁L àng
▁Thông_ báo
av e
▁dò ng_nước
I S
iên_ Huế
▁I M
▁khá t_khao
▁Châu_ Âu
t_đ ền
▁B lo
▁gi ặc
▁phạm_l ỗi
▁lịch _trình
s d
▁b ung
ad da
ng_v ệ
▁v ương_miện
s y
▁đặc _tính
if t
w an
▁kho _bạc
▁trong_s ạch
▁lời_h ứa
▁g ram
▁tỉ _m
_M ai
ad en
▁6 ,5
▁p ost
k ịch
▁S A
ng_h ọ
▁c amp
▁phạ t_đền
▁mark eting
ng_ch ịu
ub ai
▁điể m_m
x d
ức_ phạt
▁c v
Th iên_Huế
▁phân_ cách
▁H ân
▁Thừa_ Thiên_Huế
i_k ịch
▁T al
▁nghi_l ễ
▁hứ ng_chịu
▁mà u_hồng
ail er
in n
▁ ồn
▁Tr ình
▁viet inbank
▁tr ướ
▁thanh_l ong
illi ams
ch ez
▁ol d
▁dự _tính
it ar
▁s ir
▁ho se
ang e
▁phá _giá
et o
▁bang kok
_n ối
▁M e
n ăm
▁ANT Đ
n_đ ạt
▁ant đ
Ấ T
▁y _khoa
▁z ealand
▁D ư
kh ông
▁cốt_l õi
er i
▁trì _hoãn
▁s ar
▁B ig
_ph ỏng
n_n ông
▁bánh_ ch
▁Ba n_đầu
o ai
▁nội _trú
▁r os
▁dân_ sinh
▁thực_ khách
▁F i
▁T p
▁k ẹp
▁kế _tiếp
▁v ân_
cc i
▁ph i_cơ
▁ven ezuela
▁l ed
í m
▁danh_ giá
▁Ninh_ Thuận
▁Z ealand
gh t
▁tiề n_
▁nh ật_
▁đời _thường
▁yo ung
▁Ven ezuela
▁th ềm
▁Kh ối
▁lập _trình
▁tương_ xứng
ã ng_đường
ch âu
▁s ừng
▁chậm _trễ
▁Ch àng
s oạn
▁triệt_ phá
▁nhộn_nh ịp
▁nội_ y
▁thu ở
▁đổ _vỡ
▁ph ao
▁C ÁC
▁ph il
▁gián_đ oạn
▁195 4
▁m ường
t_m ốc
▁đông_ lạnh
▁at gt
▁C os
▁o ut
▁xét_ duyệt
▁đ ạm
ic ester
▁L iệu
adda fi
_ng ũ
v uông
qu ật
▁St ar
▁Bang kok
▁AT GT
z e
▁yêu_ qu
▁Pl us
▁miễ n_nhiệm
r ea
m_n óng
▁O ld
▁B i
▁co n_b
et s
▁ph ác
▁2 ,6
▁Ph ường
▁nước_ hoa
▁C M
▁khẩ u_hiệu
▁d è
i_ng ộ
▁w enger
▁i dol
_l í
i_l ẽ
▁M ua
▁W enger
_th ốn
▁cẩn _trọng
▁K u
▁lập _trường
_b ắp
▁Ngh i
t_ s
▁e m_
▁thẻ _đỏ
▁hàng_h iệu
m_v ấn
t_kh e
_t ống
▁S n
▁chuyện _tình
onet sk
▁hư_h ại
▁Diễ n_đàn
▁S iêu
▁tr út
▁khắ t_khe
▁C úp
▁to án_học
▁D anh
▁Ch i_nhánh
per ia
▁qu ấn
_h ấu
▁mặt _tiền
▁Ă n
▁cá _h
_tr ùm
▁3 g
▁cầu_ n
▁S ơ
y st
▁tỉ a
▁ng à
▁thẩ m_vấn
c ắp
▁âm_đ ạo
▁H ang
▁d l
e ed
▁vĩnh_h ưng
▁thông_ quan
▁vù ng_v
our n
▁vi _tính
▁C am_
▁đầu_t ay
▁lờ i_lẽ
▁thiếu _thốn
đ ài
_tr ệ
▁hư ng_phấn
▁n ic
▁l ù
▁2 ,8
▁tha ng_máy
_c ương
▁lu i
▁đứ ng_dậy
▁Vĩnh_ Hưng
▁V ương_
▁hệ _lụy
rahim ovic
▁ch inh
▁7 ,5
▁S ân_
▁f ab
▁qu ặng
▁cao _bằng
▁su b
▁V ua
▁meg apixel
▁b úa
▁2 .7
▁f lor
es co
▁đầu_b ếp
u_d iễn
op ter
▁Thí _sinh
▁bao _trùm
▁lo ài_
ng_k ông
▁đánh_ cắp
▁đội_ quân
▁phú _quốc
▁ch ư
K ông
▁xu ôi
▁đảo _chính
▁C rimea
▁l ưỡ
▁A M
_r ập
▁hồ ng_kông
▁T uyên
▁vac c
ev in
▁Th ần
▁Viện _trưởng
▁T ừng
▁d an
▁Đồ ng_chí
▁c rimea
▁s in
▁ph iền
▁mặ n_m
▁Hiện _trường
▁s k
▁Tu ần
▁Á _hậu
ay ne
i_nh au
▁Gia i_đ
▁g p
▁Qu ản
▁Hồng_ Kông
▁k iev
▁vinh_ quang
▁sưu _tầm
▁B ill
▁ă n_ch
▁M ad
▁Cử u_
▁Phú_ Quốc
▁cà _r
amp ton
t_l ý
▁vé _số
▁K iev
▁21 0
▁tà u_điện
▁C V
▁nông_ lâm
▁H ung
st ar
▁V o
▁G roup
▁V òng
▁phò ng_học
_tr án
▁th ầm
▁s ec
▁M P
▁huy ề
▁đơ n_hàng
▁t ĩnh
_Đ ộng
▁tầm _trung
ik u
▁k n
▁tâm _trí
▁2 ,1
▁4 .2
▁bộ _binh
▁r ub
ee k
▁a z
_l inh
t_đ ỏ
u_m ẫu
▁thời_ sự
Ư T
▁mẫ u_số
▁ông_ xã
▁tiền_ án
▁cử u_long
▁h al
▁95 %
ID S
▁qu ãng_đường
▁AF F
▁Ch iều_
▁m unich
▁cảnh _tượng
n_s uất
▁điể m_nóng
▁địa _danh
▁SH B
l ĩnh
▁đắ t_đỏ
ng_c ai
X D
▁ưu _tú
Ngh ĩa
t_m ẻ
▁3 G
▁ký _hiệu
▁đông_đ úc
▁M unich
▁ly _dị
st a
▁k iêng
▁cá _độ
▁3 .3
▁chạm _trán
▁kỳ _nghỉ
▁P ep
▁so ng_ca
▁Kh a
▁cộ t_mốc
▁mô tô
em b
▁tr ói
▁đẩy_l ùi
▁trước _tiên
▁S M
▁đồ _án
▁vietnam net
i j
ob el
▁x á
av a
it ch
▁la i_châu
▁e _ngại
▁S en
▁sh b
▁sản_ sinh
▁y _tá
▁đă ng_cai
ẽ o
_k ín
_s oạn
u_kh ó
▁hội_ an
▁s éc
▁siêu_ sao
at ra
▁Bình_ Ch
d iễn
▁m ed
▁bánh_ xe
▁bộ _đồ
▁sau di
▁vu ông
m_s út
in s
▁d ẹp
▁Hội_ An
▁pháp _nhân
▁c ưa
▁H a
▁xô _xát
▁đ ằng
▁giả m_sút
▁4 .1
er b
▁X I
es l
▁sáng _tỏ
ol o
▁cụm _từ
▁l én
et te
se y
▁Sau di
▁ser ie
▁t ục
▁nụ _hôn
▁tạ m_b
▁gi áng
▁biên_ soạn
▁cã i_nhau
▁l ương_
▁lo s
▁1.3 00
osk va
▁cổ _tích
it ion
ng_h ành
i_b iến
▁ách _tắc
▁nội_ các
▁p ixel
▁cừ u
▁tr án
▁K S
▁bình_ phục
▁tuyên_ án
▁h ạm
▁Liên_h iệp
▁g ật
▁công_ch iếu
▁sữ a_chua
▁dò ng_họ
▁n il
▁D L
▁thành_ phẩm
▁ngo a
▁đa_c ấp
▁mất_ ngủ
▁thầy _thuốc
▁trí _nhớ
ev illa
▁x ế
z uki
u_ nh
r ia
▁TH U
▁nh ịn
▁11 1
re al
▁F ab
▁mo on
h ạch
h ữu
ward s
▁hung_ h
▁dân_ làng
▁Ph il
▁chị u_khó
▁chủ _thể
▁vũ _lực
_kh át
▁nhập _học
▁Tờ _trình
▁ai ds
▁TN O
ng_s ợ
▁ă n_khách
▁đú ng_lúc
▁tn o
c anh
▁b enz
▁9 x
n_nh ất
▁l ột
▁lụ c_
_t ận
▁S ir
▁m ức_phạt
D L
▁L ấy
▁m ầm
▁hải_đ ảo
▁B ur
▁25 0.000
v ân
gi ó
B ài
b an
▁mar ia
▁thườ ng_ngày
Ả I
▁Lao _Động
▁cây _số
▁r ơ
▁C at
▁Đă ng_ký
▁xu a
▁tr uyệ
▁liên_ quân
▁s ờ
▁địa_ ốc
i_ph át
▁Cửu_ Long
▁ch ập
▁Tr ấn
▁Dân _tộc
▁cực_đ ại
m ãn
▁A IDS
ng_nh ớ
▁D O
▁Chiến _tranh
▁k iệt_
▁14 1
▁nướ c_s
▁m r
▁đ ính
if i
▁k l
▁Thanh_ Xuân
▁thương _tâm
▁công_ ước
_m ê
▁nú i_lửa
ist a
ip s
▁nồ ng_n
▁hữu_h ạn
▁Tuy ên_bố
▁phản_b ội
_H òa
▁m ercedes
▁e du
▁quán_ ăn
▁tp p
▁đ k
▁tẩu _thoát
▁đàn_ anh
▁bất _thành
▁11 6
▁S im
▁thẻ _vàng
▁vă n_chương
▁TP P
▁n ến
_tr ạch
n_m ức
▁tấ m_v
▁s ọ
▁Th ẩ
▁vố n_hóa
h s
▁X anh
▁sư _đoàn
▁Ch ất_
▁hậu_ giang
▁d v
a_m ạc
▁t est
▁dân_ ca
▁c ất_
▁d on
▁Tr á
a_k ém
▁o a
▁cho l
▁Chủ _trì
▁cứ u_
▁chấm _thi
▁19 50
▁phú c_lợi
ung_ linh
▁y ahoo
▁23 0
▁khao _khát
w on
▁I b
▁S iêu_
▁thu a_kém
▁ma x
▁trung_ đoàn
▁n m
l uật
▁ă n_c
▁trắc_ nghiệm
ph en
▁Mar ia
▁nội_ soi
▁mô _phỏng
▁2 .8
sư t
▁La i_Châu
▁VnE xpress
▁o da
▁kinh_ dị
s ót
eg o
▁th iệt
▁tình _thương
▁thiếu_ sót
▁ ức_
▁Điện_B iên_
▁sinh_ dục
▁n sưt
▁tình_c ảnh
▁CA ND
▁t d
▁xây _lắp
▁cắ t_bỏ
▁NS ƯT
▁tiếp _diễn
▁ne ymar
▁x áo
▁thanh_th iếu_niên
▁M ercedes
n ữ
▁hộ _tống
▁Liên_h oan
▁G old
▁bó ng_ch
▁3 .5
▁Ne ymar
▁Phát_ hiện
▁n ov
c_ngo ặt
▁anh_ dũng
▁Tổ ng_số
▁độ _ẩm
ge i
▁bản_ vẽ
▁lu m
▁M ời
▁Điện _thoại
▁sở _tại
▁B L
▁bà _ngoại
▁C amp
_t ồn
▁Diễ n_viên
▁Kinh_ doanh
b p
▁tượng _trưng
▁duy ê
▁B el
▁m ái_
▁cầu_n ối
▁dưa _hấu
lim ex
▁Tham_ gia
▁m iệt_
▁quanh_ năm
▁họ c_đường
▁ngày _thường
▁m s
n_đ ọng
▁p a
▁ ân
▁Báo _chí
▁Thiếu _tướng
▁hối_ hận
▁quốc_ dân
▁cầu_ kỳ
▁S C
▁Bắc_ Bộ
Nh ân
▁người_l ạ
▁tồ n_đọng
am_m àu
▁ch èn
c_đ ịa
B P
▁bm w
▁c nn
▁d iều
▁di _truyền
▁cao _quý
▁tiề n_phong
▁L ou
id d
▁am er
▁w ar
_r út
Á N
▁nhà _vua
▁kịch _tính
▁tầ n_suất
_th iên
▁tác _nghiệp
▁bất_ hạnh
▁Đ K
▁BM W
w ai
▁3 ,2
▁thả m_sát
i ra
▁T ech
▁7 50
▁hoả ng_sợ
▁0 %
▁Thứ _hai
▁Tr o
đ ào
ar les
▁m ủ
▁n ò
reg as
▁nguyê n_vẹn
t_kh oát
▁L os
▁bid v
▁tham_ vấn
ent ine
▁Al l
▁ap ec
▁V ệ
▁35 %
am_m uốn
▁phá i_đoàn
▁đích _thực
▁tổ _trưởng
▁x ôi
▁sai _trái
▁viet combank
▁c ạ
ath an
▁g ai
g y
▁TH ỰC
b es
▁á m_sát
_v inh
ern ab
▁SL NA
▁sl na
▁đ ù
m_kh uẩn
L C
▁d ứt
▁th ung_lũng
▁Đề _nghị
▁cơ _bắp
_T ết
▁Tiể u_học
▁Thiế t_kế
▁l ung_linh
▁O DA
▁tuổi _tác
S ơn_
ch ờ
m_đ ạm
r us
▁Yo ung
▁tầ m_
amas cus
▁T à
_n ần
▁nhà_x ưởng
n_ phẩm
▁BID V
▁ă n_ý
_th a
ng_l ọc
▁rầm_r ộ
▁vn pt
m_l ực
ng_l ễ
▁AP EC
▁B ắt
▁kế _thừa
▁nh i_đồng
▁dừ ng_chân
▁l ách
▁T ur
_đ ắng
▁b i_kịch
▁st e
▁h tc
_s iêu
j an
▁bả ng_
▁mặn_m à
_x ăng
ho p
re e
ap oli
▁Hậu_ Giang
ri an
▁C NN
▁sở _trường
y p
▁H TC
▁tầ n_số
_ Gi
▁dượ c_liệu
▁cờ _bạc
▁sá ng_giá
enn is
▁lên_ sóng
▁cao _độ
▁cách _chức
▁Quỳ nh_
▁tỉnh_ lộ
n_đ ầy
d inh
nh_v ỡ
▁võ _sĩ
▁Tr iều
▁kích_c ầu
▁f c
▁M ười
▁coi _thường
iề n_
▁bao _phủ
▁bất _tỉnh
▁phụ _trợ
▁Bộ _phận
M ạch
ernab eu
▁n ude
▁lập _pháp
▁F C
▁b ốc_
▁F lor
▁trọng _thương
ol as
▁h am_muốn
▁ch à
▁Viet combank
▁chạy _trốn
▁yêu_qu ý
▁viết _tắt
▁12 3
▁O s
▁s a_mạc
▁p ort
▁trà n_đầy
▁V ườn
▁P o
▁Thư _ký
_Q U
ha w
▁r ed
▁R õ
▁tưở ng_nhớ
▁ch ích
▁vks nd
▁cá_m ập
▁Pháp _luật
▁văn_ kiện
under land
▁thể_h ình
▁VKS ND
▁dứ t_khoát
▁mặ c_
▁x ung
▁VN PT
▁nợ _nần
iên_ phủ
▁tà ng_hình
▁lề _đường
▁600 .000
ậ n_d
▁j un
ấu_h iểu
▁hạ n_mức
▁nhân_ cách
▁nhiễ m_khuẩn
▁tiề m_lực
▁hình_ dung
▁gi ò
▁v ắc
ng_b ừng
▁điện_b iên_phủ
n_h ô
▁vô _lý
x cơ
▁lu ân
art h
▁Sup er
_ph óng
_m ượn
▁Ph ò
▁n ơ
rem lin
▁h ờ
▁điệp _viên
À N
▁công_ ích
▁h ú
▁tiề n_nhiệm
▁tho ảng
ng_ quân
ank a
▁P et
▁khép _kín
z on
▁tiế n_công
▁lịch _sự
i F
▁B ắ
▁T ạo
nh_l iệt
▁Gi ống
▁d u_h
e en
▁th ốt
▁n u
n_c ó
ận_d ữ
_t ôn
▁b or
▁Hợp _đồng
▁bắ t_ch
_ph ái
n_đ ồng
▁vũ _công
▁tàu_ bay
▁tọa _lạc
_h iếp
ur y
▁d ội
▁vay _mượn
▁ch ốc
▁đb qh
ar us
▁thông_ lệ
▁Dầu_ khí
▁ch i_
▁A v
sơ n_nhất
▁tân_ sơn_nhất
▁g am_màu
▁ĐB QH
▁M ur
▁tỉ_m ỉ
g n
▁đa n_mạch
▁ph u
▁kh ương
▁Công_ viên
P C
▁Ng u
T M
▁c ày
▁bể _bơi
▁say _mê
▁giao _ban
▁đă k
▁T our
um a
▁lo ạn
▁Điện_Biên_ Phủ
▁tr ố
▁f a
n_d ẫn
▁j i
▁ấ n_phẩm
▁qu ách
G P
▁Am er
▁D ie
ng_v ốn
_t ứ
Sơn_ Nhất
▁do r
ek ong
▁nhượ c_điểm
▁Tân_ Sơn_Nhất
▁yên_b ình
as ter
t_h ái
▁M us
▁gi ận_dữ
r ew
I ÊN
▁đẹp _trai
ut nik
_v ui
▁m ir
▁h ơ
▁xác _thực
▁C ủ
▁phấ n_khích
▁Chuyên_ gia
xcơ va
ng_c ốt
▁in s
▁H ữ
gi ành
▁r oy
▁tâm _tư
le iku
▁nữ _giới
▁11 4
▁Đan_ Mạch
ng_ giang
▁T D
n_gi ải
▁ố p
▁O p
▁nh uyễn
▁tổ _tiên
▁cánh _trái
▁ngập _lụt
▁bánh_ch ưng
sc l
▁ng ự
▁tr âm
▁phò ng_vệ
▁gặ t_hái
▁1.8 00
z h
id es
▁hệ t
m_b ạn
▁r ô
▁m ập
▁ps g
yd ney
lo w
▁ph ôi
▁PS G
▁c ương_
▁trang _trải
▁uy _hiếp
n_đ áo
n_c ảm
d y
▁trồng _trọt
Đ ức
▁tử _thần
s ướng
▁I m
▁ngoại _thành
▁cây _cảnh
▁Danh_ mục
_d ối
▁vân _tay
▁học_ giả
ic al
▁at m
▁cầu_ nguyện
▁75 %
▁ Âu
▁Đă k
▁res ort
_V inh
▁b ền
▁hoà ng_đế
▁bình_ chánh
og ba
▁đ ọng
▁mả nh_vỡ
▁197 1
▁qu a_m
▁cầ m_c
▁C ận
▁to át
▁trọ ng_
t an
Ồ NG
▁L at
▁nh ái
m et
al an
d ọc
▁cây _xăng
▁Tr ậ
▁Thu ận_
▁sẵ n_có
▁196 7
▁sp a
đ ịch
▁tố _giác
▁nghị _lực
▁tranh_ giành
▁sức_m ua
ng_l ệ
▁đ uối
Ă M
▁b all
▁11 7
▁hậu _thuẫn
▁ch âm_
▁Dân_ số
_gi an
▁mật_ khẩu
▁3 .500
do gan
▁sung_ sướng
ng_đ ại
▁th êu
▁thực_đ ơn
▁xuyên_ suốt
▁tầm_ xa
▁fl ash
SC L
▁ta ng_lễ
▁đích _thân
t_l ưng
▁196 9
▁bàn _tán
▁gi a_ch
▁tay _lái
▁Bình_Ch ánh
▁bằ ng_cấp
▁l ike
n_đ ạn
▁củ i
▁ức_ chế
▁miền_ Tây
▁thời_ cơ
n_l uận
_ ông
▁ph ụng
▁5 50
▁s ẻ
▁k s
▁trúng _thầu
▁sân_ khách
v iệc
r ập
▁tình_ nghi
▁D a
▁m etro
▁Giới _tính
art a
▁k é
l ửa
▁nhiệt_ huyết
st ein
▁M S
▁danh_ hài
▁v ung
▁bế _mạc
m ạch
▁k y
_r àng
▁D V
▁d ai
▁CA TP
▁lí _do
▁dầu_ ăn
▁kỷ _cương
▁thủ _khoa
▁ĐB SCL
▁đb scl
▁Á p
▁chuyên_ sâu
▁nhà _chồng
▁A ra
▁bướ c_ngoặt
▁R oy
▁thù _lao
ử u
▁B ốn
▁m âm
P A
od y
▁qu ây
▁n ứ
▁đồng_đ ều
▁tr àm
c ực
▁th ắm
n_v ui
gi áp
t en
▁l and
_s ốc
▁tiếp _giáp
▁th ấu_hiểu
▁m ạc
▁s ấy
▁khó _tính
▁cao _
p ol
▁C ung
▁đó ng_băng
c ầu
▁lo u
ng_l ĩnh
gh d
▁tái_ch ế
n_m ê
ng_đ ỡ
▁tiếp _đón
,7 5
▁F l
_th ả
▁HO SE
▁1.6 00
▁ng ơ
▁vacc ine
▁I dol
▁R os
▁Giai_đ oạn
▁lo ãng
▁ng ôn
▁mob ile
_qu ỹ
▁Hữ u_
▁hoà n_l
▁nhó m_bạn
x ít
ớ c
. 30
i_d anh
v es
▁thắ t_lưng
▁co n_mắt
n_s ỹ
ce pt
▁tra fford
▁Thành_ phần
_đ en
đ ảo
▁g ân
▁hoả ng_h
▁ăn_c ắp
▁l iêm
▁ho á
▁l ì
▁Tra fford
▁Í t
▁b iếu
▁V ô
▁lập _luận
▁khu ấy
▁P at
▁P ol
▁L au
▁m ị
▁ứng_c ứu
▁ta i_biến
g r
▁gi ằ
ud i
▁Giá ng_sinh
▁đậm_đ à
▁đồ _vật
t_ch áy
▁du _thuyền
▁trà _vinh
▁mart in
▁B ằ
▁Công_ văn
▁b ì
ac ific
▁Rõ _ràng
▁B ất
▁khu ôn
▁cat p
▁cộ ng_sự
b ào
b ắc
▁R AM
▁đ ọ
▁Chính _trị
iêu_ khắc
▁viê n_đạn
m_ph òng
n_nh iễm
▁tiề n_phạt
▁pháp _y
_s ống
t_ phá
m_ ngh
▁tầ m_v
ell er
▁ ia
▁f estival
▁b ối_
▁nội_ bài
_b à
▁12 0.000
▁giá m_h
I Ề
▁d ặn
▁hảo _tâm
▁1.4 00
_n ập
▁J un
▁L in
nh_đ iểm
▁xấu_ số
▁quần _thể
▁thời_ khắc
▁bạn_đ ời
▁đố t_cháy
▁AT M
▁tự _tay
_ng õ
▁cả n_phá
▁C ương
▁báo _hiệu
▁thâm_ nhập
▁car bon
▁nh ất_
▁phương_ diện
▁mu r
▁đồ ng_phục
g ũ
n_c ố
▁cá m_ơn
▁Mart in
▁K iến_
▁QUY _ĐỊNH
ch ồng
n gũ
▁hor m
▁11 8
▁thiên_h ạ
ro g
▁huyệ n_ủy
▁đầ u_lòng
▁đ iên_
n_ng uyện
if one
ap p
▁ →
m und
▁Sản_ xuất
▁Ch inh
▁l ev
ận_h ội
▁196 5
H iệp
_TR ƯỞNG
k ê
▁yêu_đ ương
n_d ương
ard ian
▁N ov
▁xuất _thân
i_s áng
▁BĐ BP
▁bđ bp
▁m ộng
▁đồ ng_cảm
▁tuyên_ quang
▁n ote
▁tấp _nập
▁chất_x ơ
▁h 15
▁trưở ng_khoa
▁tr àng
ch a
▁dưỡ ng_chất
▁tiền _thuế
▁lo ve
_CH ỨC
▁Nội_ Bài
▁2 ,0
O N
id ane
▁vô _hiệu
▁anh_ đào
▁sà ng_lọc
▁tiề n_đề
▁tậ n_mắt
_c àng
▁T y
▁m ãn
▁w al
À I
B S
▁t úc
d es
▁nh ồi
▁giao _tranh
▁chuyên_ mục
▁nhà_x e
m_ph ong
▁sai_l ệch
▁T NG
ng_đ ài
▁l ực_
▁mu s
▁bối_ rối
▁bức_ xạ
▁r ãnh
H S
▁ý _đồ
▁n ik
▁trấn_ áp
▁N ic
h ưng
▁thủ _phủ
al ines
ash ion
▁pháp _chế
▁trậ n_chiến
▁ông_ già
▁xa_x ỉ
▁xáo _trộn
▁vũ _đạo
▁cấp _phát
t_m ặt
▁cửa _ngõ
eg raph
▁ra u_m
▁col ombia
c es
▁g ạ
b ek
▁hồ ng_ng
▁triế t_lý
▁f ir
▁5 .1
▁khô n_ng
▁cú _sốc
▁Cao _đẳng
▁thân _thể
_v ận_hội
▁v ấ
▁ch ử
▁Qu án
▁khai_ quật
▁chọn_l ọc
▁lễ _cưới
n_x ộn
▁S on
m_ng ư
▁chủ _nợ
▁trông_ chờ
▁thượ ng_hải
▁14 %
▁x k
▁trị _liệu
_nh ạt
▁b ội
_ch i
▁tuyệt_v ọng
▁Bình_ Minh
▁Col ombia
▁phát_ minh
▁vô _tuyến
▁L ai
▁tử _tế
▁C át
▁quấy _r
i_v ã
▁12 7
▁trung_ hạn
▁thẻ _nhớ
▁sh in
h àm
▁mã nh_liệt
qu ốc_
▁b ực_
▁vn m
▁T ối_cao
▁6 50
▁Thượng_ Hải
▁s iê
ion el
▁Nghệ _thuật
▁m éo
g đ
▁biể n_báo
▁THỦ _T
▁hoa _s
z z
▁12 1
▁W ar
▁tấm_v é
▁h un
▁Bộ _đội
▁Al b
▁ch an
▁Sư _phạm
▁tiê m_phòng
▁b itcoin
▁nghiêm_ minh
▁U A
▁hình _thể
ivers ity
▁Vì _sao
▁km 2
▁w all
u x
▁Cuộc _thi
▁kí n_đáo
▁X K
▁Đị a_chỉ
▁cã i_vã
Th ọ
▁ úp
▁hiệ n_giờ
▁THỰC _H
▁lư u_diễn
▁tuyên_ giáo
▁K ẻ
▁c ào
_g ục
▁j ul
▁in tel
▁h án
▁lộ n_xộn
_th ạo
n_b ã
av rov
▁j ean
▁bảo _an
▁J i
▁b ầy
_qu ét
▁C ẩm
▁v illa
n_m àng
t in
▁g đ
w ei
▁3 ,6
ng_ em
▁đất_ rừng
▁mẫu_m ã
▁Nh ằm
▁gia_ch ủ
▁VIỆ C
ho ảng
_B ằng
▁g ra
▁Sinh_ viên
▁ă n_n
▁thườ ng_kỳ
m_c ấm
O Ạ
y ến
▁bo e
▁D C
▁Kh ác
▁nhật_ ký
L inh
▁ca bin
▁g eorge
▁r ù
▁d c
▁S S
i que
▁đ iêu_khắc
_v iết
▁Tr ở
▁bu ông_
▁Nghệ _sĩ
▁s ưởi
▁thuốc_ nổ
_m ỹ
▁i os
▁kỳ _c
▁d ầm
▁tha i_
▁G eorge
▁3 .4
▁b ong
gu ero
w alk
_k éo
o ol
▁m ứt
▁w il
▁lâu_ đài
▁caf e
▁Trà _Vinh
▁Đ ồn
▁h ận
▁ ái
oe ing
▁ph iêu_l
▁th ấ
▁s ing
it ney
Tr ì
n_h iếm
at or
▁nghi _thức
▁Ho t
▁dò ng_vốn
▁M ax
H ùng
▁bà _xã
▁ăn_ch ơi
▁13 2
▁s ur
▁hạ _gục
t_ xác
Ậ N
▁Ngh i_
▁cầ u_h
▁Quản _trị
▁s ó
▁khoản_ chi
kh áng
▁Sh in
▁Gi ảm
▁vă n_b
m s
_thơ m
▁chiếm_đ óng
▁sho p
▁đườ ng_băng
▁tắc_ ngh
N V
▁nhà_b ăng
▁xu ồng
▁í t_
▁Tiề n_đạo
▁thù _địch
▁q atar
▁J ul
▁phổ _cập
ro w
▁M ê
▁dương _tính
▁r oma
▁gấp _rút
▁th âu
▁ít_ ỏi
▁In tel
▁C ú
_th ảm
▁ch at
▁S Ố
▁vă n_h
▁ass ad
▁R oma
▁196 4
▁kiế m_s
k èm
▁Q atar
▁t ảng
▁F B
kh ê
▁t x
▁Ass ad
ir d
▁tâm_ bão
is hi
▁3 ,4
▁niê m_phong
▁tr ans
A I
▁thú _nhận
n_b í
▁ma h
▁tư ng_bừng
gi ục
▁W al
c_m ôn
▁ph ẳng
▁Độ ng_vật
▁đ ắc
▁Ng ã
_N H
▁b os
▁THỰC_H IỆN
▁G Đ
▁x ịt
▁kha n_hiếm
ber ry
▁ ầm_
ụ a
_L inh
▁bứ t_phá
▁mặt _trăng
▁huyệ n_đảo
▁hồ i_sinh
▁k en
▁tham_ ô
i_ch ùa
▁y en
▁cột_ sống
▁bài _thuốc
▁tích _tụ
▁Tuyên_ Quang
u_n ành
▁pho ng_b
▁giườ ng_bệnh
▁tiếp _nối
▁bộ _mặt
▁trung _tướng
▁tr ailer
▁cà_r ốt
in et
▁nội_ chiến
▁toà n_cảnh
▁tắc_ngh ẽn
ap py
▁g ào
o ck
▁cầ n_c
▁tu ý
▁st yle
▁đ ươ
il y
n_l ao
▁tab let
▁9 .000
a_kh ôi
▁Đô _thị
▁á _quân
▁w e
n_ch ốt
▁đườ ng_dẫn
_s o
ep al
▁M ed
▁chiều_ rộng
▁Thiế t_bị
▁N ĂM
▁cầu_h ôn
▁lớ n_lao
_ úng
. 50
▁không_ phận
▁T CT
ai s
_t ường
▁xuất_ cảnh
▁s and
gh am
▁B iên
▁tập _quán
▁Ng ũ
▁C as
▁đa_ phương
▁B us
▁Điều _tra
▁Cử a_
▁nghi_ án
▁vô _hình
▁ph oto
▁định_ dạng
▁hy d
▁v ụn
▁c ạo
▁ng ao
_N g
▁N ote
▁sổ _sách
▁an _tâm
g gs
ak ia
▁hack er
▁liệt_ kê
is on
▁M oh
ton io
▁the n_chốt
ƯỚ C
_CH ÍNH
▁thị _thực
▁thành _thị
▁xi i
▁2 .9
ng_ ý
▁điề n_kinh
▁s ky
_M ỹ
w ich
i_d iễn
▁v òi
▁rộ n_r
▁196 2
x ếp
▁di s
▁má t_mẻ
▁H al
▁TH ÀNH
▁l on
▁phi m_ảnh
ern and
▁tươi _t
▁m et
▁dân _trí
_x ác
▁l ắng
n_k ẽ
▁tiểu_đ oàn
▁định_ nghĩa
m ài
c_b ạch
u_c ùng
▁s edan
▁Do anh
▁cư _xử
▁lập _nghiệp
▁Hoàng_ gia
▁v ẫy
▁L ạc
▁sát_ hạch
▁nh ổ
p le
l as
am ford
▁x ốp
▁K e
▁N ội
▁t ảo
▁C ửa
▁tiề n_công
▁a k
▁ph ật_giáo
ọ c_sinh
▁ng ậ
ir ates
▁đồng_h ương
▁Đ ẩy
▁Đ ưa
▁giải _tán
▁i OS
▁a pp
.201 4
i_ng ười
▁T ạp
n_v ỡ
▁Đạo _diễn
▁ngày _Tết
▁đ ũa
▁t ct
▁Ho ài_
em an
▁lộ t_xác
V ăn
▁kiếm_s ống
▁Cách _mạng
▁P ort
▁Thố ng_
▁b èn
▁Nhiệ m_vụ
▁mà u_n
▁th úc
▁trục_ xuất
đt b
ĐT B
ros s
▁viêm_ gan
▁sa n_hô
▁Tình_ hình
▁Ngô i_sao
_k íp
osh enko
ic t
a_ giải
us se
▁R es
▁Ph ổ
▁dịch _chuyển
▁Nâng_c ao
▁hô n_mê
▁tà u_hỏa
▁th i_c
▁Kh uyế
▁ch ệch
ng_h ầm
▁n ung
▁kiể m_chứng
▁trúng _thưởng
▁Tư _vấn
m_ng ùi
▁kẽ m
ừa_ b
ry st
▁0, 3
▁Đị nh_
▁tư _thục
▁tn gt
▁quy _đổi
▁h q
ester ol
▁Tình_ yêu
▁b ụ
▁W il
m_ch ỉ
▁Qu ách
▁Tr ái_
r or
▁TNG T
▁Tr ực
▁j an
▁quy ết_đ
▁định_h ình
▁17 5
▁khang _trang
▁V ài
nh ap
▁ho ạt
▁Kh í
▁c ược
▁con_b é
▁Cao _Bằng
▁c ãi
▁l ay
▁Xác _định
▁12 6
▁miệt_ mài
▁B or
_x uyên
,9 9
▁H Q
▁chậ m_ch
▁ma z
▁kiên_c ường
▁mẹ o
▁cu ồng
n_m ộ
▁m í
▁truy _cứu
▁ ama
▁T Ư
▁ $
vi ew
▁chủ _tọa
_g à
▁M ir
_c uộc
▁Tr âm
▁qu át
O NG
z one
▁bách _khoa
▁Thống_ Nhất
▁v ặt
C D
▁hoa_m àu
▁tự _trị
▁L uân
▁quốc_ khánh
▁lẩn _trốn
▁thổ _lộ
▁hình_ dạng
▁độc _tố
n_ch ân
▁Họ c_sinh
▁M ó
▁4 .3
▁tương _thích
▁công_ du
▁tân_ phú
▁t ạng
▁g áy
▁Ch ân
ct ion
nh ất
▁đậ u_nành
▁D is
▁ ếch
n_g ói
▁giấ c
▁phân_h ủy
_tu ần
▁thá nh_
▁nò ng_cốt
n 1
▁Kh ương
N 1
▁Th an
▁B enz
▁l a_h
▁v ôi
▁m ò
▁Diện _tích
▁boe ing
▁sh ar
▁Giao _dịch
au d
n_k ính
ẹ n_ng
ẹn_ng ào
m ã
▁M ang
at s
▁trả _đ
ay _ho
ay_ho ay
▁196 6
R O
▁m otor
▁như _ý
▁x ước
▁S T
_tr ù
▁Tiề n_vệ
▁v ictoria
▁tài_ khóa
▁tầ ng_hầm
▁sinh_ lý
▁trụ c_lợi
▁Thờ i_hạn
▁In f
▁nam_ sinh
▁nhập _siêu
▁nhất_ quán
▁D ược
_H ÀNH
Ế N
▁b ạt
,2 5
▁B oeing
ter te
▁A nh_h
u_ kiện
▁ngậ m_ngùi
▁đính_ kèm
k ara
▁Ph iên
▁ả _rập
▁kh ung_
▁tra _tấn
▁d ời
▁d en
▁Tân_ Phú
▁cứ u_ch
n_c ơ
▁lời_ch úc
ved ev
▁điệ n_máy
c ường
▁e verton
n_g ọn
ab eth
t_ d
▁ra u_xanh
g ar
▁lư u_vực
▁ng ạt
▁B os
▁d ứa
th er
▁tinh_ kh
_t ăm
▁E verton
▁gánh_ chịu
a_b uồn
▁ngoại_ lệ
▁tr ơ
▁ngô i_chùa
▁hy e
ag es
▁K inh
▁dân_ chúng
▁d ầ
▁v ic
▁12 4
TT P
▁a sh
_th áo
▁chế _xuất
▁Hu ân_chương
▁Khách _hàng
▁ est
Y ến
▁quốc_ doanh
▁tuổ i_
n ia
▁12 2
u_b ầu
▁tuổ i_đời
▁r oi
▁C D
▁Kh ó
▁tuyệ t_ch
▁lấp _lánh
▁m ậu
▁khiế u_kiện
▁kỉ _niệm
▁S ách
▁kh ẽ
▁trậ n_m
▁điểm_m ạnh
▁nh ả
▁vấ n_nạn
▁ngắ n_gọn
▁ngọ n_núi
▁ho ành_
▁V ol
▁g ăng
ud io
▁9 %
▁J an
▁Em ail
▁kiều_ bào
▁S a_
▁T X
▁cứu_ch ữa
▁R ed
▁ch âm
▁t en
▁cuộc _tình
▁x ứng
▁W all
▁hợp _chất
▁chi a_buồn
am m
▁phiế u_bầu
▁28 0
▁u ốn
_kh áng
▁sai gon
n_x in
_ph i
▁L á
▁nội _tạng
_đ ấu
n_ph iền
▁B uô
esl iga
▁Đ ọc
u c
i_n ước
▁su ô
▁ngh ẹn_ngào
▁thiếu _tá
▁D on
▁0, 4
▁V ictoria
▁r ơm
y es
▁phân_kh ối
d ầu
ng_ch éo
▁w ith
lu ck
▁L ữ
▁br eak
▁hành_ quân
▁tươ i_sáng
▁ ung_
▁l anh
▁l ốc
▁phiêu_l ưu
▁trả_đ ũa
▁ti n_vui
▁m ồm
▁c d
Th ắng
▁trữ _lượng
▁hỏa _lực
▁ct ck
▁dụ _dỗ
▁nh ũ
ind ex
▁CTC K
▁mỹ _nghệ
a_c ắt
n v
▁tá i_diễn
m_ch án
▁hạn_h án
▁m ix
▁chiế n_công
▁L ưu_
qu ê
▁o k
und esliga
▁co sta
▁h ất
▁ngh iền
▁chi a_cắt
v in
▁Tạp _chí
▁bình _tân
▁áo _ph
▁x ông_
n_ph a
▁xuất_ viện
▁th ày
b ầu
▁tt o
▁nhà m_chán
0 1
▁Cos ta
▁chol esterol
▁ho a_c
▁TT O
gh ini
u_đ ơn
▁thu_ xếp
t_ hoảng
▁Anh_h ùng
b ar
▁x iếc
▁thị _trưởng
▁Thanh_ Bình
▁suô n_sẻ
_N ông
▁tự _giác
▁S uốt
▁Th iện_
▁11 %
i_nh ọn
▁h úc
▁trích _dẫn
er us
u_đ ồ
▁M ail
_l ộn
▁196 3
▁b ón
Ph áp
▁đạo _luật
▁cat walk
g ác
▁n à
t_ học
ri ch
▁tọa _độ
l ạc
ill s
▁l é
▁r ổ
w ell
▁lâm_s ản
V C
▁Bình_ Tân
▁gi ông
▁fran k
▁vở _kịch
kh ó
▁hết_l òng
al is
▁g ập
ap d
▁V illa
▁har ry
▁l ều
kh ối
▁Trậ n_đấu
▁linh_ hồn
▁nhân _tài
▁der by
▁g ov
▁vô _tội
▁Gi ải_
▁mũ i_nhọn
z ech
▁tp o
_x ô
▁du_h ọc_sinh
▁C R
▁f rom
t_đ ến
i_l ội
▁b ẹp
▁hóa _trang
▁đầ u_hàng
c_b ạ
S A
▁L iêm
bor ghini
▁N ay
▁Har ry
▁Mod el
_th ành_
▁Ph ụng
▁n òng
▁TP O
▁Ph ẫu_thuật
i_l oạn
▁khu ê
gi e
▁tình_ bạn
▁hấp _thu
▁tiề n_s
▁Chiến _thắng
▁nghèo_kh ó
▁h ầ
▁b it
▁Fran k
▁B C
▁bó ng_r
▁đỉ nh_điểm
▁A sh
uv e
▁dẫ n_chứng
ob s
▁z h
ryst al
▁nil on
▁b iệt
.201 6
▁án _tù
_b ảo
▁Ch úc
gue z
▁điều_ch uyển
▁1.000 .000
▁f ull
▁mu ỗng
▁sa _sút
ard en
▁trông _thấy
▁khẩu _trang
▁tu a
▁thủ _vai
c d
_đ ọng
m ạc
▁M r
▁thở _dài
▁bướ m
▁l ink
▁n đt
Ị A
ng_d anh
id i
▁N ĐT
an th
▁ông_ chồng
▁Phú c_
▁lo ay_hoay
ng_h ai
▁inter national
▁Tr ụ
▁A z
▁quan _tài
▁xuân _trường
▁B ế
▁Ser ie
ia go
▁ta n_vỡ
u ộn
áng_v áng
▁nổ i_loạn
▁cảm _thông
▁dò ng_người
▁800 .000
▁hệ _quả
▁27 0
apd ragon
a_r ẽ
ng_c o
▁tòa _soạn
▁L ED
_gi ò
▁nh óc
▁to an
▁việ t_k
▁tổ ng_đài
▁4 .4
▁r êu
▁v ọng
▁tá i_phát
▁ông_ Hoàng
▁qu ất
▁Chất_ lượng
ro om
▁việt_k iều
▁Tr ời
▁ch ao
▁mu ô
▁khôn_ng oan
▁gia _dụng
▁bộ c_bạch
n_ng ắn
▁tuy ền
▁mời _thầu
_đ à
▁đạ t_đến
▁ngườ i_hùng
▁hố t_hoảng
▁ am_
▁n adal
▁Tây _H
▁di ego
▁bỏ _cuộc
ẳ m
▁Đ ộng
▁Ho ặc
ry s
▁Xuân_ Trường
▁Đ ứng
▁Tiền_ Phong
▁L uk
▁ngây _thơ
▁Phó _tổng
l ỗi
▁chi a_rẽ
▁N adal
▁qu í
_m ờ
▁phiên_ xử
u_l ầm
▁Die go
▁xe _điện
▁st t
_t óm
j u
_t o
_ ơ
SC O
▁bình_ an
▁cổ _đại
▁l ẩu
▁N a_
▁b ăm
▁bổ _ích
▁s x
v c
▁trướ c_bạ
▁trấn_ an
es c
▁thực_ dân
▁tt ck
▁L and
▁S ky
▁m âm_
▁nội_ lực
I nd
▁s acombank
▁G H
m í
▁M ẫ
▁TT CK
▁thuế _quan
▁gián_đ iệp
ons o
▁Sai gon
_ph án
▁đ ắm
uts al
▁13 %
▁D ĩ
▁P ost
▁đường_đ ua
ia c
▁Y êu
n_c an
h iệp
a_ cứu
▁n â
▁hiể u_lầm
▁chuẩ n_
▁trọng _trách
▁ổ _cứng
g p
i_b ới
▁xếp _loại
▁chú ng_em
_đ ựng
▁Th ánh
_t ím
▁u kraina
▁cal o
▁Công_ việc
u_h ồi
▁Thành_ viên
_ ấm
▁S acombank
▁Đ an
▁u ố
▁11 9
▁trung_ chuyển
ik o
▁U kraina
▁kh ấu
eto oth
▁chử i_bới
▁f ederer
▁thâu _tóm
▁đề _kháng
▁M ục_đích
▁vật_l ộn
▁thượng_ viện
▁chứa _đựng
▁sắ c_s
▁f e
H O
▁v ượng
▁F ederer
▁85 %
▁bế n_c
▁Tiêu_ch uẩn
_qu ái
i_d ài
▁bản_ năng
▁mu ôn
▁7 20
ing luck
▁Tham_ mưu
▁từ _ngữ
k ì
▁treo _giò
▁đô i_nam
▁ng ổ
j o
▁y oga
▁th iệp
▁cứu _thương
▁đại_ lễ
t_v ị
▁kỹ _càng
▁quy _nh
ên g
▁H án
▁V iệ
▁Giá _trị
▁c au
▁s úp
▁đại_ úy
▁ ướ
▁Đội_ hình
▁Đ iền
▁Ph ần_l
_c ối
ov e
Ind ex
▁Cộ ng_đồng
▁tội_ lỗi
▁am_ hiểu
▁thờ _ơ
▁h ường
p age
▁bơ i_lội
T O
▁Phần_l ớn
▁thân_ c
▁nhập _ngũ
▁biế n_áp
▁Nam_ Bộ
▁quy_nh ơn
es e
ụ m
il o
▁h el
▁Pháp _lệnh
▁truyề n_nhiễm
▁ả m_đạm
▁35 .000
_d ược
ot elli
▁TỔ _CHỨC
▁ngày _sinh
▁quang _trung
▁N at
▁Thông _thường
▁18 %
_L Ý
▁ga al
▁mét_ vuông
▁n iên
▁ch ết_đ
▁S i
▁Ga al
x ướng
▁Quy _Nh
▁M ạc
▁buồ n_bã
▁Xử _lý
▁hồ ng_h
M ôn
▁long _thành
▁j ennifer
▁r ay
_v ấp
Á O
▁cho áng_váng
▁bu sh
▁D u_
▁ngoại _thương
▁Sh ar
v ard
▁p ap
▁Ph ật_giáo
▁Quy_Nh ơn
▁kh ôi
▁lữ _đoàn
▁trả i_dài
r it
▁r ỉ
▁T iếng
▁l ười
▁Đ ổ
▁khá ng_cự
▁Ph í
▁nghiê m_cấm
▁J ennifer
▁giằ ng_co
_v ờ
_k ích
▁p eter
▁Quang_ Trung
▁ch ile
▁liên_h oàn
c as
▁3 ,3
▁đà ng_hoàng
▁th ạnh
▁Gi ọ
ng_l ương
x b
▁quấy_r ối
▁H ạt
▁đè n_pha
ch ung
ep ort
ph im
▁15 5
▁CH DC
▁v ie
▁ch dc
▁gò _vấp
▁Đ ơn
▁b ừa_b
▁đổ _xô
▁tin _tặc
ors che
▁chăm_ch út
ua wei
▁chồ ng_chéo
_h ở
▁Ch ile
▁Tây_ Nam
▁m iếu
▁Th ơ
▁đồ n_đoán
▁i reland
ak arta
▁tinh_ giản
▁nhà _trẻ
▁V it
b ola
▁s ọc
og y
▁cay _đắng
z bek
v ùng
m_ch i
▁tt r
c ent
▁kh ôn
▁Th ân
▁vùng_v en
▁hiệp _sĩ
_ch ạy
▁nhân_ ái
▁lâm _thời
▁sắc_s ảo
▁Nhà _báo
▁P eter
e un
n_k iệt
▁ng ấm
▁hò a_h
▁N ik
▁bảo _toàn
▁Ch ữ
ec om
▁C âu
▁o c
▁khoá ng_chất
▁phú c_
▁tác _nhân
▁H i
_x e
▁H ào
_ch ay
▁26 0
▁chế _phẩm
▁sa u_cùng
▁h iểm
▁thực_đ ịa
n_đ iệu
_ anh
m_l ại
▁tháo _chạy
iv o
▁bàn _thờ
▁k iếp
▁mai _táng
▁I reland
_L ộc
ng_ch o
▁mob ifone
▁thâm_ niên
▁phụ _gia
▁H iểu
▁cổ _vật
▁ch ót
▁xung_ phong
▁L inh_
▁T G
▁cá _ng
▁đặc_ khu
▁bu l
err ard
▁ch ép
▁T ùy
▁bóng_ch uyền
▁tà n_nh
▁c úi
▁nh ượng
▁do _thám
ib er
▁duyê n_hải
id s
_V ấp
▁ngọ c_
▁Gò _Vấp
▁3 30
▁tận _tình
u j
▁Đ ỏ
b en
▁cắ t_đ
i_g ắm
▁g reen
_đ ứng
▁s ướng
▁us b
_ph ường
▁Khu ê
▁S X
x ài
x í
▁Nghĩ a_
E S
▁đườ ng_h
▁t ản
▁blu e
▁cải _tổ
g aria
▁S ar
▁chuyển _thể
▁siêu_ phẩm
▁trú _ẩn
▁k W
▁mê nh_m
▁angel es
▁ngắ n_ng
ort mund
▁cộng_tác _viên
▁tây _hồ
ex it
▁sơ _hở
▁lou is
▁tiêu_ xài
▁Th ích
▁đầu_ quân
▁X i
▁cuồ ng_nhiệt
▁xấu_ xí
▁liên_h ợp
ng_h óa
iz abeth
▁ph one
ba ch
▁Angel es
t n
mit ry
al ty
▁ch ớ
▁ba s
▁dor tm
w are
▁Hình_ sự
as il
▁su arez
▁so l
▁N ằm
_ng ồi
w er
▁Đ ền
▁dortm und
▁Ch ă
▁huy nh
.201 3
H ương
L ạc
n k
▁đ ảm
▁M ông
▁st art
n_ch ỉ
▁D ortmund
o vich
_r ẫy
_v ườn
▁kĩ _thuật
▁né _tránh
▁điện _từ
▁Su arez
▁tiế ng_hát
▁phân_ định
▁Nhân_ vật
▁kh ét
b ật
▁Inter national
▁ac id
▁cắt_đ ứt
▁tr a_cứu
▁Long_ Thành
▁N àng
▁giả _thuyết
i_m ã
▁1.1 00
g ang
▁s ánh
ng_ph im
▁Lou is
▁mẫ u_đơn
_k ê
_m ẫu
▁hạ _viện
_t ạc
▁c ad
▁thân_c ận
▁ns nd
▁NS ND
▁H ết
▁bản_ nhạc
▁al e
▁ âu_
_tr ầm
▁n or
▁L im
▁P u
ấn g
_t ụy
_cao _su
▁S TT
▁yên _tĩnh
m_s oát
▁thườ ng_lệ
▁Kiể m_soát
▁liều_ lĩnh
▁st r
n_l ộn
_tu ông
▁giả _vờ
m un
_d uyên
▁ý _nghĩ
a_m ẹ
▁Ph áo
t is
▁v is
▁triều_đ ại
▁việ n_phí
n_m ác
_T iên
_x ét
ử i_gắm
▁22 5
▁r ượt
▁Ph ủ
▁Pl ay
_l ôi
▁an _táng
▁Kiểm _toán
▁Đ iệp
zbek istan
▁đ ôn
m_k ê
au t
iê u_d
i_ch út
▁phân _tán
▁kh iển
▁phê _phán
▁Quân_ khu
▁la_h ét
▁qua_m ặt
▁t ung_
▁L ão
▁gia_c ố
▁Viet Nam
▁nh iễu
▁thú c_
▁h er
▁ngập _úng
▁ng ửa
_Ch i
▁Nhân_ viên
ng_ph ẳng
Ấ P
_t i
▁tiêu_h ao
▁truyện _tranh
▁Z h
▁k ình_
h ương
m_ph áp
_m ùa
▁g ửi_gắm
▁i r
▁lự u_đạn
i_ L
_th o
am b
▁Kim_ Ng
▁Tây_H ồ
▁hoà ng_hậu
▁vượt_b ậc
▁chỗ _đứng
▁định_m ệnh
e nh
▁w ill
▁đô i_chút
A P
_thành_ niên
▁ông _thầy
_t àn
▁tiể u_
▁tay lor
▁US B
▁S el
d an
▁ngắn_ng ủi
▁nh ai
_th ì
n_l òng
▁Th i_đ
▁m ot
▁TT r
▁truyệ n_ngắn
▁tàn _tật
▁đ inh_
▁bật_ mí
▁g ộp
▁B ush
▁th óc
▁13 6
▁Sự _kiện
▁x át
n_ng ang
un ei
▁cấp _thiết
▁m iura
▁x ài
▁dân_ ý
▁Triể n_khai
▁t ý
one x
▁cầu_c ứu
▁M iura
▁chân _thực
▁val encia
▁th ề
▁G IA
▁ng ậm
▁phòng _tắm
▁tất_ bật
▁th ê
iv a
▁G M
▁chật_ vật
▁bo ng_bóng
▁F estival
▁Val encia
▁ph i_l
▁48 0
▁vị _thành_niên
▁chdc nd
▁CHDC ND
▁Thanh_ L
▁phó ng_sự
n_ch í
▁hoa_s en
▁máy _in
▁o x
▁ng ừa
▁chiế n_h
▁gương_m ẫu
▁chậm_ch ạp
ib a
▁quan _trong
▁HN M
_kho ắn
▁m ách
ill er
▁kho anh
m_đ au
lad esh
▁phá i_đẹp
▁ác _liệt
▁chữ _thập
▁c ằm
ab i
_ âu
▁ư ng_ý
▁M ùi
▁xe _c
▁hoa_ văn
▁je ans
▁ghế _ngồi
▁bán _tải
▁sinh _trưởng
ess ica
▁G ra
▁l áng
▁13 8
▁D es
▁p iano
p op
f c
ch ỉnh
▁Tay lor
▁tẩy _chay
ev ez
i_d ạy
▁x iết
▁b ực
▁nhạc_ cụ
▁Việt_ kiều
_m át
▁trườ ng_giang
▁h at
▁S how
▁sắ c_n
▁tiề m
▁số _đo
▁th ám
▁ òa
▁sinh_ mạng
ain t
▁f in
▁văn_b ằng
ow n
t_ch ế
▁gu ardiola
▁mo ham
▁khỏe _khoắn
▁Gu ardiola
m_c úng
▁hàng_r ong
qu ất
▁thức_ uống
▁k ing
▁Bó ng_đ
▁bó ng_b
ng_m áu
▁đ ốn
▁tóm _tắt
▁thủ _thuật
a_kh ô
▁c q
▁h iên
▁ấ m_cúng
▁hy un
▁ab e
▁đẹp _đ
▁tr áng
▁S ol
▁Tr ị
▁g er
▁G ặp
▁Công_ ước
ng_ ước
▁a h
▁I l
▁tự _trọng
▁S in
i_c uốn
_l ỏng
▁3 ,7
▁tê _liệt
▁kiể m_kê
ourn al
▁36 5
▁đế _quốc
▁Kh ôi
▁P M
b our
▁nướ c_m
_thu c
▁ch ina
▁tam_ giác
▁ns nn
▁nh ấp
▁NS NN
▁f erguson
▁N X
▁v er
.201 7
1 00
▁ki m_chi
▁nội_ quy
▁Kinh_ phí
▁lô i_cuốn
▁us s
▁Ab e
▁m w
▁ph ồng
▁vỏ n_vẹn
_ng ang
u_đ ả
▁F erguson
▁c ồ
enn y
▁A c
▁cưỡ ng_h
▁Trường_ Giang
▁b ale
▁L ang
▁lừa _dối
▁14 5
▁L ục
▁đông_ á
▁d ính_
▁dự _tuyển
▁sữ a_mẹ
▁C Q
l ại
n_x ếp
▁hưu _trí
▁bao _cao_su
UY Ệ
▁biến _thể
▁3 ,8
gi t
ic on
▁n ot
_b iên
▁196 1
ern ando
▁A sia
▁ghen _tuông
▁n ếm
▁45 %
▁d em
▁r ốt
▁thiên_ văn
▁ óc
_d ù
do m
▁đ iê
▁vòng _tròn
ic ago
un is
▁gi ỗ
▁65 %
▁ông_ bầu
i_nh ộn
▁H ường
▁C omp
▁sao _chép
▁Đông_ Á
▁tươi_t ắn
▁f o
q l
▁Điều_ lệ
▁đ ái
_r uột
cu ador
▁lá_c ờ
i_ x
▁gm ail
▁Ang ela
▁th un
arl ie
▁hoảng_h ốt
▁thân_ quen
cia l
▁bóng_r ổ
▁khởi_ xướng
rai n
▁n tm
▁M ong
_k ính
cis co
▁dị _tật
▁chế _tác
▁rich ard
▁v ùi
aza kh
re at
kh ủng
n iệm
▁quá_kh ích
c_ xá
▁đoàn _tụ
▁S ec
_c úng
▁n ám
nh_h ướng
▁kw h
▁địa_ giới
▁US S
▁tự _quản
_l iễu
▁m ồng
▁vu i_nhộn
▁bộ _cánh
▁NT M
▁3 .6
▁E v
▁ang ela
▁Đất_ đai
▁B ul
▁tiếp _khách
h t
▁chủ _hàng
▁x ỉ
vi et
▁h ụt
▁Nông_ dân
▁N et
▁vh tt
m_ph ổi
▁ch ánh_án
n_h oàn
▁j ordan
▁M oy
▁B ale
▁B ổ
▁miề n_Đông
▁Đ ỊA
▁b rad
▁nuô i_dạy
▁thứ _hạng
▁điểm_s àn
▁đệ _nhất
▁đền _thờ
▁Ph ân
▁H aw
▁ngh iệ
i_h ại
▁trang _trọng
▁Giả i_pháp
eg as
_thị t
▁195 9
▁tùy _tiện
▁ẩ u_đả
p in
▁lh p
m_x ùm
▁ch ắp
▁VH TT
u_v ắng
▁LH P
uyết_m inh
v est
▁cây _cối
▁Đầu _tiên
▁Viễn _thông
_th ịnh
C O
▁f ax
▁700 .000
ông_m àu
▁thiệ n_nhân
▁13 4
▁thắ ng_cảnh
▁ □
▁w in
ại_ n
▁J ordan
▁K y
ại_n g
▁lộ _diện
oll s
▁m ỏi
▁17 %
▁im f
▁V ai
▁IM F
N K
▁đô _đốc
▁D ầu
▁L S
▁cao _nguyên
nh_h ải
amp ard
ill ar
▁H uyệ
▁vắ ng_bóng
▁than _thở
▁trận_m ưa
▁Rich ard
Ph ương
n ing
i_đ ức
▁13 1
▁r ối_
▁ }
▁chỉnh _trang
▁co ll
n_v ặt
▁th ần_
p i
d ay
g or
en _thuc
▁j ones
▁đ ao
Ă N
_th e
h ad
▁ch iêng
▁t ẩm
V inh
▁lớ n_mạnh
▁16 %
ng_ nghị
▁Ch ấn
▁tiếp _sức
▁đậ u_
m_ giữ
▁Web site
u_v ang
▁dương_ vật
▁S ống
▁mù a_khô
▁t ủy
u_l ông
▁s ha
▁ub er
▁T ống
▁tuý p
▁B rad
z i
▁S U
uss els
L ý
_x ì
▁đình_ công
▁0, 00
▁sa b
▁văn _thư
▁loài_ người
iệu_ pháp
▁B ờ
u ôn
ar io
gi ấu
▁quái_ vật
▁B AN
▁nh ích
n_v iệc
▁xe_c ộ
▁p ct
▁giữ _chân
▁cá n_sự
▁từng _trải
ano inet
▁N GH
▁ ôi
▁cổ _thụ
▁ng ại_ng
▁đương_ sự
▁thông_ suốt
▁điểm_s áng
▁kinh_ khủng
▁L ân
▁nguồ n_lợi
i_b ày
▁Nữ _hoàng
▁tiền_s ử
▁Kiể m_sát
▁J ones
▁đường_ ray
▁lo ét
▁Hoà n_vũ
▁toà n_vẹn
▁gi ở
m art
c_m ạc
▁bế n_đ
▁W e
iêm_ nhiệm
▁xi n_việc
▁cứ u_v
▁ng ắt
rid ae
▁nhập_c uộc
▁Thiện_ Nhân
▁ng uyện
▁cộ t_điện
▁viê m_phổi
ik i
▁K en
_c ốc
▁phản_ xạ
▁195 8
▁S P
▁U ber
▁trườ ng_sơn
_Q UY
aul t
▁J e
▁thất _thu
▁bạch _mai
it er
ee p
▁5 .2
▁tinh_ dầu
▁Kh ở
▁áp _suất
▁cao _so
▁Đẩy _mạnh
▁ngh i_ng
og er
n_c ước
ng_ch ủ
▁xà _phòng
▁tuyên_ dương
ro l
in son
▁mạ ng_s
g l
▁Đị a_
ng_kh ởi
▁S and
▁G hi
▁4 20
▁biế n_cố
▁thiệ n_chí
▁bu ff
▁19 30
▁D òng
▁đơ n_
▁sát_ sao
▁vô _sinh
_tú c_xá
▁đ ai
▁lù m_xùm
▁j oh
o ut
_nh ăn
▁dn nn
▁k iêm_nhiệm
▁tr ỗ
▁DN NN
x ỉu
▁do wn
▁kh ê
▁cất_ giấu
ri ght
▁màu_n âu
azakh stan
▁K ing
ghd ad
▁đơ n_n
▁phả n_lực
▁194 6
ri guez
▁v est
u_c ảm
▁kiể m_ngư
▁tr ĩ
▁Ch ùa
▁mê _m
p ur
h ai
m iền
em y
▁khô n_l
b ox
▁truyề n_đạt
b oy
▁M otor
_trung_ bộ
ub ishi
▁Hành_ động
▁M W
m_b ơm
lad e
▁thủy _tiên
▁e a
w in
m_l ời
.201 5
m_ hại
▁ngất_ xỉu
▁ép _buộc
▁bảo _thủ
▁Tu ổ
it i
▁V L
ươ u
▁cụ t
os hi
_v ang
i_ng oại
m_m ục
▁n em
▁tự _lập
▁CP I
▁phú _mỹ
ệ m
▁Bệnh_ nhân
▁chuẩn_ xác
▁quý t
▁khởi_ nghĩa
▁T iêu
▁C àng
▁W on
▁Kho _bạc
▁t ông_màu
▁Trường_ Sơn
▁Kiến _trúc
▁xo áy
▁nhật_b áo
▁D iễn
▁Bạch _Mai
▁tuầ n_hoàn
▁lã nh_hải
▁khác _thường
▁Co n_số
n_ng o
▁tr iệt
▁R af
▁cấu _tạo
▁rad io
i_l ang
▁J oh
▁G reen
ng_qu ay
▁G er
▁quyết_đ oán
Á CH
▁tình_ nghĩa
▁ ào
▁16 5
▁nếp _nhăn
Ầ U
▁dạ _hội
g eria
▁M ối
_h ọp
▁đơn_ kiện
▁cp i
▁asia d
▁kỳ_c ựu
▁9 99
▁sức_ lực
il ton
▁Qua n_hệ
▁b ổng
▁thất _thường
d ược
▁bắt_ch ước
n_c ất
▁cưỡ i
▁th ét
_ph ó
au x
▁may_m ặc
▁hòa_h ợp
▁T uân
▁k at
▁nước_s ôi
n_d ược
_tr ứng
▁nổi _trội
▁thiế u_vắng
▁con_ ở
▁Th ưa
▁bảo _kê
▁nga ng_ng
▁trườ ng_quay
▁v ớ
▁lập _lại
0 5
▁s d
▁T an
▁T áo
▁tiế n_sỹ
▁l án
ul ham
Q L
▁đ s
▁nồ ng_nhiệt
▁4 g
▁r án
▁th ính_
▁tu ần_d
▁N or
▁Ph a
▁n xb
▁w ifi
▁Tr anh
▁quyế t_
n ương
y ch
▁tạo _lập
▁Trung _tướng
l ộc
▁mái_ ấm
▁vietnam +
▁1, 9
▁đông_ anh
▁n k
▁kho ái
▁vò ng_hai
▁2 ,9
▁hy undai
▁S D
▁Cụ m
▁th ục
c ười
▁b a_
t ra
▁thiết_ giáp
▁n ách
▁M ường_
.201 1
v is
▁dà n_xếp
▁CH ÍNH
▁ngh ẹt
▁Tro ng_suốt
▁r ỗi
eb er
▁Trung _tá
▁14 4
r ent
▁hoành_ hành
▁G ửi
▁tm cp
▁TM CP
▁st reet
B T
▁sá ng_suốt
▁do ãn
▁cấu _thành
IỆ P
ig o
▁trọ ng_đại
▁hả i_ngoại
▁Thượng _tá
▁ber lin
▁chô n_cất
▁mong_m ỏi
▁Chu ẩ
▁4 .500
▁c ắp
▁d j
Ơ N
_s ướng
▁Đ áp
▁sơ _cứu
▁rượ u_vang
▁ u_
▁hyd ro
eal th
▁thi_c ử
_th iệt
al em
▁n ã
▁V ir
▁cá _biệt
▁B iểu
n_ M
▁truyền _thuyết
▁Am az
▁L en
▁Kế t_l
▁tĩnh_ mạch
▁tập _tin
▁M ưa
▁k a
▁gu itar
▁VietNam Net
▁em_ ruột
▁Ch ina
▁Kết_l uận
▁vụ _trộm
▁Hội_ chợ
ph ái
orn ing
ng_gi êng
▁thủ _th
▁gen e
▁yêu_ sách
▁Ch inh_
n_đ àm
i_r út
▁dân_ vận
▁x y
▁h ễ
▁vũ _trường
▁sắp _đặt
▁ab d
n_ anh
rog ba
▁UN E
v ũ
i esta
▁V ạ
▁r an
▁cậ n_cảnh
_x ấu
_d ỡ
▁Điều_ kiện
▁nợ _đọng
▁g ọt
_L uật
▁đố m
▁cầm_c ố
▁chứ ng_bệnh
▁cưỡng_h iếp
▁Ber lin
en se
▁Phú _Mỹ
▁tro ng_l
▁Ngô i_nhà
▁g ran
ir i
▁nô _lệ
▁mu i
af e
▁Cuộ c_
▁Đ ế
U y
▁N úi
▁Thực_ ra
▁Bóng_đ á
▁mo ng_ước
its ubishi
▁r ực
▁đắk _nông
▁Ú t
▁Đườ ng_sắt
▁logi st
v ớt
▁bừa_b ãi
▁n it
p or
▁l iễu
_nh oáng
▁eo _biển
on z
Ố I
▁L ev
▁w illiam
▁so m
▁v ực_
▁Hy un
y c
ngh ĩ
▁ố m_đau
▁un esco
▁cương_ quyết
▁H ướng
▁Đ ờ
n_d ập
▁trình_ chiếu
▁buồng _trứng
▁M iền_
▁quý _ông
ở m
▁l s
▁mo yes
▁Moy es
▁D an
m_kh ốc
▁C úc
▁khu ẩn
▁Do ãn
▁toàn _thắng
▁S ha
ou ch
n_n an
az io
▁Â n
ă m_g
ăm_g óc
▁Khả _năng
▁nhà o
_b ơm
▁thả m_khốc
e im
▁Ch uyến
▁vu ốt
ợ m
pp er
▁ba n_công
▁G l
▁cas ino
▁W illiam
▁đ iếu
▁tên_ miền
▁horm one
▁Ph iên_bản
b ệnh
ng_nh óm
▁th omas
▁nhà _vườn
ed ro
▁no el
_th ẳm
▁phá _dỡ
▁g rab
▁c ristiano
▁c ac
▁bóng _tối
▁cạ n_kiệt
k ip
▁P r
_R ập
▁S ắp
▁r át
os ti
▁D ung_
,5 0
ng_ph ái
▁tr ãi
▁C ristiano
com m
▁giải _thoát
▁f ox
▁Tuy ển
▁cột_ dọc
ị m
ận_h uyện
▁K ênh
▁sắc_n ét
▁nhã n_mác
▁Tuổ i_
v áy
et z
▁c el
▁H ắn
▁Ab d
▁mạng_s ống
▁Gh i_ch
▁Th ỏa
▁b ra
um i
▁bò _sữa
▁thá ng_giêng
▁n a_
▁lu is
ac onex
▁pen alty
▁4 ,7
u_b uồn
▁T ìm
▁dồ n_dập
▁qu ận_huyện
▁tr ũng
▁định_ lượng
▁Vietnam +
t_đ iều
▁p vn
i_ quan
▁khuyế n_nông
▁t u_
Tr ung_
▁h òng
▁Đ ắc
▁ng ượ
▁l ầu_
▁phong_b ì
p g
m_l ĩnh
G ia
▁Đ ảo
ng_c ử
E M
▁Lu is
▁l ợp
▁3 .7
ật_ liệu
n_v ật_liệu
Ớ I
▁14 2
▁chết_đ uối
▁P VN
▁đại_ chiến
▁m eth
▁á m_chỉ
▁tự _sướng
f ie
▁13 3
▁điện _toán
▁khấu _trừ
▁na_ uy
▁bao _tải
▁y ể
▁bắc_ mỹ
▁ké m_c
▁hạ _lưu
t_k ích
▁Thượng_ viện
▁p m
▁ph ot
▁r ắc
▁cú i_đầu
▁Th omas
▁gh z
▁thăng _trầm
▁b on
▁hồ i_
▁Th ạnh
pl ay
▁ký _túc_xá
▁thụ _hưởng
▁bán _trú
▁Tiế ng_
▁con cept
ph o
▁Ch uy
▁vò ng_v
▁chê nh
▁m ến
▁chủng _tộc
ur es
▁nhân _thọ
▁Ả _Rập
n_b ình
▁ngũ _cốc
▁sắc_ lệnh
_s àn
un e
▁nam _tính
▁T ướng
▁Nhà _văn
▁n an
▁c er
▁j in
ng_ch ọi
▁Hy undai
▁ích _kỷ
▁ghen _t
iz e
▁1.7 00
g ọn
▁Ph ạ
▁195 6
▁b eckham
▁0, 8
▁l iệu_pháp
▁yế u_đ
▁kho áng
▁Ph ả
▁ngổ n_ngang
_ph ải
▁trục_ vớt
▁danh_ nghĩa
▁ph ức_
▁lá_c ây
E N
▁trực_ diện
▁v i_rút
▁sơ _chế
n_l í
bo ard
▁nhanh_nh ẹn
▁t itan
▁B eckham
enk aku
▁w to
▁B ạ
▁l ược
▁điệ n_đàm
ub l
▁chố ng_chọi
▁M az
▁ ð
c_n ở
▁k c
v ille
▁Đ S
ed y
▁W TO
▁chiến_h ạm
▁giáo _trình
Ậ T
ash i
▁tê _giác
▁so lo
ri x
_l ãm
▁nứ c_nở
▁r eo
▁15 6
▁Na_ Uy
▁S ĩ
▁quý _báu
ao mi
▁12 9
▁Ch an
iv ia
▁G rab
▁Bắc_ Mỹ
▁Tuyên_ giáo
▁Đắk _Nông
▁j ustin
▁tôn _tạo
c ert
ầu_ r
c ương
▁T ưởng
▁ác _mộng
▁TR ÊN
B Đ
▁d jokovic
▁3 ,1
b đ
m_ch ắc
▁tống _tiền
ot ter
_ph ụ
▁nguyê n_vật_liệu
▁să n_b
▁4 ,3
▁D jokovic
_gi à
▁J ustin
▁mị n_màng
▁t ẻ
▁chính_ sự
i_l ầm
▁n ou
n_n ôn
▁vu i_lòng
yst em
_t ung
▁sò ng_b
▁g al
ab y
▁đăng_k í
▁tai _tiếng
▁Thủy _sản
▁phù _thủy
en o
▁Trá i_đất
u_kh u
▁arab ia
▁c òng
ear s
Ư Ợ
▁H ảo
▁mã _hóa
▁Hy _vọng
▁0, 6
_th ắm
▁Ara bia
m_s ơn
ut e
▁s b
▁th uyết_minh
▁Hà m_
▁di ox
▁UNE SCO
▁d í
▁biế n_hóa
▁trỗ i_dậy
▁gi ầy
▁cá_ng ừ
▁14 3
am o
▁Th ử
_d ịu
▁M ường
▁hội_ ngộ
▁kẻ _xấu
▁trong_l ành
_h iếu
IỀ U
▁m cc
▁giám _thị
▁ch ơ
I T
▁Hậ u_quả
▁d áng_v
ri que
▁g ội
▁địa_ vị
it ez
▁D ương_
▁đ áo
▁chinh_ phu
_nh uận
nh_ lý
▁B ưu_điện
▁Phương_ pháp
▁tình _tứ
▁thảo _dược
▁tạp _hóa
▁mênh_m ông
▁nlđ o
▁lịch _lãm
▁đặc_ dụng
▁Hạ _viện
op s
▁điều_ ước
▁NLĐ O
g d
ù ng_
▁nếp _sống
▁Nh ớ
▁kh âm_
ear l
_k ỹ
▁Th ôn
▁r ạn
▁K at
▁h 1
▁m ưu
▁đầu_ óc
▁T ì
▁d ụng
▁Ch ào
▁tuy ế
▁13 7
▁g lobal
_l àng
▁ ấu
▁máy _bơm
▁B in
▁Cả m_ơn
▁11 .000
▁D i_sản
ing er
_ch âu
le x
n_ch âu
c ini
▁NX B
▁4 .5
▁thiên_ n
Ố C
▁của _quý
▁phú _nhuận
u_n ăng
▁n av
▁au di
▁l as
▁con_r ể
or oshenko
▁con_gi áp
▁M ah
rom e
▁nh úng
ự t
▁Mc C
ch ấm
▁l ép
▁gi ăng
▁b èo
▁cụ c_
i_ph ụ
i_ vi
▁so ng_sinh
▁số _dư
▁Chế _độ
▁sông_ nước
▁kiệt_ sức
▁R ad
▁rung_ động
IỆ M
▁xa _lộ
▁m os
▁m edia
▁triều_ cường
l at
▁ma i_m
n_ph ú
▁l ó
▁chiế m_lĩnh
▁fan page
▁E a
▁t iễn
▁đại_ b
▁Sm art
iển g
ol ogy
u ồng
▁mus ic
_h ồn
▁cướp _biển
▁Pho ng_
▁cá _voi
▁k ìm
▁cú_đ ánh
▁kh ay
▁giao _lộ
▁N ou
▁buồ n_nôn
▁st eve
▁GD ĐT
▁huy _hoàng
▁M eg
▁gd đt
▁6 .1
A C
▁con _trẻ
Ă NG
▁l ầm
▁St eve
ch úa
▁r ec
_ch e
▁195 3
▁cung_đ ường
0 2
▁giao _thương
_Nh uận
▁C Ơ
▁Phú _Nhuận
n_đ ảm
▁m ẩu
▁e p
_m ưu
▁tòa _tháp
▁tr ắc
▁hung ary
▁qu ậy
▁Ch ất
▁W B
▁t ít
kh úc
▁tiếp _tay
Ề N
r ip
▁nắ m_chắc
ans ea
▁nh ét
Tr ẻ
▁tuyệt_ch ủng
▁cố p
▁C ast
ut t
_r ời
▁cung_đ iện
▁Hung ary
▁V er
▁ Ð
d d
▁Phó ng_viên
▁tự _học
▁củ _chi
▁đả m_đ
▁H el
L iên
▁ch ững
pt nt
_kh óa
▁Ghi_ch ú
am ine
_d u
▁f er
▁15 8
▁k V
▁4 ,2
▁công_ lao
▁H 1
▁Sở _hữu
ap a
▁jack son
n_b ỉ
▁hội_ họa
_Đ ỘNG
qu á
▁đối_ ứng
▁13 9
▁cảm _tình
nh_ b
▁15 2
▁u r
▁mơ _hồ
▁nước_ cốt
_b ỏng
▁độ t_kích
ph ản
▁No el
▁s um
▁hợp _kim
▁Tr ãi
b rid
▁lừ ng_danh
▁phức_ hợp
▁trung_ niên
_đ ắm
▁ng ói
▁V ừa_
▁Ch úa
▁blo ck
▁8 50
▁E xpress
▁h âm
▁cao_ ốc
▁ph ai
▁ca n_đảm
PT NT
▁w ho
▁ph ớ
▁thủ _quân
▁S E
▁L ực
b ridge
▁b ồng
ev ro
ng_d ùng
▁H ÀNH
et ta
▁th ói
▁trạ m_bơm
_ho án
ent e
▁chỉ nh_lý
Á T
▁x d
▁gia n_nan
up e
n_s a
▁M ất
▁khổ _sở
▁bề n_bỉ
▁kết_n ạp
▁V ạn
▁NG UY
▁hoạ t_chất
▁mờ _nhạt
t ar
u_đ ủ
▁d ance
ng_s ốt
▁Thủy _Tiên
▁ng ất
▁ê m_
ph áo
evro let
▁gia_l âm
▁đ iềm
▁Thị _trấn
▁g eo
▁thai_ kỳ
_t ần
▁thực_ nghiệm
n ăm_góc
l av
▁p art
▁d ăm
▁L ò
▁đơ n_cử
ol ina
▁chính _thống
▁lo ạ
▁Mô _hình
▁th ạ
▁kinh_đ ô
▁gd vn
▁C op
▁GD VN
▁Củ _Chi
▁biể u_cảm
▁Tuổi_ Trẻ
▁vo ice
▁độc_ nhất
▁phim _truyện
m_h iểm
▁bạch _đ
▁F ed
▁Jack son
Â Y
▁táo_b ón
▁Nă m_ngoái
▁dậy _thì
▁r em
▁S ab
▁Ch ọn
l ott
h ư
ri ed
▁tu ột
ok o
▁di_ dân
▁cro atia
ush ima
▁Địa _điểm
▁khoa i_lang
n_m ột
▁tường _thuật
▁tủ i
w ang
▁ ước_
▁3 .8
▁b a_v
▁kh iếm
u_n ướng
▁bà _chủ
▁19 00
▁0, 7
iF one
▁Kh ảo
▁tay _ga
▁thườ ng_dùng
▁Kho ả
▁h ụ
_t òi
▁hối _thúc
▁túc _trực
▁xoa _dịu
▁Bảo _an
er es
▁nho _nhỏ
▁k ỵ
▁tụ _điểm
▁Mob iFone
▁C C
▁phương_ nam
▁vui _tươi
▁mh 370
▁tổ ng_qu
▁danh _thủ
_t ách
ú m
▁chiế m_giữ
▁tường _trình
▁g etty
▁Cro atia
▁chân_ váy
▁b ầm
nh iệt
▁N K
▁Gia_L âm
▁X ô
▁Ngườ i_m
▁A udi
▁thái_ quá
w en
▁ngữ _văn
▁15 4
▁tìm _tòi
▁C ư
▁hạ _thấp
▁ Ố
▁195 7
▁hô _hoán
▁MH 370
▁Vừa_ qua
▁5 .5
▁khá ng_nghị
▁lý _sơn
▁nấ u_nướng
▁quả n_lí
ou gh
▁mặc_ cảm
ct u
▁đánh _thức
▁tim e
▁gia n_khổ
▁0, 2
.20 10
▁mâm_ c
▁đám _tang
n s
▁pháo _thủ
▁M ôn
▁biế t_điều
▁v ơ
▁kho ét
▁cl ass
▁ch ài
▁GH z
▁n igeria
▁ng ách
▁ho me
▁Ch ân_
▁tinh_ bột
ab le
din and
m_h ọ
_ph á
▁án _treo
_t a
ấu_ ch
▁F ox
▁ba _lô
ap an
▁ama zon
▁số _hóa
▁Lý _Sơn
▁bắc_k ạn
, 20
er al
b ố
m_c ỡ
▁thanh _trì
v ia
▁truy _quét
▁góp _sức
▁A ut
H ồ
▁hồ _bơi
ng_qu ê
Ộ C
▁viễ n_cảnh
▁D om
▁nam_ mỹ
▁r io
▁mộ c_
▁hiệ u_năng
d g
▁tầ m_cỡ
Ê U
F C
▁90 .000
ia g
▁N igeria
▁L ăng
▁kh an
v al
▁truy _sát
▁x òe
ươ ng_c
▁lạ_l ùng
▁D ong
▁đồ _s
▁thá m_hiểm
t imes
_v ò
▁T ất
▁nghị _viện
▁khá _giả
m_kh uyết
k ính
▁Tr ước_mắt
▁t i_vi
▁8 .1
▁Ch ương_
▁triệu_ phú
▁não _bộ
▁rửa _tiền
▁j ung
▁vệ t
▁sc otland
_k ỉ
and ard
▁Ch ắc
▁Ngu ồ
▁N ick
▁kinh_ng uyệt
i or
▁a 1
▁ch ọi
▁18 .000
yl l
▁gây _dựng
▁ba_v ì
ter tain
▁Sc otland
▁f utsal
c ắt
f ia
▁sơn _trà
ng_m ực
▁3 .9
▁tội_ nghiệp
t_ng ã
ent al
▁F orm
_c áp
▁kỷ _nguyên
▁L ầu_
▁khiêu_ vũ
land e
nh iễm
▁phạ m_pháp
Ầ N
or ia
▁mon t
w ork
▁P a
_l ê
▁tổ _ấm
▁kẻ _gian
▁lầu_ năm_góc
ad ona
▁bóng_đ èn
▁cầu _treo
▁lối _thoát
▁C ent
▁g ụ
▁trung_ úy
À _N
▁Thanh_ Trì
ph an
▁R ồng
n_h à
▁N i
▁Nă ng_lượng
▁chủ _mưu
▁c õi
▁giả i_mã
uk ov
▁Ng ữ
▁la n_can
▁khiển _trách
9 0.000
_V Ụ
▁Điể n_hình
kh o
▁You T
▁h ớ
n_n ứt
▁Chiế n_dịch
ang nam
_s óng
st r
▁r on
▁d aniel
▁w b
▁l ỏ
▁thúc_ giục
▁s ạp
a_ch ế
x ưa
▁h 20
c an
▁Chuẩ n_bị
b u
▁Nam_ Mỹ
▁17 1
▁Trụ _sở
▁g ờ
▁truy _thu
▁phiên_ chợ
▁bình_ x
▁đông_ y
▁cầ n_sa
▁ph i_pháp
▁liên _tưởng
ẫn g
con om
▁x ịn
▁đ ương
▁khiế m_khuyết
E F
▁S om
Đ ất
▁8 ,5
▁Tập _trung
▁hụ t_h
▁tinh_ hoa
▁tha i_phụ
▁PH Ụ
▁Ro ck
_l ăng
▁từ _trường
u do
▁Mo on
tertain ment
n_l ễ
▁t ăm
▁R io
▁M ây
▁Ngh iêm
▁tham_ luận
▁D aniel
▁U ống
▁ty pe
▁Tham_ dự
▁V ậ
▁chiết_ khấu
M B
an ol
lo ad
_b ám
▁tuầ n_hành
▁rạ n_nứt
▁nhà_b ếp
▁thương _tật
▁ag ribank
▁Đơ n_gi
▁B ạc
▁chuẩ n_hóa
st e
▁show room
▁rộn_r àng
u_l ửa
▁Kiể m_lâm
▁16 8
▁ch ù
_ngh ĩnh
▁thá ng_
ear ch
c_đ ịnh
▁Đông_ Anh
▁trưởng _thôn
u_b ổ
▁n ext
▁Bài_ hát
▁váy _cưới
▁V ĂN
▁c it
▁phủ _sóng
v ác
▁R ạch
▁QU ẢN
▁h ong
sen e
▁xa _hoa
▁4 ,8
▁cỗ _máy
▁m ận
▁ph a_chế
▁15 3
▁đeo _bám
▁nhân _thân
▁qu ái
ng_h àng
_kh en
▁tiếp _quản
▁ra f
met ridae
▁V ượng
▁4 ,6
_PH Ố
an te
ph iên
▁thân_ phận
▁l ượn
▁quốc_ nội
lov akia
▁chân_ chính
▁16 3
▁tự _kỷ
D T
▁sơn _tây
▁đĩa _đơn
_s ỹ
▁Co n_đường
ph iện
▁cl ub
▁ký _quỹ
ymp ia
▁YouT ube
▁th iền
▁đẹp_đ ẽ
▁bá n_kính
ng_ eo
▁c enter
▁hà n_lâm
▁điệ n_l
▁d au
▁mặt_ cắt
▁l ốc_
▁phân _tử
▁o h
▁co ver
đtb xh
ĐTB XH
ương_đ ông
▁Huyệ n_ủy
▁PH Ó
▁ch ói
▁mộ c_mạc
▁hó c_môn
▁TT LT
eb an
_thu ột
▁Ag ribank
▁tt lt
▁S ub
▁cho áng
▁k ali
ng_l ẻo
▁Ư ớc
▁Thị t
▁m ải_m
m_ngh èo
▁hiể m_nghèo
▁Sơn_ Trà
▁m úc
▁X V
▁tiế ng_động
▁tại_ ngoại
_c a
▁ ≤
i_ch i
imb le
▁phần_l an
, 10
▁là ng_quê
▁con _thứ
t_l ờ
ản_ nhiên
▁ông_ nội
▁Ph ần_
le ct
_th ay
▁sil va
▁hung_h ăng
▁m ượ
▁o cean
▁lỏ ng_lẻo
ƯỚ NG
▁Th ần_
g ư
▁13 .000
▁a 3
▁tử _nạn
▁ex imbank
▁tương_ phản
▁Ngh ề
▁Sơn_ Tây
▁T inh
ie u
ruz ia
▁Tr ưa
▁Mob ile
▁in stagram
▁kt đt
_ ái
▁KT ĐT
▁thuốc_ phiện
▁chăm_ch ú
▁el ect
n_ch ìm
▁bạ c_
▁F in
▁Sil va
▁or g
i_v àng
▁Ch ắc_chắn
n_l út
▁trà _xanh
▁ngộ _nghĩnh
a_ Th
▁k urd
▁hưởng _thụ
n_kh ó
▁mỹ _quan
▁nặ ng_ký
▁Amaz on
▁ki m_
▁nhấ n_chìm
xo áy
▁37 0
▁điều_ luật
nam e
▁Phần_ Lan
▁tay _trong
▁cầ u_lông
▁t đ
▁tạm_b iệt
cu ồng
▁thành _thạo
▁G iết
▁fl c
▁v at
▁vina phone
▁tr ạch
ng_v ĩ
▁bao _cấp
▁tr êu
▁Kế _toán
_l ửng
D ân
▁e c
▁bộ i_chi
▁bị _động
V ì
▁K urd
▁Thi_đ ua
_ch iều
▁S éc
▁pho ng_cảnh
▁38 0
ng_ng ời
▁Lầu_ N
▁hữu_ quan
▁Ngày _nay
▁th ản_nhiên
L ợi
▁phát_ âm
▁F ir
▁r ừ
▁ngành_ học
▁L ô
▁Tr ái
▁n as
sh ire
ứ u_
▁r èn
_ng ã
z en
_H OẠ
gi rl
▁h i_sinh
c_c ưới
▁trọng_ yếu
n_đ ộc
_h ấn
▁F LC
▁y emen
▁s ảnh
▁qu ản_
▁c ia
▁thoái_ hóa
▁khử _trùng
▁y ang
▁bị a
▁să n_đ
▁lé n_lút
elle gr
▁bệ _phóng
▁Giá m_sát
▁luân_ phiên
b b
n_c ùng
▁kỳ _tích
ng_d ương
▁4 G
▁u 20
▁nguyê n_bản
▁phiên_ dịch
▁U 20
▁lãnh _tụ
▁chống _trả
▁phim _trường
▁nội_đ ô
▁trùng _tu
▁tal iban
▁vị _vua
▁Ex imbank
▁cu ống
▁QUẢN _LÝ
▁Vạ n_
imble don
.201 2
▁qua n_l
ng_l ưu
▁ ụ
▁Tal iban
▁đau _thương
▁L a_
▁s us
▁v ã
r ie
▁tr ứ
▁H ỏa
▁L ớn
▁U E
▁Câu_ lạc_bộ
▁0 ,5%
ă k
n_n ợ
ng_ gh
▁vỡ _nợ
▁h illary
À NG
erus alem
▁Buô n_M
▁thá nh_đ
▁G etty
▁W i
▁H er
▁Phương_ án
▁H un
▁14 .000
▁H illary
▁cấ m_v
▁O cean
▁b ành
▁chung_ chung
_đ iều
▁Đo à
▁3 ,0
▁Bắ t_đầu
▁w i
_s ưa
al ke
▁b ridge
▁con_gi ống
n_ ấn
▁lo _âu
▁Y emen
▁Tr ân
_đ ao
▁T I
▁t u_bổ
th ony
▁Bàn _thắng
_d ựa
▁chuyển _tải
▁ ay
▁N ỗi
▁áo _l
▁tổng_qu át
opter a
▁lạ _mặt
▁th ưở
▁G lobal
▁logist ics
▁vin amilk
▁S ửa
O ai
um b
n_ph át
▁Đ ạ
▁M en
▁14 8
ik tor
ng_d ở
▁hó a_giải
▁g ala
_x uân
▁p as
▁C el
▁Tác _phẩm
▁che _chắn
et ti
▁john son
▁trợ _giá
▁kịch _liệt
_tr ướng
▁mẹ _vợ
▁blo omberg
▁L ớp
▁hòa _tan
k k
▁ph ượt
ai ne
▁rich ter
▁A 3
un o
▁Ba_ Vì
Ó A
▁Cuộ c_đ
▁đươ ng_đầu
▁tr ó
▁t ò
▁đ u_đủ
_QU AN
m_ch ỉnh
L A
t_r ét
n_ch ứa
m_v ững
▁phát_ xít
▁tờ _rơi
▁le on
▁Th ục
▁da ng_dở
▁khó _lòng
▁ng ò
_t oan
▁sai nt
▁u 21
L ập
▁phiề n_hà
▁U 21
col ate
▁phớ t_lờ
▁r ê
▁A 1
▁chân_ l
▁Th áp
▁16 2
_B ÀN
gin ia
ng_ nghiệp
▁toàn_ quyền
▁ql 1
l ặng
▁Đ ối_
▁14 6
iêu_d âm
▁thụ _động
▁kế _nhiệm
▁QL 1
ernand ez
0 3
20 10
▁B R
▁so át
▁kim_ng ân
▁195 5
▁d ấn
▁c õng
▁Vin amilk
▁áp _thuế
E T
▁cấ m_đ
▁t iệp
▁n ạc
▁L eon
▁đã i
n_ch ải
▁ eth
▁p ower
▁thiệ n_nguyện
▁ĐỊA _BÀN
▁T ương_
▁kiế m_lời
▁John son
▁duy _tu
▁ân_ hận
▁kh iêu_dâm
▁ eng
▁bốc_ lửa
▁ho an
▁bă ng_gh
▁băng_gh ế
_n uôi
▁cá m
_k è
▁học_ vấn
▁mãn _tính
▁tuyể n_cử
▁M ậ
▁Ấ n
▁mặ c_định
▁au d
▁m ầu
▁22 %
▁r anh
▁không_ lưu
_HOẠ CH
▁hiế u_kỳ
▁g ồng
▁đã i_ngộ
▁21 2
▁triều_đ ình
T ường
▁T U
▁Tuổi _trẻ
▁s a_
▁thu_ chi
▁đính_ hôn
▁đă ng_
ind s
▁say _sưa
▁đăng_ nhập
▁nối _tiếp
▁Thu ốc
b at
▁thiệ n_cảm
c al
▁ch ướ
uk ushima
_d ung
▁tùy _thân
▁G eo
▁o C
m_ G
▁cấm_v ận
▁ch ầ
_t ương
▁g ym
n_ngo ãn
▁Kỳ _
▁Chinh_ phu
▁ch ắ
▁tho ái
id el
▁K a
_r âu
▁theo _sau
▁Blo omberg
▁phế _quản
▁M os
▁THÀNH _PHỐ
ng_c òn
▁ru n_r
▁thực _thụ
_ng ười
iên_ c
ấu_ch ốt
▁Y ang
ul t
▁Đ ệ
▁5 .0
u_d a
_c ái
▁bà n_c
▁T Đ
▁th à
_NGH IỆP
▁H ỏi
▁phật _tử
▁X ê
▁số ng_còn
▁b c
▁ngoa n_ngoãn
▁d iệt_
au s
▁Bắc_K ạn
lo pp
ellegr ini
▁mày _râu
▁ а
▁b nn
▁D ẫu
▁st yl
▁nguyê n_đơn
▁s ưa
▁op en
▁B NN
t_ ruột
▁diễ u
▁qua n_h
▁A I
▁thuyết _trình
al in
▁xe_l ăn
_g ớm
▁dạy _dỗ
▁Tổ ng_cộng
▁nghiê m_chỉnh
▁kết_c ục
▁Ch ống
▁pha _trộn
▁sơ _tuyển
▁pol y
▁C âu_hỏi
▁45 .000
▁gi ấm
▁trưở ng_nhóm
▁lì _xì
▁vây _bắt
▁con t
▁đa u_buồn
_v ĩ
▁V A
▁tú m
▁h ủ
▁biể u_mẫu
▁m òn
▁túi _tiền
▁T ae
▁Phạ m_vi
▁đắc_ lực
m_h ẹn
▁C IA
▁P ersie
_ng ục
ab ri
▁u ran
▁p ersie
no ck
▁ghê _gớm
i y
▁f al
n_h o
bur n
▁co _giật
w agen
_ Xuyên
_ng ược
▁tiệ c_cưới
▁bao_b ọc
▁te am
n_c ười
▁18 5
▁Ứ ng_dụng
▁co n_bạc
▁thánh_ chiến
▁chỗ _dựa
▁Mộ c_
▁thái _tử
▁đồng _tâm
▁B ướ
_ph ục
▁tệ _hại
▁16 .000
▁T í
▁tiền_l ệ
▁h igh
▁w at
▁đồ_s ộ
▁i n_ấn
▁S aint
▁L ục_
▁Thú _y
on o
▁16 7
_ X
▁J ung
as ia
▁O k
.1 9
▁bình_ dị
ng_n ằm
▁nh ơn
▁n ai
▁z o
_th í
ch o
▁Tr ans
_ng ụ
▁L um
▁an celotti
▁An celotti
h oàn
▁Ph ước_
▁nh ục
co p
▁is o
▁T âm_
▁14 9
▁B ỏ
▁thượng _tướng
▁đánh_đ ổi
▁chiế n_sự
▁độ _dài
▁S B
▁Ngh iệp
▁trung_ hoa
T ử
▁ êm
▁khủ ng_long
▁Th ạnh_
_b ền
▁j on
▁g all
▁bà n_luận
▁b ch
▁chạy _bộ
▁V ẻ
▁cu ốc
▁quân_ số
Ọ C
ea ch
▁tỏ _tình
▁w ales
▁tiể u_khu
▁u ruguay
▁n í
▁B iên_bản
▁s ớ
▁thô _sơ
▁xe_b ồn
▁tr ă
_ Quang
▁n êm
_h ộp
▁phi _thường
▁mà u_da
▁châu _thành
▁B CH
▁new castle
u_h ứng
▁i x
▁khắp _cả
▁S ung
▁ký _sinh
▁phi _tang
s an
▁14 7
▁W ales
▁F er
▁Trái_ Đất
▁hò m
▁Nh ơn_
_quy ển
▁hóa _dầu
▁Tr i
▁f il
▁s ter
i_b ại
▁ #
▁giả _định
▁t eo
▁lư u_l
▁khơ i_dậy
▁khâm_ phục
▁thông_ dụng
_T ân
▁buông_ lỏng
▁đồ i_bại
▁Đội_ bóng
▁suy _s
_r iết
▁l ife
▁liên_hiệp _quốc
t_m à
ar en
▁lưu_ ký
▁sel fie
▁s áo
Á P
D S
▁dân_ lập
ức_ nh
▁Ar t
▁tỉ _phú
▁New castle
▁ о
ng_m ình
▁h ân_
▁mượ t_mà
et star
▁J on
▁hã ng_phim
▁kiê n_định
▁lốc_ xoáy
ia s
▁th iêng
u_d ồi
▁y an
▁lương _tâm
▁Mon t
▁Đ ặt
▁Khá n_giả
▁U ruguay
▁n ấc
h n
ức_nh ối
▁cũ _kỹ
▁mệnh_ lệnh
_th iêng
▁Đ IỀU
_ng ành
▁pháo _binh
end er
▁ngụy _trang
▁chu ộng
▁Đa _số
_b ai
▁chiế m_dụng
▁S k
▁t ộc
▁y amaha
b ul
▁ •
▁n ồng
▁B ridge
u_ r
▁tham_ chiến
▁dà n_nhạc
▁tr ầy
▁v ck
▁D S
▁co n_một
_tr ống
▁làm_ khó
▁J in
▁V CK
▁vò ng_eo
f orm
▁ng án
_Đ ỒNG
ng_đ àn
f er
▁tra u_dồi
▁H H
▁ph ận
▁ng ửi
▁T uyền
▁cá t_l
▁h ãm
▁tor res
b ie
▁mà u_c
▁vi ew
_t ạ
▁chiết_ xuất
▁thân_ xe
▁Hà m
ng_ch âu
▁ng ẩn
▁trữ _tình
ul in
▁thế _chiến
ood s
▁vi i
nn y
ông_m ày
▁chê _bai
▁ráo _riết
▁b àng
b t
▁yếu_đ uối
▁Trung_ Hoa
ef a
c idae
_m ưa
▁hồ _h
▁giao _hưởng
▁st atus
▁vn index
▁tiệ n_dụng
▁yế u_
▁Tor res
▁phụ _giúp
▁hô n_lễ
▁Ph one
▁B as
▁Viet in
at ti
b ạc
▁thị _sát
un n
m_h ôm
▁coll agen
▁quân_ y
▁kW h
_t ễ
▁bận _tâm
▁Châu_ Thành
▁te h
▁Đội _trưởng
▁D r
▁ch ris
▁khét _tiếng
▁ngất_ n
▁d ằ
▁só c_sơn
b all
▁ho a_khôi
▁Hành _trình
▁trầ m_l
▁C ad
ks wagen
▁m ẫn
▁viet jet
▁Tin _tức
▁P P
▁j am
▁D ường
▁thân_ cây
▁chân_l ông
▁giải_ nghệ
▁phân_ hóa
▁gi ảng
▁so ng_hành
▁Nh ạc_sĩ
▁r ập
ng_n am
▁v ar
▁bă ng_đ
▁đánh_ l
▁Ch ris
▁x ư
▁maz da
▁hen ry
▁C ơn
▁Vo ice
▁hậu_ môn
▁ch ải
▁Trung _thu
c_ng ã
▁xo ăn
gh i
▁quê _quán
_đ ập
▁Sóc_ Sơn
uck er
IỂ M
n_ph ần
▁quá _cảnh
▁T eh
▁xi ii
i_n ữ
▁e m_họ
▁Vă n_Đ
_t ấp
▁E ric
▁giườ ng_nằm
i_d ạt
m on
▁J ean
▁15 1
▁Thỏa _thuận
▁cầu_ m
▁du_ kích
▁W ill
▁v ỹ
▁v ơi
óc_ Môn
m_G óc
▁ch á
ă m_Góc
▁sử _học
f o
▁L ĩnh_vực
▁XII I
▁Tòa_ nhà
▁độ _bền
▁ma ke
_h ỏa
▁lê n_l
usse in
▁toà n_phần
▁trô i_dạt
▁5 ,2
▁black berry
▁Lầu_N ăm_Góc
▁dị _vật
▁Th ôi
▁q aeda
▁đổi _thay
▁mẹ _ruột
▁a ston
▁H óc_Môn
▁điều _trần
B A
▁f ashion
▁Th ất
t_h iểm
_v ẻ
▁đặc_ xá
▁Nguồn _tin
▁dự _thầu
▁Q aeda
▁yếu_ ớt
▁Khách _sạn
▁f ol
▁giám_h iệu
▁Qua n_điểm
▁Kh ởi
▁gụ c_ngã
▁c ẳng
we en
▁phi_ vụ
▁n ố
▁Quy _trình
▁Á i
u_s ử
▁bó ng_m
▁D ạ
▁danh_ ca
▁da i_d
▁A ston
▁lên_l ớp
▁b ính
▁Op en
▁n ano
ng_ng ắn
Ụ NG
i_ph ó
▁BỘ _TRƯỞNG
▁5 .3
▁xử _lí
ch enko
ng_đ oạt
AS A
▁suy_s ụp
▁náo _loạn
▁bán _tháo
▁mật _thiết
▁t exas
▁h1 n1
▁H1 N1
▁trọ n_gói
▁j ae
▁Ch ung_
▁ch ằ
▁quý _vị
▁Nguy ên_liệu
▁Tr ợ
▁tỏ _vẻ
▁tươi _trẻ
▁Â m_
n óng
▁G al
▁đời _tư
r ing
▁luân_ lưu
▁vợ t
▁hóa _thạch
▁kỳ _anh
▁T exas
▁Hen ry
▁cuộc_đ ấu
, 30
▁khuyế n_công
▁Kh en
▁chung _thủy
▁B án
▁T ần
▁Trung_ học
▁tinh_ hoàn
▁S ân
▁Hoàng _tử
ap ova
▁ta k
▁VI I
▁ngất_n g
_t ợn
▁f errari
ng_c ái
▁C ánh
▁thơ _mộng
▁f bi
▁viêm_ nhiễm
ri es
▁ ≥
▁caf é
▁Sự _nghiệp
▁194 7
▁W in
ei ra
▁hình_ mẫu
▁Vietin Bank
▁do _thái
ng_h ôn
▁p n
▁F errari
▁kh iếp
▁vò m
bour ne
▁r h
▁j uan
▁FB I
v ui
▁B ả
uk e
▁thuộ c_địa
▁19 40
▁số t_rét
▁chân _thật
▁thực_ lực
n ở
gh en
▁r ia
▁r ồ
▁Thủ _Th
_L ỤC
▁nh ắ
▁nồng_n àn
_đ ẩy
ull ah
▁In stagram
▁nh ức_nhối
▁liê n_bộ
▁Maz da
_l ương
▁m ệnh
▁A R
▁ngẫ u_hứng
▁u efa
▁g ắp
_th ưa
▁su v
_trẻ o
▁liên _tỉnh
▁m ấu_chốt
▁4 ,4
▁Kiến_ Th
w ar
▁hiể n_nhiên
▁gi ai
▁gia n_d
▁Đ ấy
▁nh ang
▁Th ì
m_ng ắm
▁vay _nợ
▁nhà _kho
u_v iệt
▁18 1
▁túi_ khí
n_m a
▁pl aza
▁5 20
▁J uan
▁hồ_h ởi
▁tầ m_ngắm
▁sinh_ nở
▁B ãi
_nh ị
▁l iv
ier re
▁thương_ phẩm
_qu át
▁nh ục_
▁hướ ng_nghiệp
▁Y amaha
▁r ườ
or o
▁k erry
▁j olie
▁per u
▁nắ m_vững
▁chất_ lỏng
s iêu
▁l ầy
▁nhấ c
▁linh _thiêng
▁dáng_v ẻ
▁K erry
_l ớn
▁theo _sát
▁r ef
▁ư u_việt
ng_h ạng
▁ph ơ
ro ud
l ô
▁ầm_ ĩ
▁thần_ kỳ
lv ania
▁kiến _thiết
▁h uyệt
▁n ao
▁co c
▁J olie
▁người_ch ủ
▁nguyê n_lý
▁6 .2
▁s ói
▁Mặ t_
_ âm
_m y
▁r ỗng
▁l ông_mày
▁Trung_ đoàn
▁bằ ng_lái
▁Kỳ_ Anh
▁L A
▁TH ÔNG
▁công_t ử
▁7 .1
▁m ệ
▁t ường_
n ông
IỂ N
▁W at
▁0, 25
us ton
▁L ove
_đ ùa
▁UE FA
Ả NG
ầu_r iêng
▁25 6
▁Kh iêm
▁w illiams
▁f ar
▁liên_ danh
_n ổ
▁Kh ối_lượng
ng_ch ạm
▁ngọ c_l
▁khí _quyển
Ch ính
▁kĩ _năng
ph ó
▁trầm_l ắng
▁y ong
▁Y an
▁L ệnh
▁xà _ngang
▁thanh_th ản
a_h iệp
▁bất_ đ
▁thì _là
c_l óc
ng_ng ại
▁j oe
▁tài_ hoa
▁lỗ i_lầm
▁r ình_
n_ma _thuột
▁buô n_ma_thuột
▁AS IA
▁b ục
▁thời _thượng
▁T ầng
▁Đ ợt
▁b ob
▁trụ _hạng
▁buồ ng_lái
▁k rông
▁ngoại_ quốc
▁ch ảnh
_l eo
▁nt k
▁Tr uy
ctu idae
▁d y
▁tàu _thủy
▁Đ ậu
▁lạ_l ẫm
▁c ưỡng
_h ỏi
L ương
▁p ra
ol ia
▁X D
n_k ề
▁lâm _tặc
▁16 4
ch iếm
▁an tt
▁ngoại_ binh
▁d ạt
▁nh ỉnh
▁hòa_ nhạc
▁J oe
▁N m
▁sử ng_sốt
▁b ậy
▁đoạ n_phim
▁ho ại
sh ip
a_Th uột
us sia
▁tr ê
_M y
▁NT K
▁Thực_ phẩm
▁6 .5
▁m att
▁phân_kh u
▁thị _hiếu
▁mã _độc
▁V AM
▁hu ân
▁Buôn_M a_Thuột
▁a ttp
▁ph ương_đông
▁đương_ nhiệm
▁20 22
▁N ext
▁A TTP
▁1, 00
unis ia
ien ce
▁M ag
▁17 8
g ạch
▁Nh ì
▁đệ _tử
▁ngư _lôi
▁di va
▁l ố
▁V S
▁gian_d ối
▁mũi _t
0 4
▁đ am
▁d õi
▁bo x
▁ph ối_
▁Đổ i_mới
▁ch uộc
▁đt qg
▁9 X
▁ĐT QG
▁le icester
▁PHỤ _LỤC
▁0, 1
▁m er
▁B ầu
▁chướ ng_ngại
▁A rab
▁C ủa
3 00
▁bồ i_h
▁AN TT
▁Hà ng_loạt
S en
▁tách _rời
i_ hành
▁Le icester
▁hà m_r
▁đế _chế
▁Cơ _hội
▁m erkel
u gh
▁thương _tiếc
▁g v
▁f t
▁hot line
▁tiếng_v ang
▁M erkel
_D ỤNG
▁W illiams
▁T ích
ei ro
_h ồi
▁K rông
ic us
▁3 ,9
ah u
▁Gi ớ
▁A lv
▁anh_ quốc
▁tặng _thưởng
▁cử _động
▁Hộ p
▁L iễu
▁t ỳ
illar real
way s
ng_ quan
▁Viet inbank
▁k ate
▁nghĩ _lại
ng_ng ực
▁P en
▁15 9
▁hoàng_ yến
▁vie t_nam
▁S Ử
▁t ào
▁Phá t_ngôn
d ĩ
iac eae
▁V u
▁d s
ng_d áng
p ad
▁d onetsk
y u
▁xung_ kích
▁cậ n_kề
▁M att
▁trổ _tài
▁D onetsk
▁tho i
▁c ặ
▁Cá _nhân
▁gi un
ắc_ dĩ
eo ple
▁đại_ lục
▁M au
▁thành_ niên
m ark
▁x ù
▁a cc
▁đồ ng_nhất
▁gt gt
▁5 ,4
▁HÀNH _CHÍNH
▁15 7
▁GT GT
▁thượ ng_n
▁U y
d r
▁Hiệp _ước
▁chúc _tết
▁bạn _tình
_ Ph
▁M àn
r anh
ason ic
▁hoàn_l ại
at in
▁nhất _thời
d t
▁T iệp
▁Trưở ng_đoàn
▁td tt
▁vệ _sĩ
▁F ED
▁5 .4
▁K ate
at ions
▁a th
▁Bế n_xe
▁Ph ê
kh ẩn
▁lạ _mắt
▁t on
▁chính _trường
hm ad
_d inh
_d ang
▁thụ _tinh
c_s ỹ
▁TD TT
▁K èm
▁Ho an
▁Bổ _sung
▁v ip
▁cho colate
▁mùa _thi
▁tươ i_đẹp
▁bực _tức
▁g el
▁hợp _thức
▁ib rahimovic
▁tiề n_đồng
▁ser bia
▁công_ năng
▁ba ck
▁350 .000
▁K L
ak sin
▁C ấm
▁Gi ữ
ib eria
▁nhạ t_nh
.201 8
▁dương_ lịch
P G
▁Tr iệu_
▁Ib rahimovic
▁giá m_mục
▁ ốc_
▁O h
▁Ser bia
▁g addafi
▁quân_ dụng
P a
oss i
▁triệ u_hồi
▁r yan
p ing
▁việ t_h
Th iết
▁bình_th ản
▁bạo _động
▁Ph iếu
▁D em
▁G addafi
▁Tu ần_lễ
▁Du_ khách
▁D ao
▁nữ _trang
▁tiề n_lẻ
▁17 6
ng_k ín
or ea
▁g ởi
▁l cd
ow den
_g óp
▁găng _tay
▁hạt _tiêu
ng_r ôn
▁20 2
ib o
▁khó c_lóc
_l ộc
▁P ower
_ng ỏ
▁H ỘI
▁n ối_
▁May _m
▁X uyên
▁R yan
▁d âm_
▁m anh
ph ia
▁súng _trường
▁ch amp
▁J ae
▁trung_ hải
te ch
▁L CD
▁k èn
▁vị _thần
▁logi c
▁Đả m_bảo
▁nổ i_danh
▁bó ng_dáng
▁tr u
and ra
▁nh ă
▁l ùn
▁giấy _báo
▁L ên
ng_đ ông
▁L as
ng_nh ái
enn edy
V T
▁4 .7
nh_h ình
l íu
▁m iế
▁hoá n_đổi
s ch
ac qu
▁ngo i_sao
▁nguy en
▁vp f
c z
▁d 1
us en
▁VP F
ing roup
▁b ọt
i_m òn
▁N as
▁Minh_ Tr
ngh ịch
▁Mở _rộng
▁l õm
▁bất_đ ắc_dĩ
▁ă n_v
▁Per u
▁B itcoin
▁dính_ líu
▁thân_ yêu
▁k yo
▁đại _trà
▁trả _góp
_gi ặt
▁flor ida
_c ấn
▁teh ran
▁bóng_b àn
▁bà ng_quang
▁al i
▁thá i_sơn
▁c lo
▁số t_ruột
▁to uch
▁c ore
▁ch iết
▁sing le
▁tu ệ
▁r ốn
▁C ải
▁khung_ hình
a_ch uột
n_ph ục
ip e
▁Teh ran
TC K
▁dày _d
▁T O
▁hù ng_mạnh
▁kh i_
ng_v inh
▁cả i_
▁wh ite
▁V C
▁Th ụ
▁u lt
▁thoá t_hiểm
▁h k
_T ây
as aki
▁u m
▁nh ọc_
▁tiền_l ãi
u_đ ãi
▁d ubai
se ille
▁thăng _tiến
n_đ á
▁vù ng_kín
▁C ậ
▁Không_ gian
▁n ê
ur s
▁tha n_phiền
▁nh á
au lo
_Ch âu
▁tươ i_sống
eban on
▁M etro
▁thượng_n guồn
▁anh_ sơn
▁Pl aza
ướ u
▁J am
▁Trung_ Hải
▁x ưng
▁s ầu_riêng
▁Hà ng_hải
▁sâu_ bệnh
▁m ượt
ng_kh oáng
▁Đội _tuyển
▁bất_ công
ucker berg
▁19 2
▁Flor ida
Ậ P
▁BAN _HÀNH
▁địa _ngục
anh_ vùng
▁hà ng_nhái
▁bổ _dưỡng
ng_s ủa
▁dò ng_máu
▁alex ander
▁n íu
▁P N
▁D ubai
_ho ặc
▁h anh
▁v id
y ếm
▁sá ng_sủa
▁thất_ lạc
n_b ạo
▁ph ướ
g et
▁T ÀI
▁su zuki
▁Trình _tự
▁đơn _thân
▁hạ nh_
▁đầ m_
▁Ch ánh_án
x ám
▁Hành_ chính
▁ra t
▁M ẫn
op ol
▁đ v
▁ASIA D
▁phó ng_khoáng
▁29 0
▁tình_ ca
▁đ ỗi
▁tự _hành
▁thoát _thân
▁thể _xác
▁ngoại _thất
_x ương
▁nội _tiết
▁gia_c ảnh
201 4
t_b ụng
▁tà n_bạo
_Th ái
▁S oo
▁hồ _tiêu
con i
▁màu_ m
▁Alex ander
▁m oskva
u_d ọn
▁M oskva
▁ho m
ng_d ư
▁cổ _kính
▁lệ _thuộc
▁Khí _tượng
▁Bất_ chấp
▁sinh _tố
▁hứ ng_khởi
▁trơn _tr
▁h 40
▁h ee
▁bó _tay
▁IS O
▁công_ báo
gi ảm
ess a
▁khắc_ họa
▁tuyệ t_m
▁từ _khóa
wai t
▁Đà n_
▁tài_ ph
b ảo
▁b p
▁C er
▁tố t_bụng
▁l ady
▁Đườ ng_bộ
▁dai_d ẳng
▁bồ ng_b
▁vi ii
Th ịnh
▁vụ t
▁bao _che
▁việ t_vị
▁vin ashin
▁d ua
▁giúp _ích
▁b ent
▁G ương_m
▁vẻ _vang
▁đ ậy
▁san chez
ac tor
▁diox in
▁nghĩa _địa
q a
▁Ng ồi
_tr ưa
▁tiểu _thư
▁D 1
▁h ec
k en
▁4 .6
▁Thái_ Sơn
m ond
▁Alb um
V ân
▁Khen _thưởng
▁m ông_
▁Mus ic
▁Quân_ sự
▁Tr ải
▁N av
▁sòng_b ạc
▁p p
Ng ư
▁THỦ_T ỤC
▁bă ng_rôn
▁T ak
x ảo
ev el
▁Tr ạch
▁San chez
▁k nock
ặ ng_dư
▁chuyể n_kh
▁tái _thiết
▁sh i
f l
nh ằn
▁Sân_ bay
▁tận _tay
▁bol ero
▁A p
▁b ook
▁Al i
i_m ô
▁Tác _giả
▁thế _vận_hội
▁chố ng_đỡ
▁chú c_
▁M ón
▁n ang
▁Mẫ u_số
▁P op
▁K yo
n_ng ạch
▁ra p
▁ ươm
n gang
▁thượ ng_lưu
ng_m ở
▁M A
▁lã n
▁lơ _là
▁b ùa
ng_ng ủ
▁dở _dang
▁M edia
▁kính _trọng
▁hương _thơm
▁Siêu_ mẫu
▁as ian
▁tiề n_vay
▁bảng_ anh
▁6 30
▁Tr ò
▁nhà _sư
▁5 ,6
▁ ưng
ann y
▁s si
▁ba k
i_c ấp
ho an
▁ab b
▁giấy _khen
▁đặc_ hữu
el y
▁kho anh_vùng
▁nội _tâm
b l
▁17 .000
▁17 4
▁ale ppo
▁ba t
▁Âm_ nhạc
▁r ai
▁Ale ppo
▁E C
▁Tài_ xế
▁May_m ắn
▁chính_ khách
▁giúp _sức
▁nố t_
▁t erry
▁SS I
in ea
_m ục
▁hào _quang
▁kho ái_
▁9 ,5
▁nghỉ_h è
▁SU V
▁lơ _lửng
▁VI II
▁S um
▁17 2
▁đảo _lộn
▁angel ina
▁D ựa
o z
▁di_ch úc
▁nó ng_n
▁B ra
▁bắt_n ạt
▁v c
▁hoà ng_hôn
as p
▁nữ _chính
▁sm ith
▁Angel ina
▁T erry
▁r ong
▁phản_b ác
UYỆ N
▁đo an
▁s ầ
▁sơ _s
▁th ách
▁nick name
B í
n_ch ặt
▁Ch uyển
▁C ẤP
▁nhí _nh
enn sy
▁mur ray
_th ử
▁phan _thiết
▁câu _thơ
▁trốn _tránh
▁l ầm_l
▁T ẠI
n_s ai
_x a
▁Co n_gái
ers ey
▁có c
il bao
▁b ody
▁Điệ n_ảnh
▁tr ớ
▁tựa _đề
▁qua ng_vinh
▁Yo utube
▁nghịch _lý
▁trẻ _hóa
o us
b ack
ut a
▁h éc
▁k il
▁iv an
onald inho
▁t ầu
ark o
▁m ải
▁phó _phòng
Ễ N
▁d ec
qu ái
▁mã _tấu
or entina
▁e ver
▁ẩ n_chứa
ng_ H
gu ain
_ph iếu
▁Th ắm
▁d ế
▁điể m_hẹn
p ot
▁ph ình
ib aba
_l ùng
▁Trọng _tài
▁Xuất_ hiện
▁Do _Thái
_n ão
▁tct d
_th à
▁mạn _tính
▁TCT D
▁I van
▁C ờ
▁Vật_ lý
▁khă ng_kh
▁Thành_ lập
▁Kim_Ng ân
▁b ec
▁sú ng_ngắn
▁e kip
▁niê n_đại
▁rộ ng_mở
▁k èo
▁C ự
▁ha z
▁ăn _theo
▁gia i_cấp
▁chi_ hội
▁Phan_ Thiết
_m ay
▁định_ kiến
▁Mur ray
ối_l iền
_n àn
TV N
ro gen
▁F o
▁CN VC
_K H
▁cn vc
▁l ươn
B erry
▁hạ n_ngạch
▁Bu ff
▁phô _diễn
▁quả _quyết
▁Thượng _tướng
▁th u_dọn
ennsy lvania
▁phụ _khoa
▁đoà n_phim
il i
▁es p
▁16 1
▁đ ấng
▁Vin ashin
▁bus iness
▁x peria
▁tinh_ xảo
▁nghèo _nàn
▁2 .200
▁đầu_t àu
▁mó ng_cái
▁H az
▁bão _hòa
▁Bách _khoa
▁theo _chân
ng_s ơ
▁b ir
_đ ậu
▁H ứa
▁diễn _tả
i_ qu
▁bồ _c
▁D ay
▁g ăm
u_d uệ
▁S evilla
▁18 8
▁tỏ _ý
n_đ o
▁23 %
▁Đ am
▁T ốc_độ
▁x ao
▁T s
▁tàn_nh ẫn
▁M ắt
▁Gương_m ặt
▁võ n
▁Trẻ _em
▁xưa _nay
▁4 ,9
ad ing
,1 5
▁võn g
n_ an
▁cưỡ ng_đoạt
▁d ream
▁Nguyên _tắc
▁tung _tích
▁Tr ình_
▁thừa _hưởng
▁EU RO
▁ê _kíp
▁S uối
▁vậ t_v
om an
▁n ối_liền
▁bất _tận
_m ịt
▁s evilla
▁tá _hỏa
co i
h e
▁St reet
▁thời_ vụ
▁v ả
ng_ dân
▁Sm ith
n_nh ủ
▁ca _từ
m_k ịch
▁hoà i_đức
▁mu ối_
▁T ên_lửa
_tự a
ch ội
▁quá _cố
_ng ô
▁tối _tân
▁Giọ ng_hát
▁thị _lực
▁Ng ọ
l âu
▁ma g
▁C uốn
▁Nh ạc
▁f ort
▁b ql
▁thủ_th iêm
▁Black Berry
▁Ph ạt
ng_C ái
_PH Ủ
▁Hy e
▁k it
▁hào_h ùng
m_r ãi
▁đ iêu_l
▁cal isto
▁Ô ng_
d uyên
▁Bản_ sao
Ng ọc
▁nh tm
oll ah
▁hiệu_l ệnh
▁m ẻ
▁NH TM
▁Mó ng_Cái
i_h an
▁Quan _trọng
▁m ig
▁Hoài_ Đức
ên_b iệt
▁c k
▁Cal isto
▁Văn_ Minh
▁b i_quan
▁khẩu_ vị
▁công_đ iện
▁B QL
▁p e
▁nhắ n_nhủ
▁tá i_sinh
▁Hoàng_ Yến
▁X peria
▁X á
▁n asa
▁K ia
▁sơ _cấp
▁máy _giặt
M A
▁5 ,7
_ áo
▁vương_ quốc_
▁ng ớt
▁form osa
▁tố _chất
▁man ila
T E
▁e xp
▁hoại _tử
n_ch ào
▁thôi _thúc
n_l ùng
▁lục_ quân
▁V ỹ
▁Thủ_Th iêm
▁khẩu_ phần
▁CHÍNH _PHỦ
▁biể u_đồ
▁T CC
▁l am_
▁I B
▁th ằ
▁hân_ hoan
▁cục_ diện
▁Su zuki
▁X a
▁j im
▁tinh_kh iết
▁A th
▁W HO
▁đú c_
▁thao _túng
iên_c ứu_
_g ươm
el b
n_đ ắp
▁R E
▁Man ila
m_b iển
▁mức _thưởng
▁trù ng_l
▁tr ừng
_G IA
▁thị nh_
▁S ông_
▁gp mb
▁nghe _theo
▁Sức_ khỏe
▁co le
▁th ặng_dư
▁kỳ _thị
▁GP MB
_tr ồ
▁chật_ chội
▁trù ng_hợp
0 6
▁quy ến
▁cố _đô
a_c ách
▁ch arles
▁b ại_
▁M ass
▁hồ _gươm
▁thần _thái
_th ổi
k av
C ương
▁thiên _tài
▁biể n_hiệu
▁hoa ng_sơ
▁điêu_l uyện
c ạn
tv n
ng_k ềnh
▁ и
▁tầm_v óc
▁hỏ i_han
n_m ạng
iên_cứu_ sinh
▁tuy ê
▁khuyế n_học
▁chậ m_rãi
▁d amascus
▁nghiệp _dư
▁bài_ giảng
▁D amascus
▁chuy ên_biệt
▁DV D
9 .000
▁2.000 .000
▁trầm _trồ
ren ce
▁petro limex
▁D J
▁gây _hấn
▁hù ng_vĩ
om o
ines e
▁nhượ ng_bộ
▁bro wn
▁đường_ ruột
▁lđ bđ
▁LĐ BĐ
▁Ch arles
▁S av
▁lum ia
▁k b
▁dân_ phòng
▁CQ ĐT
▁cq đt
▁ôn _tập
▁do c
▁Ph óng
▁tích _trữ
u_x ót
ng_s á
▁mù i_vị
nh_đ oàn
▁x a_cách
▁ ân_c
▁ân_c ần
▁ô xy
▁99 %
▁C K
▁đt ck
▁să n_lùng
▁ser gei
_G ươm
▁hy brid
▁Sửa _đổi
▁Đ TCK
▁Ser gei
▁niêm_ mạc
le ge
▁n obel
st ock
▁B P
▁Đ ấu
V Đ
▁sh ort
ich i
t_h ồn
▁nguyên _thủ
▁r ằm
▁so c
▁SG GP
▁toàn_ quân
ặ c_s
v đ
▁fab regas
▁cồ ng_kềnh
▁gắ t_g
k inh
▁Gi úp
▁x ót
▁nhờ n
▁vn đ
g g
▁Petro limex
ans as
j ax
▁Lum ia
▁20 50
▁th uyên_
▁nh àn
Trung_ Bộ
▁vị _tướng
▁đông_ dương
ành_ d
▁thanh_ sơn
▁vă n_đ
▁Fab regas
▁B ernabeu
▁S ương
▁s ặc_s
▁34 0
▁l ine
▁b ernabeu
▁ ổi
▁tán _tỉnh
▁T ab
▁Tiếp _theo
▁áo _tắm
▁cầu_ môn
▁lời_ giải
▁nhọc_ nhằn
▁vu n_đắp
▁amer ica
_TR ÌNH
▁M ộc
▁3 000
▁N apoli
▁H K
▁St r
n_n óng
all a
▁Đờ i_sống
▁v on
h ạ
▁đó n_chào
▁d ar
▁st udio
▁d ặ
▁n apoli
▁f r
lus coni
▁H ome
▁ks nd
▁KS ND
▁Đàn_ ông
▁car los
m ad
um in
▁as p
▁tha _thiết
n at
▁tách _biệt
t_ ít
▁phòng _tập
▁đề_c ương
▁cưỡ ng_b
▁dv d
_b ênh
▁dễ_d ãi
▁cao _cả
▁20 5
▁N obel
ier i
▁thị _phi
els on
▁tái_ lập
▁l ew
▁J im
▁D en
▁thành_ khẩn
▁ảo _thuật
▁m ườ
ng_kh oái
ina w
n_m óng
▁Car los
▁kết_ bạn
▁rung_ chuyển
▁khuy nh_hướng
▁truy _xuất
▁l ạng
▁sp utnik
ather ine
▁b rom
▁cổ _h
H uy
▁G à
▁trông_ coi
▁P as
▁val entine
c kh
_H oàng
▁siê u_c
▁n ậm
đ ạm
▁tá i_phạm
▁tác _phong
▁k ey
▁hả i_châu
▁tiền_l iệt
▁qu ậ
▁ngọc _trai
▁củ _cải
▁p rin
▁t ịnh
n_ngh iện
▁R u
▁Amer ica
n_ng uyên
▁m and
▁đê _điều
▁ph ì
A NH
s son
▁phụ _xe
ris e
▁kình_ địch
▁tế _nhị
▁da _d
▁khả _nghi
han na
▁ ​
▁Form osa
▁55 %
▁z en
▁Thanh_ Sơn
erk usen
▁N ASA
▁B ến
▁giác _mạc
▁ram os
▁Hành_ vi
▁nghỉ _mát
ì u
▁s underland
▁Đông_ Dương
b r
▁nghị _sự
▁d ành_d
▁Nh u_cầu
▁cái _tôi
▁chiều_ ch
▁rau_m uống
_c ẩm
▁địa_ ch
ard y
ng_qu ên
▁k remlin
đ ợi
▁Hình _thức
▁B CT
gi c
▁nông _trường
▁B inh_
▁nhạc_ kịch
f urt
s ắt
▁v ấn
▁đồn _thổi
▁oa n_sai
arko zy
ch iểu
_v iệt
▁Chợ _R
erm o
▁chú t_ít
▁6 ,8
ớ i_
ch ar
▁6 ,7
am by
▁phân_ vân
▁Bằ ng_khen
r ăng
▁ăn _trộm
▁sả ng_khoái
▁Người_m ẫu
▁K ịch
▁b ct
▁mứ c_sống
▁L ady
▁17 7
▁đậ u_xanh
M edia
▁B ah
_th ỏm
▁mỏ ng_m
▁dấn _thân
▁sa_ pa
f ica
▁t ennis
▁2 .400
▁nhỏ_nh ắn
▁v i_sinh
▁S underland
▁bạo _loạn
▁D y
▁S ur
▁thích _đáng
▁19 20
▁B ông
▁77 7
0 8
▁xe_b en
▁phong _tặng
_th ệ
▁v ali
▁H ong
▁ser gio
_r áo
▁m ike
▁g ot
201 3
▁K remlin
S G
▁mê _hoặc
ivers e
▁hành _tây
ẳ ng_l
▁L ờ
on na
▁chợ _rẫy
▁Tu ệ
▁quan_h ọ
▁lã ng_quên
am ond
▁R ub
▁t ậu
▁5 ,3
▁rạ ng_ngời
▁tr ượ
▁trông_ đợi
▁nề n_móng
▁sà _lan
▁Ser gio
▁L ew
x ích
▁sâu_ xa
▁cm nd
▁lá _chắn
▁thuộ c_
▁kh cn
▁5 ,8
▁ố ng_dẫn
ut ter
▁Đề _xuất
▁p leiku
▁th ò
▁say _đắm
▁Đ ẤT
▁bảo _lưu
▁G ã
▁luật_ lệ
▁CM ND
▁ch ối
▁tiểu_ phẩm
ot s
▁Kh ê
u_b inh
▁toan _tính
▁Cần_ Gi
▁đường_h uyết
▁I D
▁M ike
ét_ sắt
▁Đồ ng_bằng
io us
▁6 .0
▁bất_c ẩn
▁Sa_ Pa
▁dân_ chơi
os ite
▁truyền _thanh
Ả O
▁H òn
▁ —
▁cá_h ồi
▁KH CN
▁dư a_chuột
▁dau _tu
▁P leiku
amby cidae
▁N ền
▁I r
▁thật _thà
▁a tt
▁mon aco
▁màu_ xám
▁bệnh_ binh
_b ài
▁thượng_ úy
▁trì _trệ
▁đảo _ngược
▁m ekong
▁s ydney
▁Mon aco
▁Hãng _tin
▁không _trung
▁ngh iên_cứu_sinh
c in
▁h um
es pa
▁4 .8
▁b ern
▁18 6
▁AF C
_x ẻ
ek o
▁Hải_ Châu
▁Số _liệu
▁Thiế u_
ẵ m
▁quý _bà
_V iệt
▁ ù
ng_ph áp
inaw atra
ien co
▁trô i_nổi
▁Chợ_R ẫy
▁u ae
il is
Đ iền
▁0, 9
▁cưỡng_b ức
▁Y ahoo
▁k én
_c ụ
▁194 4
▁co n_nghiện
▁G ame
▁UA E
▁Lợ i_nhuận
▁Tuyên _truyền
▁V ượt
▁tiết _trời
▁N ụ
▁4 30
▁cấp_b ậc
▁b eta
▁đầy _
▁K on
▁S ydney
▁ic t
n_k ền
▁Huy _chương
n_ph áo
▁bảo _mẫu
▁tuyên _thệ
▁20 4
▁p ogba
▁t ặc
w i
▁thả m_kịch
▁A B
ng_d ội
▁lu k
▁194 1
or f
▁18 3
▁ĐK VĐ
▁Quảng _trường
▁đk vđ
▁ngư _trường
▁va ng_dội
▁đại _tràng
▁P ogba
▁gay _cấn
▁16 6
▁m úi
▁ ăng
▁F an
▁t ắ
▁v am
5 00
▁cứ a
▁không _tưởng
▁Benz ema
▁21 %
cel o
_ gh
▁đườ ng_m
▁đánh_l ừa
▁khố n_khổ
ỡ n
▁cam_ ranh
_ ÁN
▁benz ema
_ng ực
▁d ục
ad s
▁day _d
▁B ent
▁sỹ _quan
▁cộ ng_h
▁af c
▁đườ ng_sá
n_l ội
▁truy _xét
▁tự _ti
▁thuốc_ men
▁huyề n_bí
f one
R C
ượ u
▁v cb
▁đa u_xót
▁euro pa
▁bảng_ Anh
▁nhà_b è
▁tá i_ngộ
▁su l
▁Ram os
▁ph án
u ỳnh
▁k ét_sắt
▁19 %
▁18 7
▁Bro wn
▁h ari
▁nhân_ phẩm
▁Liên_H iệp
▁cu r
▁4 ,1
Th u
▁Lưu_ ý
R anh
▁h h
▁21 5
▁b ưng
▁thiế p
▁viên_ n
▁Cam_ Ranh
▁f ace
▁t l
▁th ẳng_đ
▁Đơ n_cử
▁S IM
▁hiể m_họa
aw i
▁suy _đoán
▁V CB
▁chuyể n_phát
n_gi ảm
h ả
c ung
▁hành_h ương
co is
▁m ế
▁18 9
▁vô_c ảm
ar n
▁v ảy
▁vô _nghĩa
i_c ước
▁th ướ
▁vnm edia
▁an n
▁B oy
▁nổ i_c
_l o
▁Chủ _nhật
▁H ari
j amin
▁Hợp_tác _xã
▁đen _tối
▁nh uận
▁c ồng
▁ng ớ
▁sức_ gió
▁phế _thải
ye ong
▁do m
▁m id
n_m ình
▁tỉ _giá
▁xe _hoa
▁hy _hữu
▁dung_ quất
▁nh iệm
▁qu ạ
▁tương_ quan
▁b ấp
▁thực_ quản
▁9 50
▁M ot
ina e
▁p oster
ur as
▁l ung
▁thờ _cúng
▁giáo _hội
Qu ất
▁âu_ yếm
▁cố _thủ
_trợ n
ữa_ bột
▁l ab
▁Sp utnik
▁điên_ cuồng
▁cáp _treo
▁đầy_ ắp
n ova
▁Ab b
▁a n_kh
Đ àn
n_đ áp
▁hă ng_h
▁P in
▁h ốc
▁Cl ub
▁ab u
▁t ép
m_r à
▁R ạ
lo g
▁As ian
▁fan s
el ine
▁op era
▁Hạ m_đội
▁c ẩm_
▁B ão
▁Dung_ Quất
m as
ol es
▁ro om
▁u 22
u_k éo
▁B ern
t_ sống
▁T ai
▁thầ m_lặng
▁trao _trả
▁20 3
▁Công_ bố
▁đề n_đáp
▁day_d ứt
▁U 22
▁m a_
am an
ó ng_ng
▁VN Đ
▁vương_quốc_ anh
▁kích _dục
▁tự _thân
▁n úp
ap s
▁giáo _hoàng
▁và nh_m
▁ ắt
yl on
K iều
▁trung _tuần
vi e
▁Bất_ ngờ
▁thiế t_chế
a do
▁thị _giác
U S
▁G ran
_tây _dương
▁C ầm
▁nguyên_ chất
▁pho ng_kiến
đ ộc
i_ giận
ru ise
▁23 9
▁K iểu
▁qua ng_học
▁k ang
▁sự _thực
c ott
▁t cc
▁rườ m_rà
▁B ánh
▁CH I
▁dây _cáp
P S
vi v
▁18 0.000
▁Gi rl
ngh iêm
▁quân_ đoàn
▁5 10
▁x nk
▁Thay _mặt
▁Euro pa
▁phù _hiệu
n_ng ủ
▁quân_ chủng
lo ck
▁liều_ lượng
▁con_r iêng
▁địa_ch ấn
▁d uẩn
▁T ốt
_ng ẩn
▁ngoại_ khóa
▁khai _tử
▁Cam era
▁chung_ sức
▁miễ n_giảm
▁mặt_b áo
n_r ã
▁for bes
▁cổ _động
i_n iềm
▁n ôi
▁v ờ
ol and
▁ă n_xin
ram ovich
▁g á
▁Cổ _phiếu
▁n ẻo
ab e
▁and re
▁dàn _trải
▁51 %
▁xe n_kẽ
▁tới _tấp
▁Z en
▁Tài_ liệu
▁xuất_nhập _cảnh
▁ba by
▁X NK
▁đáng_ giá
0 9
▁Lý _giải
▁K Ế
ng_h ổi
ên_b án
▁tr óc
▁Điều_ chỉnh
201 1
▁g ea
▁v ictor
▁M er
▁tận _tụy
▁Ngoại _thương
▁xét_ hỏi
▁p acific
▁công_ kích
▁hù ng_hậu
▁thú _vui
▁Quang_ Vinh
▁Đối _tác
o is
▁l ăm
▁b yt
▁T ượng
▁tel egraph
▁dành_d ụm
▁đại _tây_dương
▁thă ng_bằng
▁sú ng_máy
ers burg
▁nổ i_giận
do ch
▁8 70
▁lương_ y
▁nồng_n ặc
ận_ ủy
m_d ỗ
▁5 40
t_l ành
▁nó ng_hổi
m ai
▁j ang
_v ốn
▁TH I
▁m è
▁D uẩn
▁Cô _bé
▁lậ t_ng
▁bản _tính
▁N ậm
▁đố i_đ
▁ ói
▁Tiếp _nhận
ng_k im
▁sao _mai
Tr ạch
▁chỉ nh_hình
▁k iệu
0 7
▁nh ô
▁lo p
▁dầ u_hỏa
a_ch iều
▁lặ n_lội
▁khá i_qu
▁khái_qu át
▁4 x
▁mê _tín
▁thuậ n_an
▁hối _tiếc
▁ô n_hòa
▁F ort
▁t òng
▁l ẫ
▁Thủy _điện
▁D inh
▁k ét
c_đ o
▁cá _c
▁khí _tài
▁H UYỆN
▁suy _thận
▁Nh ị
▁vin alines
▁Vn Media
f or
l ương
▁tuổi_ già
tt h
▁F ull
▁Thường_ xuyên
▁TỔ NG
▁thể _thức
▁m ú
▁d iên
▁Val entine
▁ní u_kéo
▁Động _thái
ng_l ứa
▁I X
n_h oa
▁tra ng_chủ
▁G ea
▁Đ ôn
au ty
_t ót
▁s at
▁H uân
▁Đ a_
_g an
▁mất _trắng
▁nh ẫ
▁c y
▁hiế u_
▁Sh i
ou d
▁I CT
▁w ang
_QUY ẾT
▁s ành
_nh iệt
▁M ãi
▁ch òi
▁lự u
n_g ắn
u al
▁tình_ ái
_tr inh
▁T e
▁k evin
▁cơ _tim
▁Chuy ể
▁5 000
_G I
▁l ả
▁M and
▁ е
Đ ô
▁thiên _thạch
▁gu ardian
▁hối_ hả
▁d ang
▁kh mer
▁r ep
▁Thuận_ An
▁Tr àm
▁4 40
▁x iv
▁18 2
▁tro ng_ban
_Đ ằng
▁hầu _tòa
ng_đ ạt
▁BV H
▁5 .7
▁Phân _tích
▁And re
▁Khai _thác
▁I C
▁bv h
▁P ra
▁Thành_ Công
sk a
▁gó i_cước
▁cá m_dỗ
▁Lợ i_dụng
▁su ông
▁bề _dày
kh ớp
▁p y
▁chung_ quanh
▁thương _thảo
▁ngh ẹn
no m_
óng_ng ựa
gi ật
▁cá _chép
▁M ekong
▁K evin
i_s óng
▁as us
▁l it
▁thành _thật
▁thẳng_th ừng
▁võ _sư
▁danh _thắng
▁17 3
_th ề
▁R en
▁n ấp
▁Đại_ Tây
▁ad n
▁vành_m óng_ngựa
▁trái_ lại
▁cl ick
▁Chiều_ nay
▁đạ n_pháo
▁R T
▁Ph ản_
▁d ối
▁thẳng_đ ứng
▁L op
▁nhẹ_nh õm
▁săn_đ ón
it ime
▁h and
▁Ch ín
g ers
▁194 9
_qu ần
▁gia _tộc
▁so ng_ng
▁X IV
▁Đại_ lễ
▁hà n_gắn
▁b est
▁1,5 %
_T Ư
ukov ych
ct a
c ạnh
nh_ vực
▁h ươu
▁nghĩa _tình
▁C ai
▁th ước
▁đầu_ n
▁Sân_ khấu
▁Kh mer
▁d ằn
▁Pháp _chế
▁z idane
▁p iz
▁so o
▁nước_ dùng
▁Cả m_
▁ enz
▁Z idane
▁J ang
▁ta n_rã
▁cự u_binh
▁Đồng_ H
T ín
▁vậ t_ch
8 .000
_kh úc
▁th ước_
▁For bes
ng_k inh
▁dấu_h ỏi
▁ăn_n ói
▁V inh_
▁ch i_l
▁âm_ h
▁V ictor
▁tấ m_biển
▁n issan
▁G om
▁ad am
▁truy _lùng
avi er
▁h 10
d ậy
_ngh ề
▁họ c_l
▁B YT
▁194 8
▁tướ ng_lĩnh
▁lo _toan
▁Kỷ _niệm
▁de f
▁hà _thành
▁gánh_ vác
▁ngo n_lành
▁kỳ _thủ
G D
▁s ữa_bột
ass an
▁Ma i_
▁từ _điển
▁náo _nhiệt
▁6 ,3
▁W ang
▁g ỉ
▁M ic
▁S á
▁B ã
▁Ab u
▁bê nh_vực
p an
▁tiê n_l
▁khí _thế
_l ưới
▁A k
uyết_m ạch
▁quý _tộc
▁mar y
Ch i
▁Giớ i_chức
▁b ừng
▁manh_ động
▁giá _trần
▁vị _thuốc
▁7 ,6
_b ăng
M C
▁Ng ài
▁t ă
▁chao _đảo
▁thô _b
▁Ta i_nạn
▁chữ _cái
▁r t
▁K n
k ei
▁l aden
▁khôn_l ường
_ch ở
▁xa_ v
ea ks
▁giả ng_đường
_nh àng
▁vô _giá
quy ện
▁194 2
ick y
▁6 ,4
▁nhân _tình
▁l ạch
ut ure
n_ch ắn
lo ween
▁h uyết_mạch
▁B ob
▁liên_ xã
▁p i
_s ăn
▁sa v
▁đào _thải
▁thoá t_n
▁bấp _bênh
▁che _chở
▁l ionel
▁s anh
▁đánh_ ghen
▁bt n
▁nhà _tắm
▁Bướ c_đầu
▁Sư _đoàn
▁tu ồng
il ia
▁B ọn
▁hơ i_nước
r ồ
▁d ia
▁Mar y
▁hn m
lai n
es ar
▁tiề n_b
▁L ionel
▁T L
m_h ọng
▁m ướn
▁6 ,6
▁vượt_b iên
▁c le
▁cảnh_ nóng
el in
▁p ass
▁un iversity
▁cai _trị
▁cap ital
▁nh ăn
▁r ìa
▁cát _tường
▁lò ng_dân
A NG
▁ngh ẽn
▁hòa_ quyện
▁vực_ dậy
▁Á n
▁n áu
▁cứu_v ãn
I P
▁L aden
▁khú c_
▁bến_c ảng
▁hồ ng_quân
▁h ằn
j ib
▁Cậ n_cảnh
▁G ói
▁O x
▁hồng_ng oại
▁Phả i_chăng
CC I
▁D ò
▁khu ất_
▁P acific
▁hồng_h à
▁gi ẫm
▁DA NH
▁l b
▁R h
▁quây _quần
▁Wh ite
pp l
▁nhanh _tay
▁con cert
▁49 %
▁mỏng_m anh
C ổ
od es
te ur
▁st an
▁điên_ rồ
▁dẫ n_động
▁L ife
n_đ en
▁to ản
▁l avrov
▁áo_ph ông
▁nh ĩ
▁m ade
▁L avrov
ng_ng uyên
▁t ày
ib ery
▁thướ c_đo
▁T ính_
ab ad
▁ngỏ _ý
▁Qu ay
b ell
▁là m_chứng
_tr êu
▁r ũ
ang hai
▁xóa _sổ
▁nd t
b ro
▁10 .1
Ạ T
▁6 ,2
▁10 ,5
ie z
▁s ảy
▁G ây
▁C a_khúc
▁ch eck
▁Gi ó
▁0, 1%
▁th y
▁Mà n_hình
▁ho p
▁vượ t_mặt
▁triế t_học
_c ường
▁ar m
▁st ore
em on
▁Nông _thôn
▁hành_ quyết
▁blu es
ph ui
▁6 .3
▁Đại_Tây _Dương
▁7 .2
anh_ phui
oph er
▁phú _quý
▁t iễ
▁P R
▁bao _quát
▁Vin alines
▁B TN
▁lự a
▁195 2
git al
ch t
ond er
▁Trở _lại
▁5 60
▁cam_ đ
▁quỳ nh_l
▁chất_ nổ
▁cờ _vua
▁l ip
▁thu _thủy
▁ ẩu
▁R ay
▁thấ u_đáo
▁thỏ a_hiệp
l í
ên_ ương
▁nhà _ch
▁Q P
▁I a
▁h éo
▁zo om
es us
▁Ad am
▁màu _tím
▁D Ự
▁chỉ _giới
À Y
▁Trưở ng_khoa
▁định_ danh
▁Thu_ nhập
▁X ếp
▁k al
▁Y ong
▁18 4
▁mar io
▁ê m_đ
▁Kiến_Th ức
▁ngẩn g
▁U p
▁Hồng_ Hà
r ào
▁d ơi
qu ỹ
ng_c anh
▁Tr ồng
ng_ng ũ
▁ amin
▁phản_ ảnh
_s a
any ahu
▁m ata
▁bàn _thảo
T ài
▁amer ican
▁5 .6
▁Quy ến
▁ph anh_phui
ng_qu án
ri k
▁lỗi _thời
▁thân_ chủ
▁thanh_ minh
O L
,9 5
▁d ep
▁sil icon
▁danh_ lam
▁lẽ _phải
TT H
▁Mar io
le g
▁Đ óng
▁Ch im
sh ar
▁b et
▁rù ng_mình
▁L uận
▁că n_cước
▁Qu ần
▁ch ổi
▁ch uộ
▁V id
▁0 .0
▁ca h
ng_v ẻ
▁tà _áo
▁mải_m ê
bor ough
▁s ẫm
▁Kh óa
▁N issan
▁B on
T iến
▁hòa _đồng
▁M ata
_r ừng
▁hot girl
▁đ tvn
▁Đ TVN
▁S ud
▁f 1
▁k an
▁đường _truyền
▁dẫ n_độ
▁á n_mạng
▁ND T
▁O P
_th ự
▁D ịp
▁ ám
▁xử _trí
_t úi
▁nh an
▁0,0 5
Ẩ M
▁vắ ng_vẻ
▁g ood
▁5 .500
▁tiề n_sự
▁tiể u_sử
▁hỗ n_chiến
▁Nhậ n_định
▁xa_x ưa
▁co ok
n_ch u
▁Đồng_ Tâm
▁bạch_đ ằng
▁k iêu_
▁kho _báu
n_m ỹ
▁a guero
▁vũ _điệu
_T I
▁đà n_hồi
▁A guero
▁n orth
▁Thẩ m_phán
▁l ánh
▁h ẻo
▁hăng_h ái
t_đ ịnh
ain i
▁Ch u_
▁dịch _tễ
▁l eg
ra ft
em o
▁tr ầu
▁tó m_lại
▁l ồi
ph y
▁g eor
H ọc
▁31 0
▁vi ol
▁G V
inds ay
▁tr i_h
▁Thu_ Thủy
▁a wards
▁thoát_n ạn
ne ct
▁chuyển_kh oản
▁bệnh _tình
g òi
n gòi
▁bị _đơn
ts g
s burg
▁f re
▁w ik
▁minh _tinh
▁Nguy ên_
um bia
▁vắc xin
▁Công_ nhân
t_l ọt
ch im
_l ửa
▁ng ốc
▁chí n_chắn
▁uy ên_ương
n_b ẩy
▁Bất_ động_sản
▁12 ,5
▁đ a_chiều
i_c ười
▁r up
▁nữ _thần
▁hồ _tây
▁cộng_h ưởng
i_l ấp
▁xã _viên
▁chồ ng_chất
▁vù i_lấp
▁A ri
▁tró t_lọt
▁diễ n_giả
▁tuần_d ương
▁haz ard
▁8 .3
▁T oản
▁7 ,2
le a
▁sặc_s ỡ
▁mu ỗ
▁Gu ardian
▁thuần _túy
▁In s
▁Bạch _Đằng
▁b kh
ob ile
▁m ol
ad er
▁Huy _Hoàng
▁hạ _thủy
ng_đ ãng
all i
▁tiế n_hóa
▁nỗ i_niềm
▁38 9
l b
ath on
▁Doanh _thu
▁mổ _xẻ
id ia
▁bo ong
▁5 70
ph ê
▁v ít
▁B KH
▁cổ _xưa
▁ă n_nh
▁3 .200
▁bằ ng_lòng
▁So ng_song
nh ã
_b én
▁c ấu_
▁sát _thương
▁đơ n_độc
ấu_h ao
▁Tel egraph
▁al ign
▁V ic
▁lợ i_hại
▁nhí_nh ảnh
▁đờ i_người
▁Col e
R A
▁phá _cách
▁tươ i_cười
▁O ff
▁kho _hàng
▁ch ương_m
▁thô_b ạo
▁tb k
ar ov
▁17 9
▁tiề n_ch
▁C r
▁v l
▁Thay _đổi
i_k ý
▁qu ai
▁B at
ch in
▁Haz ard
▁r et
▁nguồn _tiền
▁TB KT
▁B ia
▁chương_m ỹ
▁m ao
▁bữa _trưa
▁blu etooth
▁đạo _lý
▁Vina Phone
▁0, 2%
▁F ace
▁bộ _tộc
▁má i_ch
▁v as
▁Un iversity
▁phụ _sản
▁tiền _thân
▁H ả
▁Con _trai
▁D ream
▁Ch ư
▁dằ n_vặt
▁phô _trương
▁St an
_r ực
▁4 .9
▁thá n_phục
n_h ồng
▁Phong _trào
▁24 %
▁D ụ
▁len ovo
▁9 11
ine z
▁tr ót
c ái
▁yo nhap
▁C ù
▁nhạy _bén
▁1 ⁄
▁w oo
▁Mỹ _thuật
▁m A
▁tạ m_quyền
▁c ort
ad dam
▁K l
_h uyết
ng_ Phòng
ey on
▁cáp _quang
▁xuyên _tạc
,3 5
▁đó a
▁B ir
s úng
▁Amer ican
▁h ab
▁luậ t_định
▁chỉ n_chu
▁P A
▁p re
▁tạm_b ợ
▁nga ng_bằng
ng_m ạc
▁gia dinh
▁lãn g
_t ổn
▁giải_ lao
▁Nhà _B
▁th at
m_h ùm
▁ra pper
▁E u
sh i
▁bel arus
ck er
▁u k
v iệt
▁Chương_ Mỹ
▁n epal
▁phá i_sinh
ig l
▁tập _sự
▁ký _tự
▁l ar
ero on
,4 5
▁K V
▁thứ _cấp
_ng ựa
▁r ầy
▁thủy _triều
▁G eor
▁tỷ _suất
i ent
gi s
▁vô _danh
▁chia _tách
▁ca v
ra g
▁TR ONG
▁mu ội
▁đồng_ giới
ro os
ge y
_N guyên
▁tây _sơn
x ưởng
▁Ư u
▁v ẹn
▁L uyện
▁bất _tiện
ch en
▁N ợ
▁buồ n_cười
ần_đ ồng
▁vp cp
▁22 .000
▁vàng_m ã
▁qu i
▁p lan
gi ne
▁X ung_
▁pháo _đài
min gham
▁HỘI _ĐỒNG
▁VP CP
▁bắp _cải
▁nề n_n
▁bật_ cười
▁kẻ _trộm
▁c âm
▁đò n_bẩy
vi bank
▁s y
▁KẾ _HOẠCH
▁hà ng_ngũ
h ar
_ng ợm
▁Đặ c_
▁gắt_g ao
▁b iz
▁BG TVT
▁Nhà _
▁trậ n_địa
i_ph óng
▁p ress
2 .000
▁Lệ _phí
▁th ạo
▁h tt
▁tường_ rào
▁Len ovo
et ts
▁đính_ chính
▁Bel arus
▁st amford
n_l ồng
▁rình_ rập
▁khiếm _thị
▁bg tvt
▁C ắt
▁v ữa
6 .000
▁Chi _tiết
▁đ ĩ
▁St amford
▁an tonio
y ad
▁co lor
▁trú ng_cử
▁nhà _thuốc
ng_nh ắc
u_s ửa
az er
▁hoà ng_kim
k íp
▁la i_l
▁tính _tình
m ir
▁R ec
▁b ủ
▁N ổ
▁vật_ phẩm
▁PC T
▁nguyên_ mẫu
▁cứ ng_c
▁D ar
▁M ạng
▁mùa_ vụ
▁w ayne
▁Moh amm
ara guay
▁đ iếc
Ĩ NH
▁NG ÀY
▁cứ ng_nhắc
▁Tây _Sơn
▁An tonio
L B
▁nguy _cấp
▁R ừng
▁X í_nghiệp
▁đồ ng_lòng
▁hà ng_quán
▁H ee
▁hạ c
im ex
▁Th ơm
▁diễ n_văn
ri go
▁g e
▁tra ng_lứa
▁anh_ch ồng
▁W ayne
▁b xh
▁VN M
▁co upe
▁vườn _thú
▁C ạnh
▁l ìa
▁bồ_c âu
▁k ir
ah n
▁nghịch _ngợm
▁x vi
▁A V
▁thư _pháp
▁bến _thành
ev o
▁j a
un es
▁ph i_đội
▁L ump
pe nh
▁cấp _tính
▁y our
▁Nhà_B è
▁l exus
_N G
ng_n ão
▁tr ip
▁24 5
▁b ên_bán
▁kiều_ hối
▁B ưu_chính
▁khá n_phòng
▁k r
▁Bus iness
▁F al
p r
n_n ỉ
▁giao _cấu
▁lại_ người
▁thượng_đ ế
▁Trung_ bình
▁a ct
▁7 .5
▁Th y
_v à
▁quốc_ vương
▁sĩ _tử
▁pha _lê
▁kh ấu_hao
▁di_ch ứng
▁cá_c ược
▁Đ ƠN
▁thực_ dụng
▁ ỷ
▁Lữ _đoàn
▁4 10
▁Tr ánh
▁23 5
▁du terte
▁Chỉ _tiêu
▁long _trọng
▁CÔNG _T
ượ m
▁thường_ dân
▁tiềm _tàng
▁cầu_m ong
▁việ t_
lai r
▁k os
▁A wards
▁l ấn_
▁nam e
▁ch át
▁n oo
▁t u_sửa
▁điể m_ảnh
w ein
▁B ê
ach us
m_h óc
f ace
▁hiể m_hóc
▁trung_ hòa
▁PH ÁT
▁Blu e
▁v ạt
od ay
▁med vedev
ond uras
▁B ù
B ảo
▁F ar
_h ẹp
▁ amp
▁28 %
▁cầu_ xin
▁Du terte
_nh ủ
▁đạ i_đội
▁Bến_ Thành
▁Gh i_
ne um
.200 9
n_ Châu
▁tiế ng_pháp
▁kê _biên
▁linh_ mục
▁Med vedev
is ter
▁học _thuật
_TH U
▁a qu
▁F TA
▁lý _trí
um ber
▁Thành_ công
▁south ampton
od e
▁Ngườ i_dùng
Ạ M
s ét
▁Liên_Hiệp _Quốc
▁khuy ên_
_l e
n_d ò
▁cam eron
▁viếng _thăm
▁bu t
_v ẫn
m es
▁South ampton
ng_nh ọc
▁NGUY ỄN
on to
▁can nes
ỉ nh_
▁ph ilipp
▁thợ _săn
▁n y
n_ C
▁x x
▁Kho á
_n ắng
▁lu x
▁dâu _tây
▁F 1
▁195 1
▁n ational
▁ủy _nhiệm
▁Thủ _môn
▁tc vn
▁K al
▁quá _đà
▁r èm
▁Ku ala
,0 5
▁lạ c_l
▁sinh _tồn
▁nặ ng_nhọc
▁hàm_r ăng
▁hết_l ời
▁hạ _du
▁Can nes
▁S ea
▁N oo
ym e
▁phi_l ý
▁nâ ng_đỡ
▁51 2
_l ách
_v on
▁ku ala
▁nội _trợ
▁B XH
▁đoà n_khách
▁Cam eron
▁E ver
▁da _liễu
▁Th ép
▁TC VN
▁b ói
▁hóa _lỏng
▁chữ _viết
man uel
ng_b ước
and ro
Ch ương
▁mã n_kinh
▁Nó i_ch
▁mũi_t ên
▁nă n_nỉ
j in
b uổi
▁qua ng_minh
▁B ash
g ội
▁p lo
▁B rom
▁N ÔNG
_d ai
▁cá_h eo
cử u
▁L âu_
▁0 .9
▁n uối
ev ille
▁gi l
▁lă ng_mộ
▁biên_ nhận
▁Yo nhap
▁tbk tsg
▁0, 3%
▁chập _ch
▁s ỉ
▁tự _nhủ
is ton
▁bệnh_ án
▁con _tim
▁d ìm
▁xe_l ửa
▁hu ống
▁TBKT SG
at um
▁mó n_hàng
▁H ổ
▁xuất _tinh
ut ion
▁13 ,5
▁Mậ u_
▁mê_m ẩn
ar on
▁v cci
▁ ú
▁d ỗ
▁Kỳ _họp
▁13 0.000
▁M ậu
▁chầ n_ch
▁trung_ lập
▁Ch ạy
▁N epal
▁i on
▁đánh_ r
▁dặ n_dò
▁chiều_ch uộng
▁styl ist
▁cách _điệu
▁con_ ra
▁nh áy
Ph át
▁thâm_ canh
u_ yếu
n_ch úc
▁máy _lạnh
▁n ắn
õ a
▁10 80
▁5 ,1
▁hình _tròn
ng_đ ạo
_d ặt
▁thụy _sỹ
▁mA h
▁t ỵ
▁hụt_h ẫng
▁j azz
▁p es
▁tự _vẫn
▁o an_
▁b undesliga
_m òn
▁khô _hạn
▁N orth
▁Việ c_làm
▁hạn_h ẹp
d ã
i_h ọa
▁V CCI
▁chuyê n_cơ
▁16 9
▁ end
▁tuy _hòa
ill erson
▁car l
▁Ch uyên
▁R à
▁n oi
ant om
▁P rin
imb ab
▁tận _tâm
▁tiên_ quyết
▁lum pur
▁rock et
,8 5
ut inho
▁Thời _tiết
▁hiệ u_số
▁mẫu_m ực
▁L exus
▁cam_đ oan
q qa
▁sát_ nhân
▁Hà ng_
▁C av
▁in c
▁Tài_ sản
kh oáng
▁điệ u_đ
K ết
m ột
▁B ec
▁Blu es
D Đ
▁dè _dặt
all as
▁tri_h ô
▁qđ nd
▁B undesliga
▁ áng
▁C ore
▁sắc _thái
▁GI Á
▁Nhà_ ở
▁tha i_sản
▁T ấm
▁f ta
ez b
▁ngôn _từ
▁tậ n_cùng
▁QĐ ND
gi ờ
▁cà phê
▁l ib
▁công_ giáo
▁cửa _hiệu
▁Th ẻ
▁b oss
▁Đô _đốc
▁air bus
▁i f
▁euro zone
▁qu a_b
▁thời_ buổi
▁khẩ u_đ
_x íu
a_c ao
ab ul
ent ial
Nh ơn
i_r ồng
M S
▁ho use
▁đ ộn
▁s ê
n_gi áp
▁Tuy _Hòa
đ oạn
▁v ựa
▁Hội _thi
t our
▁lẫ n_lộn
▁Lump ur
▁đ ằm
▁ н
▁and y
A F
w orth
▁che _phủ
▁N ỘI
▁Công_ báo
t_n iệu
▁r uộ
▁vĩnh_ cửu
_n ang
H ội
▁Thụy_S ỹ
Th ân
▁T ả
▁bao _dung
do s
▁ át
▁Air bus
▁6 40
_trung_ hải
_m ó
▁lễ _tang
▁lai_l ịch
▁tiếp _tế
ĩ u
_th am
▁trong _trẻo
▁h art
▁b xd
▁nguyên _tố
▁Car l
▁And y
▁tô m_hùm
n_đ ứng
▁na n_giải
_l ão
▁Ch amp
▁hầ m_h
▁PV C
▁khuấy _động
,4 0
▁s ent
▁T ao
▁Dự _trữ
ng_đ iện
▁l iếc
▁B XD
▁2 .300
▁m d
▁t gđ
▁d eb
▁S ữa
▁Ty pe
▁h ờn
▁TG Đ
▁b re
_h on
▁b ỡ
▁K an
▁GI ẢI
▁bánh _tráng
G iêng
th ew
▁yể m
▁Áp _dụng
▁công_ luận
▁lam borghini
▁đánh_r ơi
▁M et
▁Thẩ m_định
▁xích _lô
ed ad
iss a
▁m ướp
▁đầu_ sách
▁uy _lực
▁tạp _chất
▁bắc _trung_bộ
as y
o on
▁th ỏi
im us
▁địa _trung_hải
iề n_m
▁t anh
▁ngó n_chân
K im
▁ch ar
▁M ầ
▁xương_ s
▁ ùa
u_v ùng
R S
▁Hậ u_vệ
▁hẻo _lánh
x ỉ
ễ u
▁h ắ
▁hung_h ãn
▁Tr ại
▁che n_chúc
▁bt p
▁V AT
Q P
á ng_ng
áng_ng ợp
▁đó n_đầu
▁B TP
▁Lam borghini
▁chân_ không
▁dinh _thự
▁vô _duyên
▁tr ick
▁lẻ n
lin s
▁x ới
▁Pháo _thủ
▁c zech
▁er dogan
▁Phương_ Nam
▁Thiếu _tá
▁d ragon
▁ng á
▁Er dogan
▁gi ggs
▁bất_ mãn
▁t ony
▁vòng_v ây
▁kh inh
▁Ngoại_ ngữ
▁trớ _trêu
alk er
▁sn apdragon
▁Gi ggs
▁le n_l
b ội
▁L eo
_NGH Ị
▁con s
_ ảo
▁manh_ mối
_đ ói
c am
ri o
Qu ý
n_đ ới
▁học_l ực
▁nhà_ ăn
▁D T
ood y
▁Chàng _trai
_C ông
▁Nh i_đồng
▁sw ift
▁trẻ _thơ
▁ao _ước
▁lồ ng_ngực
r il
itt le
▁6 ,9
Tr iều
▁h tm
imbab we
▁dis ney
▁kiê u_h
▁b ứt
▁chứng_minh _thư
▁ql tt
▁h 50
▁bịa _đặt
_c ục
▁ch ang
▁lấn_ át
▁thiên_h à
_h iến
▁phá n_đoán
_v ế
▁đầy_đ ặn
▁tử _tù
▁Đ Ề
▁phun _trào
▁p itt
Ô N
b ậc
▁VN A
▁góc_ cạnh
c_b ình
_ph ào
▁Hữu_ nghị
▁phác _đồ
r um
▁Vương_ quốc_
nh ớ
▁pv c
u da
a_Tr ung_
▁start up
▁tâm_đ ắc
▁Vương_quốc_ Anh
▁o b
▁hà ng_b
▁gờ m
u f
ezb ollah
v ey
▁khó _xử
▁Ch iêu
▁1. 00
▁raf ael
▁mít _tinh
▁T ony
▁K ir
▁d h
t_b át
▁Đị a_Trung_
▁je ff
▁m ài
▁Dis ney
▁giải_ph ẫu
iv ic
t_ng ọt
▁Th iết
▁lao _đao
▁L ương_
_b óng
_v ặt
a_c à
ail ym
w ski
▁sc ar
▁Vương_ quốc
ng_ch ạp
▁C zech
T ú
ru d
_gi ống
b í
▁a n_phú
▁Diễ n_biến
ap ol
▁buồ n_ngủ
▁Dư _luận
▁dầu_ gội
▁sâu_ đ
▁em irates
ng_d âu
▁nuối _tiếc
▁Đ àn
▁lễ _tân
▁Xuất_ khẩu
▁Sn apdragon
▁b úi
▁Biên _tập
▁20 9
▁quý _m
▁7 30
ash ian
▁t er
▁cung_ bậc
▁cù _lao
n_ quân
ep end
▁Raf ael
▁Doanh_ nhân
_qu ặc
▁ngớ _ngẩn
▁ê kíp
▁R S
▁QL TT
t_đ ỉnh
▁giả _thiết
en ne
al s
a_ ph
▁g ài
▁đất_ sét
▁la w
▁j uve
_d ỏm
▁bỏ _ngỏ
is ion
▁Hiện _tượng
▁Mầ m_non
▁J uve
▁đổ i_đời
▁mir ror
▁tech combank
is ha
▁mẹ _nuôi
▁Địa_Trung_ Hải
▁Nh o
_k inh
▁tiền_ch uộc
▁ly _thân
▁thá ng_chạp
▁ấm_ ức
▁Khảo _sát
v ic
da q
▁an na
M ột
▁an kara
_gi ao
u ê
▁g aza
▁An kara
d đ
▁hồ i_ký
N S
ell aini
▁h ầu_
▁ngơ _ng
_k iệt
▁Je ff
▁dí _dỏm
▁VI P
▁dương_ xỉ
▁chiê u_đãi
▁G aza
▁s ụn
eu er
▁g ates
u_kh ống
_n ức
▁thở _phào
▁cho i
▁Ch ăm
an cial
▁nhịp _nhàng
▁hòa_ phát
▁98 %
▁games how
▁th ớ
i_b ời
▁nhật _tân
▁Em irates
▁X X
▁điện_b áo
▁d uyệ
▁thă ng_hạng
▁bò _tót
▁X ăng
▁thời_ báo
▁Ước _tính
▁áo _ngực
▁g ỏi
s m
▁l ác
▁Vit amin
▁quyết_ sách
▁ghen_t ị
▁An_ Phú
▁đại_ ca
▁làm_ công
▁Giải_ quyết
H ồng
▁s lo
ầm_ uất
,8 0
n_gi ó
▁27 %
ut ch
▁n ỡ
▁6 .4
▁s or
▁kha i_kh
m_g ọn
g ap
▁46 0
▁ed ge
ru ce
▁xua _đuổi
▁thiết_ nghĩ
iền_m iên
▁sò ng_phẳng
ch el
g ai
o f
▁G ates
_đ êm
▁lép _vế
am ex
C ực
_ ấu
▁au to
elb eck
▁s ấm
n_ph ận
qu in
c_b ọt
n_ng ôn
▁Rà _soát
▁d á
▁s ầm_uất
a_c on
▁kiểm_d uyệt
▁nh ếch
▁vhtt dl
as ka
▁thành_ đoàn
c ánh
▁19 1
▁trực _tràng
▁VN Index
ng_ Hòa
ann el
▁An na
▁B B
▁Thố ng_nhất
▁ ams
▁v âng
▁khảo _nghiệm
ard ashian
n_đ ẻ
▁thơ _ấu
▁trắng _trợn
▁D P
iez mann
▁th is
▁S car
▁ch ĩa
▁y ingluck
_tr ệt
m m
▁tầm_v ới
▁nh e
▁Y ingluck
▁thể _tích
▁5 .8
▁o pt
▁Nh ập
▁thầ n_bí
▁ab c
▁X ÂY
▁tr iền_miên
▁nhu ậ
Â M
▁ub tv
▁hành _trang
▁bực_ mình
col n
ho ang
▁thực_ hư
av el
▁UB TV
▁thả m_hại
▁Phát _thanh
▁S ổ
▁lồng _tiếng
▁Vă n_học
▁tiểu_b an
▁VHTT DL
_t ản
,6 5
4 00
▁w olf
▁ ủi
▁cơ _học
eport ivo
O C
▁sâu_đ ậm
L ưu
_s ang
▁Nhật_ Tân
▁qu ăng
▁phong _thái
▁T ạm
▁A pp
p earl
▁Giải _thích
▁T ouch
▁v ặn
▁xúc_ xích
▁thương_ gia
▁E lect
▁xa_v ời
▁pal ace
▁Ph ilipp
▁Dĩ _nhiên
▁ax ít
O R
▁Ch en
▁5 ,0
▁193 9
▁Nh ắc
▁sg k
▁27 5
▁r ain
▁Cơ _cấu
▁Hòa_ Phát
▁26 %
▁r y
▁THU ỘC
▁sa f
▁đường_ nh
▁ro ad
▁b ai
_ch ữ
Qu an
▁1. 10
▁to _tiếng
▁SG K
▁M ông_
▁sắc _tộc
▁Bài_ viết
▁né t_mặt
▁tam_ kỳ
▁22 4
▁K INH
▁Cố _ý
▁bổ _trợ
▁bào _chế
9 00
▁mông_ cổ
▁st oke
▁Gi àu
▁St oke
▁đơn_n am
un er
▁Thế _vận_hội
▁thì _giờ
▁bến_đ ỗ
,6 0
▁ví _von
▁Tech combank
▁quý _phái
▁chiêu _thức
▁xô _đẩy
a_m ai
u_ g
▁dẻo _dai
▁gen eva
_th oa
ailym ail
achus etts
▁l es
▁công_b inh
▁H art
▁hộp _đêm
▁Th á
▁Khở i_
▁già n_giáo
▁K os
it or
▁Bal otelli
▁20 8
▁Độ ng_cơ
▁Gen eva
▁lạ nh_
▁H or
▁la _liệt
▁mắ t_c
yr us
▁bal otelli
▁văn_h iến
▁nhă n_nh
▁vă c
▁cần_c ẩu
att an
▁tu ồn
▁D ragon
_m ích
▁bực_ bội
▁tái_ hợp
▁C ừ
▁bị ch
▁Pal ace
▁An n
▁Lã i_suất
ir es
▁p orsche
▁y u
ci edad
▁hú t_hồn
_Th anh
▁t cn
ly n
▁Tì m_
▁18 00
ian e
ng_ V
ib e
▁kh ấn
▁ca _trù
▁h uawei
n guồn
▁nướ c_bọt
▁g lu
▁xế _hộp
▁v u_khống
▁vật_ch ứng
m_n ão
▁th ong
▁kỉ _lục
▁Ngữ _văn
_nh ược
ho u
▁bộ _lạc
▁194 3
m el
▁o i
▁I T
▁e 5
ak ov
▁chố ng_cự
▁b b
▁cử u
▁sân_ bóng
▁bám _trụ
▁Cap ital
▁lão _thành
▁16 ,5
▁tro ng_v
t_b inh
▁cầ n_giờ
abri el
_Q uyền
▁H ab
▁C it
▁L ạc_
▁xa vi
▁Pháp _Luật
▁5 30
▁dân_ dã
om at
▁r ight
m_r ửa
▁K ang
▁P itt
▁cao _trào
t_ng ạt
▁Th ưởng
▁anh_ minh
▁điều_ độ
▁Ph i_
▁m iến
▁T CN
▁bảo _việt
▁in t
▁Khuyế n_khích
▁tù _và
▁39 0
▁thanh_l ọc
u_d ịch
▁nà ng_dâu
▁g án
z an
▁nghèo _đói
▁tận _thu
▁mang _tiếng
▁n ín
▁r ụ
▁thiếu_ gia
▁qua l
o áy
ag awa
▁h as
▁H uawei
▁Tam_ Kỳ
▁Đ ỐI
▁ngà _voi
▁điệu_đ à
▁Tìm_ kiếm
▁sân _trường
▁đáo _hạn
▁ta i_họa
▁Lu ôn
▁Quốc_ khánh
_ Phong
won do
▁canh_ gác
▁m uộ
▁chần_ch ừ
▁Gia dinh
▁h tv
▁r ư
▁ND ĐT
▁ngại_ng ần
▁dâm_ ô
▁hỏa _táng
▁đ ột
▁nd đt
▁hoà n_vốn
▁x óc
▁e bola
▁THA NH
▁những _tưởng
▁cây _giống
▁d u_hành
▁ngộ t_ngạt
▁băng_đ ảng
▁Mông_ Cổ
▁t ar
▁I E
▁ ông_t
▁Mi G
▁Th ất_
▁Khoá ng_sản
▁Ghi_ nhận
▁giao _phó
m ed
▁kiể u_mẫu
▁Theo _dõi
▁c ross
▁xích _mích
h ơi
▁Th ạc_sĩ
▁n iên_h
ste iger
▁can on
▁P orsche
▁áo _mưa
▁H igh
▁g errard
▁n in
▁tuyế n_giáp
t_ qu
_ph ối
at on
B ook
▁ “
▁cho áng_ngợp
▁cấm_đ ịa
▁đườ ng_biên
▁Tiếng_ Anh
▁lọ t_l
▁giườ ng_ngủ
m_m áu
▁tháng_ Giêng
▁dự _kh
▁h em
▁Ti n_học
▁down load
nh_m ai
▁hoà ng_nam
▁H TV
▁hoa_c úc
▁20 7
▁V iễ
▁l ửng
▁THỦ_T ƯỚNG
▁tháp _tùng
▁s ap
▁trung_ bộ
▁ha wai
▁nghi_ng út
▁Bảo _Việt
▁đè n_
▁tr iển
▁ch ùi
▁d z
▁đờ n
▁chiến _tuyến
▁đồng_h ới
▁b 1
▁ ì
▁htt ps
▁ngo ài_
▁Ch oi
any ol
▁E 5
▁bạc_ hà
▁L ự
c_đ ãi
▁Đại_ úy
ai i
▁A qu
▁duyệ t_binh
▁Tr ì
▁G errard
_tr á
▁AD N
ur ridge
▁v ần
▁cast ing
▁hec ta
▁21 4
us a
▁sơ_s ài
m_x ăng
_t át
▁táo _tợn
Ng a
▁sá ng_mai
▁nhạc _trưởng
▁V i_phạm
▁quý_m ến
▁tự _truyện
▁fran ce
▁h ắc
▁chân _trời
▁Đồng_H ới
▁công_đ ức
▁diễ n_châu
ris on
wein steiger
▁quá _đáng
_t oái
▁Th i_hành
▁t ề
p m
▁vô_c ớ
▁ngang_ng ược
▁thám _tử
▁cơ _trưởng
▁hậ u_duệ
▁el izabeth
_D Ự
▁đào _hoa
▁N à
il et
▁and rew
▁V ĩ
▁l ộn
▁Quang_ Minh
_t ê
▁tiế t_niệu
▁do ping
▁Cô _nàng
▁Sw ift
▁lũ _trẻ
▁ ”
▁rò ng_r
▁ngô _quyền
_g ửi
▁B ak
ina wa
z cz
ng_ ăn
▁do l
▁do ji
a_m i
▁phố _phường
▁rú ng_động
▁từ _trần
▁Đ ánh
▁bành _trướng
▁Kh e
▁vò i_rồng
▁C ách_thức
▁tiề n_giả
▁vách _đá
▁th ần_đồng
▁tắ m_rửa
▁d mitry
▁ngơ_ng ác
n_l ộc
i el
i_đ ắp
ấn_l ướt
▁độ _vĩ
▁th ót
▁D mitry
▁Cát_ Tường
▁Tam_ Đ
▁qua ng_cảnh
▁chuyê n_c
▁om ega
▁Diễ n_Châu
y th
_x ảo
▁cầ m_ch
▁phot os
▁hướ ng_dương
▁chỉ _tay
▁phiền _toái
▁tiếng_ Pháp
m_h ỉnh
▁T iê
▁x í
ac y
▁5 80
▁Cơ _chế
▁dừ ng_bước
l ắng
▁G ạo
▁hc b
_t uộc
_c ội
▁ấn_độ _dương
▁E bola
▁gạo _cội
▁đị nh_đ
▁ad b
▁K B
nh_ diện
▁l ấn_lướt
_r ô
▁giadinh net
▁đầm_ ấm
▁cốt _truyện
▁st even
g ate
_l ọc
▁Ngô _Quyền
ri end
_v ôi
▁tiếng _tăm
i vi
g as
▁đồng_ quê
▁H CB
▁thiên_n ga
▁hó m_hỉnh
f ish
▁Hu ấn_l
ando wski
▁là m_l
▁Cần_Gi ờ
k iên
ne ij
▁thường_ nhật
▁đắ n_đo
_xỉ n
▁21 8
ng_d a
▁d ell
▁C ard
C L
st ant
ent ino
k ệ
qu ez
▁bộ t_ngọt
n_n ồng
▁đ iêu
▁7 ,8
ng_s ĩ
el ia
▁4 ,0
▁El izabeth
▁lý_l ẽ
▁tủi _thân
▁màu_c am
neum on
▁đặc_ cách
▁tó m_gọn
un i
▁cổ_h ọng
▁20 6
▁thực _thể
▁so ạ
▁So ng_
▁thanh _tú
▁a st
▁mặ n_nồng
▁V ỚI
▁quân_ hàm
▁trung_ du
L ộ
▁phơ i_bày
_l oa
▁33 %
▁u zbekistan
▁áo_ph ao
▁tiên _tri
▁kiề m
_S ÁCH
▁f u
ận_ án
neij der
▁Nh a
▁bồ i_đắp
▁Ý _kiến
▁Độc_ giả
▁chớp _nhoáng
▁nương _tựa
▁sâu_ lắng
_DỰ NG
_L ương
▁sg gp
▁C ốc
▁kiều_ nữ
▁Hoàng_ Nam
▁XÂY _DỰNG
▁xương_ sống
▁And rew
▁bul garia
om s
▁bản_l àng
▁21 7
▁St even
▁phòng _thu
▁ngăn_c ách
our g
▁phản_ kháng
▁uy ể
▁vam c
▁VAM C
▁Giadinh Net
▁Can on
f eld
▁văc xin
ng_s ức
▁vật_v ã
▁viên_ mãn
▁L aw
erb ai
▁Tim e
▁quan_l iêu
x ót
▁Th ân_
▁7 .500
▁hã nh_diện
a_m ã
▁co t
▁xã _giao
▁ ẵm
▁say _xỉn
▁V ui
_ng ẫm
▁ngỏ _lời
▁máy _xúc
ng_v òng
▁Bul garia
Ò NG
ng_ch uyên
L ãng
▁vă n_m
▁người_ xưa
▁thụ _thai
▁n ện
▁ăn_n ăn
▁6 ,1
▁CH UNG
d inese
▁St ore
▁Vụ _án
▁thể _trạng
▁hiế u_học
▁As us
▁x ướng
▁luận _tội
▁đ út
_t uyết
▁thư _mục
▁D ol
▁6 ,5%
▁K ích
▁lạnh_l ẽo
▁Giả i_phóng
b le
c ap
▁cảnh_ giới
▁đầu_ số
▁viê m_não
▁đạ n_dược
f u
▁U zbekistan
v ers
c iter
▁hò _h
▁7 .3
▁R ai
Đ K
▁d át
▁Chung_ kết
n_b út
UY ÊN
_h à
ph al
eb ast
▁B ữa
▁ph ồ
to is
▁đt dđ
▁trách _móc
▁biệ n_minh
▁shin zo
▁m 50
▁kiêu_h ãnh
hm ed
▁N ỗ
▁chiến _tích
n om
▁ĐT DĐ
▁m all
▁nhó m_máu
▁Shin zo
▁s s
▁H è
▁ms n
ng_n iu
kh uẩn
og o
▁thu_ nhận
▁ngu oi
▁G ot
▁uyể n_chuyển
▁6 20
▁6 .500
men ia
▁ocean bank
▁đệ _trình
▁va _đập
ar u
ar ay
▁trụ _trì
▁s ầu
▁C le
_m iệng
_ ướp
▁br exit
▁nh ơ
▁Fran ce
▁tinh_ nh
▁Đơn_gi ản
▁yếu _thế
_nh ác
h r
▁robert o
ị nh_
▁g un
▁tố t_lành
▁BTN MT
▁btn mt
gi úp
▁Cuộc_ chiến
▁k elly
▁tinh _thể
▁Đ inh_
▁L ĩnh
▁hành_ pháp
▁ub ck
▁j akarta
▁A K
▁21 1
▁l td
▁2 .700
▁UB CK
▁kim_l iên
▁br unei
▁sec ret
▁co n_đẻ
▁g ắt
▁mất _trộm
▁H iến
id en
▁thanh _thoát
▁AD B
▁Đ ƯỜNG
▁vu ông_
▁xúc_ cảm
▁Robert o
▁Br exit
ng_l ão
▁công_ danh
▁Mỹ _T
c io
▁tham_ lam
3 .000
ust a
▁14 0.000
_ng ỡ
▁của _cải
▁n ak
oc us
▁Ấn_Độ _Dương
▁lò ng_vòng
▁s án
▁c ướ
▁áo_l en
▁b ầ
▁bản _thảo
▁trắ ng_m
▁sc ott
▁v ec
▁Bạ n_đ
g es
▁thanh_ nhạc
▁ảo _tưởng
ho use
ng_đ iền
▁Đ ương_
or us
▁N ational
▁bang ladesh
▁phó _ban
i_đ ồn
▁cao _do
ro und
▁bay _b
▁tâm_ niệm
▁J akarta
▁run_r ẩy
ast ic
▁cổ _trang
▁đất_ công
▁S ắc
_th iều
c_l òng
▁l a_mã
▁công_ phá
▁75 .000
▁suy _ngẫm
▁mộc_ châu
▁Đ ăng_
▁K elly
▁cao _đẹp
,7 0
▁tiền_b ối
▁D ai
▁tố ng_đạt
▁br it
▁điệ n_áp
▁bỡ _ngỡ
▁Phê _duyệt
▁do _d
▁T ào
▁phá n_xét
▁và ng_
▁nat ri
▁er ic
and y
▁Mộ t_khi
▁quyết _thắng
▁đình _trệ
▁ph ông
▁l ung_l
▁kh ế
▁Bang ladesh
▁193 6
▁g arden
a ac
▁f ly
▁Br unei
o óc
▁m út
▁già _làng
▁blu ech
▁Kim_ Liên
▁h 5
▁hiểm _trở
▁thước_ phim
▁3 .600
▁Sc ott
i_s ướng
▁Thạch _Th
▁e cuador
▁b lan
▁Nguy en
▁ Ẩ
▁gầy _g
▁m ửa
▁quả ng_đông
▁đại_ n
▁xâm_l ấn
d ie
▁j essica
▁mậ u_dịch
▁ung_ dung
▁to wer
▁Mộc_ Châu
▁phản_ diện
ag ement
+ 1
▁ch òm
▁thuốc_ độc
▁8 .2
▁hậu_ phương
our i
▁rư ng_r
▁ng ồ
▁Y u
▁th iệu
▁săn_b ắt
att le
▁Quảng_ Đông
▁Đ oa
▁a n_nh
c_b én
all ing
▁a n_bình
ng_l an
▁C ướp
▁nhanh_nh ạy
▁L ive
▁t evez
▁W olf
▁kết_ d
▁J essica
▁đê m_hôm
▁tinh_ nghịch
▁vấp _ngã
O M
▁sắ c_bén
▁đối_ kháng
▁gi ùm
▁ho ld
▁nhân_ bản
erbai jan
▁đàn_ áp
▁christ ian
▁F rom
▁11 ,5
▁nâ ng_niu
▁r ông
ez il
▁Giáo _viên
▁quân_ dân
▁n ặn
amil y
R E
▁con te
▁v d
▁công_ nương
▁T evez
▁chợ _đen
▁bài_ ca
▁h ũ
▁c 1
▁P art
▁H ọa
▁đại _thắng
▁an _thần
▁ho ảng
▁bu ốt
yr gy
▁VI C
▁Con te
ar in
▁C ook
m_ng uy
▁900 .000
i_b ỏ
▁da_d iết
▁di ez
S inh
▁phân _trần
_d ẫm
▁dã _ngoại
▁j ay
▁qu ẹt
▁C ung_cấp
▁Q uyển
▁tâm _thế
▁vân_ đ
▁Bảo _đảm
▁Không_ khí
▁hawai i
▁D ạy
▁cao _thủ
▁mắt_c á
▁H ạng
▁t ườ
▁Bạn_đ ọc
▁lão _tướng
▁s r
▁kỷ _vật
▁nội _tệ
ubl ic
▁j ournal
▁14 ,5
▁m a_m
ra w
▁22 2
▁J a
▁p ô
▁Christ ian
▁đường _trường
▁Ba_ T
▁D ell
▁r im
et e
▁văn_đ ức
▁D àn
v ang
ink a
▁mas ter
qu ần
▁thiếu_ úy
D anh
▁xạ _thủ
_s áng
▁s ri
_ph ách
▁bụ i_b
ow a
▁D iên
▁0 .5
▁ch ừ
▁vu i_sướng
đ k
▁25 5
▁Sao _Mai
▁c ối
▁dầu_m ỡ
ell s
▁pha n_anh
▁trà _sữa
▁ta e
_qu áng
▁Thành _tích
▁mỉ a_mai
▁L áng
▁giám_h ộ
▁ch ông_
n_đ ích
▁l ẩ
_t ấc
ow ell
▁trực_ quan
▁2.1 00
t_ch ì
m_d ọa
▁lu ận_án
_g ốc
▁ki en_thuc
▁ar e
▁Mù a_hè
▁Th ương_hiệu
▁gang _tấc
▁nổi_c ộm
ru ồi
▁A y
▁ash ley
▁khăng_kh ăng
A D
▁đặc_ phái
▁21 6
▁ma u_ch
ax i
▁ba shar
▁r ể
t_nh át
▁ngày _công
_t ẩy
▁d im
▁hă m_dọa
n_n át
▁piz za
▁Bash ar
▁q n
▁gh i_danh
▁im ages
▁hao _h
▁q c
cel and
▁b a_con
_l ò
▁SỬ _DỤNG
▁QU ỐC
n_đ ội
▁cứu_ giúp
▁Rạ ng_sáng
▁6 10
▁S uy
▁ch icago
▁chặ n_đứng
_t ơ
▁Lu x
▁Ser ies
▁mù _quáng
▁v ồ
▁men u
▁duy _tân
▁TH Ị
▁Ash ley
▁đúc_ kết
▁chị _dâu
▁Văn_Đ ức
▁ ó
▁16 0.000
▁d u_đ
▁s lam
▁g ặt
▁mo i
▁S ent
▁Chủ _động
▁đào _b
▁linh_ c
m ắt
▁NH À_N
_r ửa
▁mâm_c ơm
▁Haw aii
▁muỗ ng_canh
▁NHÀ_N ƯỚC
▁kẻ o
▁roy al
▁uran ium
▁suy _nhược
▁ch óng
eres a
▁La_ Mã
ag er
▁Quốc_ Khánh
n_d ạ
k os
▁cầm_ch ừng
▁lờ i_đồn
▁J ay
bur y
▁B iệ
▁Ch icago
▁2 .800
▁Ý _tưởng
o ch
yrgy z
▁Đ ẦU
▁mê _linh
▁quy _ước
▁r ờ
▁hiể m_nguy
▁d t
▁nhú t_nhát
l ay
▁g ạc
▁kho _tàng
▁f ernando
▁đậ u_đ
▁hữ u_d
▁B all
▁S âm
ng_v õ
z er
▁Cl ass
▁nhuậ n_bút
i_c ạn
▁trọng _thể
▁4 50.000
4 .000
▁ngườ i_người
▁m es
▁hoa _đông
▁X u_hướng
▁thả m_c
▁kháng _thể
▁diễ n_đạt
▁đánh_ v
▁khi nh_
c_m ắc
▁truyề n_dẫn
▁hù ng_h
▁ р
▁phô _mai
▁họp _mặt
n_d ầu
▁ste phen
▁cá n_đích
▁T uyệ
▁định_ chế
▁trung_ phong
▁E cuador
▁sc ic
ng_x oáy
▁độ _dày
▁han oi
▁F ax
n_c ư
▁MS N
▁Tiể u_đ
▁giở _trò
▁qua_b ao
▁n ứa
▁Blu etooth
▁Ch ờ
▁B h
▁nhịp _độ
▁fran cisco
▁l ampard
▁mù _mịt
le d
▁ic eland
▁cầu_c ảng
ot ball
▁F ernando
▁Phan_ Anh
▁ế _ẩm
▁T ý
▁Tâm_ lý
▁L ampard
▁huy _hiệu
▁bản_ dịch
ord e
▁C ộng
▁hải_đ ăng
▁p rim
▁do w
▁đại_ dịch
▁b ird
▁p ast
▁so ái
▁Fran cisco
c ation
_m ộc
_th ạnh
ạnh_ lòng
▁ £
az e
▁to wn
IỆ U
n_ho ang
▁thế _kỉ
▁H U
▁m un
▁mar gin
▁SC IC
▁ă n_liền
▁bụi_b ặm
▁ngất_ng ưởng
kin s
ng_đ iệu
▁l ườ
▁Ste phen
▁Khó _khăn
n_ng ẩm
▁4 70
▁linh_ đ
▁M id
▁Ô _tô
rem ium
▁độ i_phó
▁Qu al
▁b ông_
▁Công_ lý
Ch iểu
▁c rystal
n_ch ấn
_đ àn
▁p ic
▁32 %
▁1.9 00
iên_l ai
ng_đ oán
▁Q C
▁vin com
_t iếu
▁nấ m_m
p rom
Ph ượng
▁bạch _tuộc
▁Hoa_ Đông
_TR IỂN
▁phụ _liệu
▁mau_ch óng
▁br ussels
▁C enter
ack er
▁C ải_
▁định_đ oạt
▁Mê _Linh
▁s ystem
▁h anoinet
▁l a_
▁H anoinet
▁trú _phường
▁ch àm
m_h iếp
ers h
▁b is
▁r ắ
▁v ẩy
▁giả n_đơn
▁yên_ ổn
▁Kh ám
▁ch iểu
h ãi
▁S us
▁0, 4%
▁tinh_nh uệ
▁t ã
▁đơ n_lẻ
▁hộ _vệ
▁r s
▁mặt _trái
v ez
▁ăn _thua
▁I celand
eb idae
▁chữ _số
▁f ur
▁quanh_ co
▁PHÁT _TRIỂN
▁trườ ng_chuyên
▁ông _trời
▁thanh_l am
▁Br ussels
▁ ái_
ir lo
ed l
▁hiệp _thương
▁thành_ danh
let t
▁ ơ
_B ắc
▁va n_xin
6 00
▁ly on
▁HO ẠT
n_ ảo
es la
▁Vệ _sinh
Á NH
▁S ty
▁193 8
▁b ửu
▁hã m_hiếp
▁Vật_ liệu
▁Thế _chiến
m_b ệnh
▁Th ẩm
▁đá _vôi
▁tí a
▁V D
t_k ính
▁hài_ kịch
kh ail
Ạ N
_n ô
g art
▁Sự _thật
ng_ph á
▁hào _phóng
ur ity
▁L ũ
▁tuyển _thẳng
▁trườ ng_đ
▁tiế t_giảm
il m
▁đắ c_địa
▁kỳ _thú
▁chố ng_phá
_d è
▁nộ i_đồng
▁P i
▁g ẫy
▁nhẫn _tâm
▁cẩ m_ph
c_c ả
▁vô _tâm
▁Ly on
v ent
▁th è
▁chân _tình
or ge
▁ball ad
▁V ar
▁lop ez
▁phỏ ng_đoán
▁Ki en_thuc
c_n ối
_nh ục
▁ba h
▁Hồng_ Quân
▁c 2
▁đại_b àng
▁sơ _suất
▁ ill
▁ch ạnh_lòng
▁nn ptnt
▁trung_ lưu
▁M ỏ
▁S ri
▁kh iêng
▁pc 45
ai re
▁B lan
▁PC 45
▁e _dè
▁L ar
_B ình
▁Thanh_L am
đ a
▁7 ,3
b ị
▁len_l ỏi
m_m uộn
▁P ap
▁NN PTNT
▁E S
▁kỳ _quặc
op ia
,9 0
e ong
▁PL O
▁B NV
▁b nv
▁Mù a_
▁vò ng_hoa
▁l ạy
▁thường _tín
ng_ Hóa
▁khú c_mắc
u ội
el ts
▁ngượ c_đãi
▁rod riguez
▁nghèo_kh ổ
▁c ội_
ER S
▁W oo
▁sh e
▁I A
▁ba ghdad
▁thạ c_sỹ
▁cố m
▁R au
▁k azakhstan
▁Ba ghdad
n_r ăng
▁o d
_n ở
▁nội_ chính
▁sp ec
O A
▁mùa _l
▁Thể _dục
▁hình _thù
▁Th ức
▁đậu_ phụ
b ổ
▁nhập _vai
▁Đ ẹp
▁ubtv qh
▁thái_ hòa
▁UBTV QH
▁R ang
▁sung _túc
▁mầ m_bệnh
i_đ ấu
▁viên_ gạch
Tr ang
▁ch ẻ
▁hc đ
▁tầng _trệt
▁tiệc _tùng
▁HC Đ
▁độc _tài
▁đồ ng_lương
▁liên_ chiểu
▁hương_ sơn
is er
▁gà _trống
▁th iề
V iên
▁Hòa_ bình
_h ang
▁Viet jet
▁D D
_t uất
▁lu ống
▁Hà ng_B
▁bằ ng_phẳng
▁đụ ng_chạm
▁đs pl
▁tài_ ba
▁ta n_nát
▁ĐS PL
▁D H
▁cảnh_ ngộ
▁khuất_ phục
▁túi_ quần
▁Lop ez
▁đường _tránh
▁d at
ib le
▁Rod riguez
▁T ower
t_ ngh
ef ox
▁ph ất
▁Liên_ Chiểu
▁be at
▁ngá n_ngẩm
▁A BC
▁blog ger
▁HOẠT _ĐỘNG
▁B oss
▁Tra ng_phục
▁K azakhstan
▁tầ m_m
N ông
▁R ain
▁tù _binh
▁x i_l
_c ào
▁ ớ
▁d i_l
▁Un g
▁tẩy _rửa
▁Thị _xã
rist en
uk a
▁Thường_ Tín
▁Roy al
▁22 6
▁Bả n_đồ
▁5 .9
▁TH Ứ
▁ch arlie
▁di _tản
b n
▁vô _b
▁quỳnh_l ưu
▁21 .1
E X
_b ông
▁xứ _người
▁n ag
k d
_tr iết
▁mặ c_cả
▁H um
▁Thủy _văn
▁lục_ chiến
d ữ
▁nhạc_ phim
▁ μ
▁hương_ khê
▁bay_b ổng
ell en
▁trọ ng_dụng
▁5.000 .000
▁Ch arlie
▁Phụ c_
ng_v ánh
▁g et
ant a
ại_d ột
av ez
▁trang_b ìa
▁n ệm
m_s ỡ
▁Đị nh_m
▁sim on
n_gi ấy
▁Hương_ Sơn
▁T ĩnh
ush u
▁r ou
▁M ơ
▁E sp
▁chó ng_vánh
l ăng
▁lưu _tâm
c ả
▁999 9
ch neumon
▁0 .8
▁R an
▁M all
▁viên _thuốc
▁cm 3
▁Vin com
▁Qu ê
▁xác _suất
▁biê n_đạo
▁ng ợ
▁Lộ c_
▁Quỳnh_ Lưu
▁S àn
▁Qua n_
▁C rystal
▁w eek
G Đ
▁b ẽ
c_s ắc
▁kém_c ỏi
▁độc_ ác
▁hoài_ bão
▁C 1
▁S lam
▁ch ưởng
▁lâm _trường
_m àu
▁bã i_cạn
▁cứu_ sinh
▁Cuộc_đ ời
ng_b ình
▁v i_sóng
▁g cn
▁g aga
▁hung_ dữ
▁G CN
▁g or
l ia
▁6 .6
▁gia_ cư
▁gi ời
▁ch rys
▁b ốt
▁d ại_dột
yrgyz stan
▁Hương_ Khê
▁linh_ chi
▁pan ama
▁đêm _tối
▁ma fia
kh ổ
▁thá i_dương
▁bú t_chì
ra k
▁d am
▁Thái_ Hòa
▁mái _tôn
Ố NG
▁sắc _tố
▁K it
il lo
▁xi_l anh
▁cao _học
▁Hóa _học
▁Duy _Tân
▁bất _tử
▁co n_nợ
▁văn_m iếu
c or
t_x ích
▁L ái
al onia
▁xó i_mòn
erm ain
▁Al onso
▁test oster
▁trò _đùa
▁al onso
i_nh iệt
▁del hi
_T O
▁Sec ret
▁ ắc_
▁sà m_sỡ
▁võ _công
▁36 %
▁J ournal
▁Del hi
▁B 1
▁m itsubishi
▁27 9
▁11 0.000
ho t
▁15 00
▁tí _hon
▁j u
m ail
▁b ít
t_g ọn
▁că n_cơ
▁mả nh_
▁D ần
▁Sim on
▁d al
▁F r
I L
▁V ũng
▁r oger
▁tiể u_vùng
▁p ay
▁r úp
eo t
▁E X
▁nhiệt_ liệt
▁f b
▁lung_l ay
▁ ®
ant s
t ông
▁thuốc_l ắc
▁nguyên _trạng
▁X úc
▁26 5
▁đậu _tương
▁công_t âm
▁elect ron
▁ex t
▁đồ _cổ
▁S ợ
▁phác _thảo
_t iêm
▁quốc_ kỳ
▁công_ quyền
▁An t
i_c ơm
i_ng uyền
▁cho _qua
▁bù _trừ
▁n ọc
▁suy ễn
▁đào_b ới
▁x ương_m
▁ Ê
▁G arden
▁R oger
▁ra _chiều
,1 2
em i
▁ba n_b
_T Ế
▁Nguy _cơ
▁ с
▁T ấ
▁w atch
▁21 3
ỷ u
▁tr ác
▁tầm _thường
il ic
▁lá _đơn
▁Chữ _thập
▁24 .000
▁a n_dương
t_l âu
▁Ch ụp
▁Do w
▁30 4
▁rú t_gọn
▁cr 7
▁Điện _tử
_ Xuân
▁m ào
▁B ưởi
t_ng àn
_b iện
▁kết_ nghĩa
▁bà n_chải
▁sâu_ sát
_t ước
ch n
▁2 .600
▁f el
k ong
_m ò
▁hậu_ sự
▁ng ẫm
▁Trung_ cấp
▁hồi_h ương
▁to ilet
eg al
▁c all
▁har vard
ch c
▁c ọp
lo ud
og en
ew art
▁chuyể n_mình
▁b ưu_
gi ấc
▁d rogba
as ma
▁D rogba
▁ảo _giác
_l âm
▁Y _học
▁j obs
▁kỹ _xảo
▁mắ t_xích
▁B óng
▁bạch _dương
▁in iesta
▁l ú
▁Pan ama
▁loài_ vật
▁bào _thai
▁H ò
▁bộ _xương
ƯỢ C
▁o tt
▁In iesta
▁đè n_lồng
▁C y
ng_ch ạc
▁tối_ giản
▁ng ốn
uy a
▁Tiế ng_nói
_đ ậy
r ice
▁Th uyền
▁n ẹp
l ight
▁vin aconex
▁đu ốc
ent s
▁f ulham
▁g 20
ỉ m
▁cas illas
▁28 5
▁mà ng_não
▁U lt
▁sư _phụ
▁ma k
▁mái_ch e
▁CR 7
▁Br it
▁tu ất
▁nh ỡ
▁độ _kinh
▁8 x
inn ess
▁C our
▁An_ Dương
m_h ãm
▁méo _mó
▁quy _cách
▁X avi
e us
▁x ắt
▁F ulham
▁D ia
im i
▁bv tv
▁Har vard
▁S y
▁khai_kh oáng
ol an
▁chữ ng_chạc
v y
▁học_b ạ
▁bình_x ăng
▁phân_ đoạn
▁anh_ quân
▁nghỉ _phép
▁Mir ror
▁h ừ
▁che _đậy
▁Di _tích
K D
▁gi ục
▁b anh
▁thi_ hài
▁hạn_ch ót
▁đức_ ph
▁L IÊN
▁đ iểu
Ấ N
i_kh ổ
▁đằm _thắm
▁nhỏ _xíu
▁nhà _sách
▁nội _tại
,5 5
ven ia
▁r olls
▁BV TV
i_d ị
un k
▁Tr ip
▁Xuất_ nhập
ac a
▁cầu_v ồng
ess enger
▁Cas illas
K iên
▁ ÷
▁trườ ng_phái
▁23 4
_n ương
▁G ala
▁n ight
▁nic olas
▁ẩ n_số
▁L ib
▁do_d ự
▁du_đ ấu
▁n ãy
▁g ps
_h ạ
▁22 7
und ay
▁xô _viết
G A
ng_ nghiệm
▁Nh àn
_r ồng
▁r áng
▁Thủy _lợi
▁thành _trì
▁âm_h ưởng
▁doanh _trại
▁Ông_ Hoàng
▁t ie
▁nông_ n
▁al geria
▁S ay
▁cao _l
▁lă n_lộn
k ỷ
▁Nic olas
▁Ch ang
ng_v ề
▁Al geria
▁trung_ lộ
▁K N
▁Cẩm_ Ph
▁Kh ổ
ành_ giật
▁B iz
_k ế
▁b and
ng_đ ỏ
▁c ass
▁CNVC LĐ
▁cnvc lđ
▁V B
▁B ửu
▁mặt_b iển
▁R olls
▁nam es
▁6 .7
lea gue
▁7 .0
Ắ C
▁sinh_ s
▁ca q
▁kim _tiêm
b ike
▁giả i_nhiệt
▁X inh
▁mó c_nối
tin ental
▁z ika
▁CA Q
▁tinh_ gọn
_n át
▁k aka
▁xác _ướp
an na
▁b ell
▁u_ ám
▁Hot line
ester n
n_qu ẩn
▁đậu_ ph
▁Th ai
▁26 4
Nh ật
▁vụ ng_về
▁thất _thiệt
ƯỜ I
▁mạo _danh
▁xem _thường
▁Co n_người
▁Giáo _hoàng
▁tóc _tiên
ng_ng óng
▁off ice
▁sứ _quán
ho g
▁M ứ
▁d ani
▁N uôi
▁nh u_yếu
▁vtv 3
s ov
▁vải _thiều
▁ph ách
▁sân _thượng
▁Ch áy
▁p pp
▁w ave
▁trích _đoạn
▁mạnh_ khỏe
▁5 ,9
_c ạp
▁G aga
▁J obs
▁15 ,5
▁Tổ _trưởng
▁nghị _án
is bon
id as
▁31 5
▁thần _thánh
▁GP S
▁đ ẫy
▁E th
▁dấu_ chấm
▁hà u
▁tha ng_điểm
▁6 ,0
▁dượ c_sĩ
c ati
▁s ườ
E P
▁Vẻ _đẹp
▁ngư _nghiệp
▁lệch _lạc
_l ai
▁M a_
▁lách _luật
▁chung_ khảo
▁bà _già
▁thê _thảm
u za
▁VTV 3
dg son
▁a tv
▁8 ,3
▁chèo _kéo
▁vũ _quang
at ter
ối_ x
▁đ ổng
▁tech n
▁C 2
▁thành_ kính
il k
_x ở
M TTQ
ng_c ung
▁c rai
▁B éo
▁L td
u_ vật
nes ota
▁M ak
▁S ter
▁êm_ ái
▁rom ania
▁E ll
▁B iế
▁co py
_đ ôi
res ol
n_đ iều
i_ch ào
▁kinh_ hãi
is co
in gham
▁D ani
m ttq
▁22 1
▁h ột
ar ma
▁Res ort
n old
▁đánh_ bộ
À O
▁Rom ania
▁M b
▁cô _độc
▁Tr ắng
▁PP P
▁f ree
▁K aka
m c
ng_ph ong
▁bồng_b ềnh
▁sinh_s ôi
▁danh_ vọng
▁Ph ấn
▁7 .4
en burg
▁sh er
▁kha i_c
▁biến _tấu
▁bổ _túc
▁hà _tây
▁tầm _tay
▁p edro
ff e
▁C ột
▁M itsubishi
n_kh éo
▁nồ i_cơm
▁sinh_ kế
▁mỹ _đức
▁Lự a_chọn
▁A TV
am ber
▁f ast
▁l ight
_đ ĩa
▁d ỗi
▁N iềm
▁Tr ầm
▁mỹ _tho
▁vă n_công
▁31 %
ng_T ử
▁mar c
▁P edro
▁G L
om en
▁Đ ường_
▁rưng_r ưng
▁Nhà _trường
▁kim_ anh
_h ầu
▁Vũ _Quang
▁ ốt
▁p ent
_x ướng
lan do
it ies
▁Bảo _tồn
T S
▁n è
u_h ậu
▁s enkaku
_M ỤC
,4 9
▁gi ành_giật
ord on
▁nguyên_ do
m ệnh
n_Đ ảo
▁hiế m_muộn
▁S enkaku
▁S Ở
▁mật_ mã
us ra
yll um
▁biến _tướng
▁cô _em
20 .000
▁p se
▁phá i_nữ
ng_ch ai
▁Hồ _Gươm
▁Mỹ_T ho
_tô m
▁D ef
▁Đ ứa
▁Vin aconex
t_n êm
▁1. 11
▁port o
ops is
▁T inh_
_c ờ
▁gi ấu_
_CH Ế
▁R y
▁mặc_ kệ
▁ und
and r
▁ ừ
▁giá _sàn
▁M èo
ol m
il us
đ iện
▁Port o
▁0,0 1
n inh
▁hòa _thượng
▁Ph ầ
▁châu_ mỹ
▁khô n_khéo
▁đó ng_chai
▁32 5
▁Hà_T ây
▁vô _hạn
▁viêm_ khớp
pp ing
▁E xp
▁ha w
▁R IA
▁đơ n_điệu
ac ob
▁máy _chiếu
▁ oán
▁phân_h ọ
▁điệ n_gió
▁BG D
▁bao _la
▁b iên_lai
▁sab eco
g raph
▁Mỹ _Đức
▁cô n_đảo
▁đ ong
op er
am en
▁c ún
▁au t
▁danh_ pháp
▁n ylon
▁i po
h ôm
▁73 7
▁Trực _tiếp
_d ạ
▁Điều _trị
▁21 .000
if olia
▁mù _chữ
ug las
▁L ab
▁kh uyến
▁8 10
▁s ừ
▁H old
▁T òng
n_d ư
▁TH EO
_v ân
▁per ez
▁Dân _trí
▁đảm _trách
▁đảo _quốc
▁Toà n_cảnh
at as
▁co de
▁IP O
▁tổ ng_quan
▁u av
▁sứ c_b
▁L ãnh
k ey
▁cn lđ
▁CN LĐ
▁cast ro
▁yế m
nh a
▁M át
_l ụa
▁thanh_ khê
▁tò _vò
p us
▁t g
▁đả ng_phái
_b ạch
▁Că n_nhà
p ost
▁trùng_l ặp
▁p res
▁UA V
_c óp
▁khố n_khó
▁Chă n_nuôi
▁C CH
▁op ec
▁rù ng_r
▁thánh_đ ịa
u ong
▁thủy _đậu
all y
▁M ỤC
▁d ẻ
▁n ar
▁ti ger
▁u ất_
▁phục_ kích
▁hở _hang
▁l ẳng_l
▁đức _thọ
▁đảm_đ ương
uy ol
_s ọ
▁giá _gốc
▁S af
▁quốc_ oai
▁E du
▁đh cđ
▁mét_ khối
▁17 ,5
▁bố _chồng
▁bg d
▁tưới _tiêu
▁ĐH CĐ
ant ha
▁st b
▁Th ằng
▁khú c_c
▁thì n
▁n c
▁com ment
▁1, 25
▁Quy _mô
m aster
▁chữ _nhật
▁Ch i_
▁chi_ viện
âu_h át
ơn g
▁Thanh_ Khê
▁sant os
▁lộ _giới
▁c in
▁Gi ấ
▁chứ c_sắc
▁V ò
▁Cast ro
ron t
B à
▁st andard
ầ n_nh
▁34 %
▁siêu_ nhân
▁ắc_ quy
▁Giá m_khảo
▁Sh er
▁M âu
a_b óp
▁Xúc _tiến
▁thịnh_ hành
▁G ood
▁bố _cục
▁ph ỏng
_th ê
▁cội_ nguồn
▁jose ph
▁nhu ần_nh
▁lầm _tưởng
▁Đ ê
_tự _tháp
▁đê _bao
▁M ol
▁Đại_ lộ
▁OP EC
▁là nh_l
ech en
▁A A
▁Sự _cố
▁Quốc_ Oai
▁d ev
▁Thu ần
▁Giáo _hội
▁193 7
i_m ạnh
i_d ắt
▁T óc_
▁vụ _mùa
▁hoa _đào
az i
▁T ầ
▁ST B
h en
▁Per ez
i_nh ọ
▁Đức_ Thọ
▁khai _thông
▁r áp
▁F ashion
▁nó ng_
▁m é
▁H ó
▁6 m
▁v gp
▁giải_đ ua
▁kì _thi
oni idae
es ley
▁gar eth
▁Cô n_Đảo
▁N ộp
▁v b
▁K C
▁bài _trí
▁NH IỆM
▁biểu _trưng
▁xấu_ xa
▁v ừng
▁m orning
▁F el
ill ip
▁ser ver
▁vùng _trời
▁Tây _T
▁Sant os
▁Mứ c_độ
n_m ệnh
▁giã i_bày
▁Gar eth
_H ai
▁9 .1
▁sport s
▁qual comm
ng_nh iễu
▁thót _tim
▁ben itez
▁p oroshenko
▁P oroshenko
▁tư _bản
▁đ ành_
▁nhạt_nh òa
▁Jose ph
▁màu_m ỡ
▁42 %
omp eo
▁cung_đ ình
at ex
,6 8
t us
n_nh ãn
▁Ben itez
▁bô i_nhọ
▁Mar c
u_ch ọc
▁tiề n_n
_tr ên
oth y
▁Qual comm
i_ giang
▁hòa_ âm
ấ m_m
kh i
▁3.000 .000
▁ch iêm
▁m iên
▁nghiệ t_ngã
land s
▁a 2
ục_ r
▁Tóc_ Tiên
▁tân _thành
▁p ul
▁mày _mò
ipp i
▁th iều
▁V GP
▁Đ en
▁d ơ
▁yểm _trợ
▁bă ng_giá
▁Là m_việc
▁nhũ ng_nhiễu
▁ngọ c_b
▁e ur
▁Ch ar
▁thạch _thất
▁cháy _bỏng
▁âm_ lượng
▁nhấp _nh
T ết
m_s ú
u_m úa
▁tr iền
▁22 9
em ber
▁21 9
▁ân_ ái
▁m ành
▁G il
qu ẩn
ch ương
▁bos ton
▁héc _ta
ắ c_bộ
▁tĩnh_ lặng
et ia
n_v àn
acom in
▁khí _quản
▁inf onet
ess e
▁Ho use
▁Cô _dâu
▁tân _tiến
▁bướ u
▁ser ena
ot us
▁trê u_chọc
▁P ress
Th ượng
c ed
▁đườ ng_c
▁2 ,5%
bat ov
▁s ina
_ ơn
▁nhanh_ gọn
▁bl hs
▁BL HS
▁kém_c ạnh
▁su dan
g iếm
▁đầ u_đ
▁H it
▁tay _chơi
▁h ụi
est e
▁bậc _thầy
haw k
▁Z ika
ui z
▁tà u_hàng
▁ar ena
_n ếp
▁r ome
▁ph om
▁o zil
▁24 2
▁ngh êu
▁Nhân_ Dân
▁C I
▁b 2
▁khai_c uộc
D P
▁nhân_ giống
▁dịch _giả
giá m
▁giỏ i_giang
▁comp osite
▁xuất _thần
_m ang
▁Kim_ Anh
▁O zil
Tr ời
ber to
_V ỰC
M iếu
▁ict news
▁nghi_ng ại
▁Ser ena
▁ninh_ kiều
▁mặt_ cầu
▁trá _hình
H ậu
ur n
▁dây _th
▁phụ _cận
▁đông_ âu
▁fe et
▁kì m_hãm
ei kh
▁đèn_ pin
▁chi ps
i_đ ùa
G C
▁Nói_ch ung
▁23 1
on ic
▁r ow
▁thời_ kì
▁hắ t_h
▁f air
▁kỳ _quan
,1 6
_t ẻ
_th ớt
▁đối_ xứng
▁ngại_ng ùng
Ạ O
▁Định_m ức
▁G AS
▁quanh_ quẩn
▁R ome
▁ổ _đĩa
▁lo ng_l
▁motor ola
cher ano
▁B om
▁Th ìn
▁xoay _xở
▁trừng _trị
▁DANH _MỤC
▁bản_ xứ
▁S ul
▁kha i_h
▁bầu_ dục
▁quân_ phục
_ ác
7 .000
resol ved
ỳ nh_
▁ ổng
▁hồi_ âm
▁NGH Ị
▁chứng _thư
▁đú ng_mực
▁nước_s ốt
▁v ườ
▁chào _hỏi
_Tr ọng
▁mã n_nguyện
r ate
▁F re
le i
▁G 20
▁NG ƯỜI
▁Bos ton
▁ch evrolet
▁sal ad
▁chân_ đ
g ương
▁đế n_điều
a_v ây
▁Motor ola
▁vô _vọng
▁chinh_ chiến
▁xung_ yếu
▁Ninh_ Kiều
▁E st
▁đờ m
▁mã _v
▁nh âm
▁mật_ vụ
▁ т
▁22 8
▁N ú
▁N ửa
▁Hạ n_ch
t_c ùng
▁gi óng
▁vỡ _l
▁dấu _tích
▁Tân_ Thành
▁B ẢO
▁bủ a_vây
▁c ậy
▁pro ject
h y
▁19 29
▁20 .8
▁xe_đ ua
c_n ay
▁ch ap
utter stock
ert o
▁n iệm
▁nhà _nông
▁bến_đ ò
▁Cảnh_ báo
▁m k
▁địa_ cầu
▁vu i_đùa
▁bé n
▁b ăng_c
▁cẩm_ph ả
▁hộp _sọ
▁đườ ng_sông
▁man uel
▁Ch ịu
und ation
▁g az
ci el
▁T em
▁cặp _kè
▁p ad
▁bắc_ cực
▁Tỉ nh_
▁sw ansea
▁p x
f ood
,6 7
u_ng ữ
▁c âu_hát
▁N ag
▁Khoả nh_khắc
i_ ho
▁M ạ
u_đ ứng
▁6 .8
▁cứng_c áp
_kh ôi
Đ ồn
▁rùng_r ợn
▁x p
n_l ằn
▁hồng_ng ọc
▁CH Ỉ
▁tiếc _thương
▁nước_m ặn
▁thân _thương
▁hs bc
▁phù _sa
▁0, 15
▁cat alan
▁Ng à
▁Sw ansea
▁r ã
▁hạ t_nêm
▁T ặng
▁tướ ng_quân
▁ngh ê
▁trọng_ án
n_x uôi
ch ẩn
_K hoa
▁xạ _trị
_ng ân
▁hết_m ực
▁Man uel
d ar
▁d ra
▁X ương
▁mờ i_chào
▁Ch uẩn
▁nam_ á
▁C ẩn
▁mai_m ột
▁giả _tạo
▁Th ám
mo uth
▁n ả
t_ch óc
▁k +
▁an ton
▁A cc
nat aka
n_ph à
▁hu ấn
▁H Ồ
▁Cat alan
▁X M
epend ent
▁long_l anh
▁nh ẽ
▁bồ i_b
▁đồng_ văn
▁vò ng_xoáy
▁s ym
▁HS BC
▁giấu_ giếm
ed onia
▁Thạch _H
ul ata
Ổ I
ng_l ai
u_nh ỏ
▁muô n_vàn
▁thưa _thớt
ục_r ịch
n_k im
▁điệ u_
es i
▁b ái
▁c a_cao
_m ở
▁chính_ chủ
▁kì _vọng
▁làm_ gương
▁ng áo
▁T ịnh_
ng_h ồng
▁Phầ n_mềm
▁sâu _thẳm
▁Q uyết_
▁Nam_ bộ
▁Cẩm_Ph ả
▁T iger
▁binh_ chủng
▁yêu_đ ời
▁xâm_ chiếm
▁K +
▁đỏ _rực
n_s ông
▁thuật _toán
▁lại_ cái
▁C ăng
▁xu i
▁đa _ngành
▁mac book
H è
▁ch rome
▁gia _định
▁Thư _viện
enn er
▁O S
▁vân_đ ồn
▁L azio
▁huyết_ học
▁sch ool
ng_h à
Th iên
▁so fa
▁b ri
▁thư _thái
ng_l ách
▁l azio
▁tỉ nh_đoàn
n_s ơ
▁nỗ i_khổ
▁Hoa_ Sen
▁hả i_nam
▁kín _tiếng
▁Đông_ Âu
▁pn j
▁Tr ích
Th ánh
▁ngô n_luận
▁nhuần_nh uyễn
▁giá _vốn
▁sv đ
▁Đă ng_k
,4 8
▁Aut o
▁phá i_mạnh
▁Th oa
▁Nam_ Á
▁bé _bỏng
▁trình_ diện
c_n ữ
▁nov osti
gi ỏi
▁Ch evrolet
▁SV Đ
▁khó e
▁Khá m_phá
▁ban_b ố
7 00
▁thủy _quân
m ẫn
▁23 .000
▁7 .6
▁Vân_ Đồn
▁gi ặ
▁cứ _điểm
▁c x
n_ph ức
,3 8
,1 7
▁n i_l
▁Th ỉnh_thoảng
n_r ỗi
et to
▁thực _tại
▁v oan
▁T ức
▁Xuất_nhập _khẩu
▁sừ ng_s
R I
▁mơ _mộng
▁đoà n_người
▁p ot
▁phò ng_ban
▁lạ ng_lách
▁đảm_đ ang
▁dĩ _an
▁Nov osti
▁tộ t_cùng
▁ ức
▁nhà_ch ùa
▁G or
▁Tuần _trước
▁điê u_đứng
▁L ối
▁Sant a
,1 8
ấm_m áy
▁s ẩy
▁Văn_ Miếu
▁Mó n_
▁l iêu
n_b á
▁việ n_dẫn
▁N iề
▁Sab eco
▁CH O
▁băng _thông
▁r ục_rịch
as m
,4 6
▁tai_ xanh
▁et o
▁cát _trắng
iên_ kỷ
_ Kh
▁E ti
▁Ấ y
▁Thiế t_
Ợ P
iag gio
▁hải_ vân
▁phiề n_phức
▁viê m_họng
▁S K
▁A st
▁công_t ư
▁w ork
▁r ose
▁Hải_ Nam
▁B ò
▁đơn_n ữ
▁Tr ừ
▁kề n_kền
▁fer dinand
▁anh_ cả
▁lu ồ
▁phản_ chiếu
▁Moh am
▁âm_ ỉ
▁truy _điệu
▁Tiêu_ch í
▁h ẳ
▁sao _băng
▁phả n_động
▁mập _mờ
▁E to
▁bú t_k
▁tân_ hiệp
▁L ừa
le e
,7 2
▁N C
▁trú _ngụ
▁vô _lăng
▁đồng_b ạc
▁quả ng_châu
▁Gi ây
▁An ton
au ss
▁điệ u_múa
▁D er
▁ngoại_ nhập
▁38 %
▁chì a
n_d ung
▁vậ n_mệnh
10 1
▁la i_dắt
▁đầu_n ậu
av in
▁b ấm_máy
iber ty
c ing
▁man cini
_t ơi
▁ ất
▁Th uật
▁bỉ m
_th an
▁bến _thủy
▁In c
▁s qu
▁khai_ hoang
▁Dĩ _An
ng_b àng
▁thì _thầm
▁9 60
▁ch in
▁R em
▁Man cini
▁r um
▁Cảm_ giác
▁petro times
▁luật_ gia
▁hội_ chẩn
_m ặn
▁r ố
▁Fer dinand
▁lat inh
▁nh a_khoa
▁Chă m_sóc
▁xe _con
▁h on
▁T own
▁thoá ng_đãng
▁bà n_đ
▁12 00
▁thần _tiên
▁kỳ _sơn
co py
▁ph ăng
,7 6
,2 8
_H ÓA
▁Th uyết
▁ấu _trùng
▁già u_s
▁khu ếch
▁Hải_ Vân
▁L àn
▁h ip
utt gart
▁chúc_ Tết
▁g onz
u_ ốm
▁55 .000
▁anh_ Hùng
▁ngập _mặn
_ch uyện
▁Quảng_ Châu
▁Quân_ chủng
▁S at
▁thủy _lực
▁ ^
.0 2
▁ngọc_b ích
▁minh_ mẫn
▁mỹ _nữ
▁ta n_hoang
▁Th iều
▁Duy ên_
▁thuầ n_phong
▁dư _lượng
▁G óp
ng_m ạ
▁Sud an
▁Tân_ Hiệp
▁b io
▁v league
▁ki m_m
_h ích
▁K P
▁L òng
ng_ch ờ
▁28 .000
▁Đồng_ Văn
err era
▁tinh_kh ôi
_ng ọ
▁thí _dụ
▁H 5
▁thử _việc
▁tô m_sú
▁m n
▁mưa _đá
▁Inf onet
et on
▁ng u_ng
L ò
gu el
▁TH Á
▁bại_ liệt
▁7 .7
▁en tertainment
▁ngh iến
.0 1
▁Ch ơi
▁y oo
▁đ ốc
▁tr uất
▁đa u_ốm
▁Ho a_khôi
▁Đ ắc_
n_s ư
▁đậu_ph ộng
▁C ỏ
▁Ngườ i_
▁k ur
b ass
▁viễn _tưởng
▁Pho ng_cách
▁Chế _biến
▁qu ần_l
▁Thạch_Th ất
▁ch ầu
▁ICT news
▁nam_ chính
at em
▁s ạm
▁Phản_ ứng
▁PN J
.0 3
b ụng
▁g ò_m
▁Kinh_ nghiệm
▁ân_ xá
▁G onz
▁cậ u_nhỏ
,1 4
▁nhà _sàn
i_ ra
▁ éo
E L
▁QL DA
▁vô _tận
_B an
v ice
n_n ớt
▁nhảy _dù
▁manh_ m
▁M es
▁lă ng_mạ
▁Ar ena
▁6 60
▁r ành
ch àng
▁g ả
▁êm_đ ềm
▁Kỳ _Sơn
▁l đtbxh
▁e m_d
▁ ·
▁L ĐTBXH
_ng án
Í CH
▁no n_nớt
▁hạnh_ nhân
▁chiế u_hậu
,3 6
n gư
▁k iệm
▁D al
▁khác _xa
u_kh ỉnh
▁R ap
▁ed ward
▁bội _thu
▁ni_l ông
▁khá u_khỉnh
▁thuyên_ giảm
Ngh ị
▁fir st
Đ oàn
▁Y oo
ry pt
▁M ini
▁í t_lâu
ad el
um e
▁chủ _ý
ie g
m and
▁giáp _ngọ
8 00
▁S ả
▁ql da
G S
▁G e
▁lư u_h
▁thể _lệ
▁pro du
▁huyề n_ảo
▁Huy nh
▁bố _đẻ
k n
▁ ương
eo l
▁kì a
▁VL eague
▁bài_ v
▁Hol lande
▁hol lande
▁nả n_lòng
▁x m
eyon ce
▁0, 6%
n_m ẫn
▁biể n_đen
▁h ist
▁mar adona
▁Mar adona
p es
▁cho àng
▁như _in
▁ra j
▁G ọi
i_nh iệm
chneumon idae
i_ho ạch
▁E T
▁Thờ i_báo
aw r
_d ốc
▁xo a_bóp
▁tel ecom
▁thanh _tâm
▁tác _quyền
ar ra
▁tiế t_học
el ka
▁02 4
,7 8
x ưng
▁ch un
▁tự u
▁h ỷ
▁NHIỆM _VỤ
ed s
ut hi
▁Anh_ Dũng
▁qh 13
▁B ÌNH
▁mả nh_mai
▁Đăng_k iểm
ai d
ch ân
▁Đ V
▁mụ c_s
▁Kh úc
▁TR UNG
▁QH 13
▁lo ang
▁kim_m ã
▁K ey
▁vu ố
▁ngao _ngán
▁điện_l ưới
▁g ary
m_h ọp
▁Bá t_
▁kh ùng
▁1.500 .000
ter dam
▁H ùng_
on n
▁S or
▁h ill
▁đài_ bắc
▁T ế
▁x âu
▁D z
▁phú _lộc
_th ía
▁ng ước
_m ạch
▁thân _thuộc
▁manh_m ún
▁h ến
▁Sport s
s o
▁ăn_nh ậu
▁s ize
_đ oan
_ph u
▁N ắng
▁rau l
_s ấy
▁chợ _lớn
_ch ung
▁to sh
▁thương _trường
_ng ọc
▁geo metridae
▁Geo metridae
▁bê nh
▁b art
▁G ary
▁lính _thủy
n_c ả
▁R aul
▁est rogen
_ch ai
,8 8
▁tài_ giỏi
▁37 %
▁đơn _thuốc
▁D I
▁mẫu_ vật
m_h ương
▁lã nh_đ
▁dây_ch ằng
om i
▁d ậu
▁Hồ _Tây
azz i
_th iếu
▁ngườ i_đời
▁nh âm_
ip edia
▁K r
▁v egas
▁24 7
▁tour e
▁quyề n_anh
▁Tour e
t_r è
▁ng ạo
_Ng ọ
▁41 2
▁d ata
im o
▁thất _thủ
,4 4
▁thần _thoại
▁Kim_ Mã
▁N A
▁tâm _thư
▁phép _màu
Th ế
i_s ợ
▁chủ _hộ
▁nhớ t
▁s ến
▁En tertainment
▁bộ t_gi
▁A U
▁L âu
▁65 .000
▁ol ympia
▁9 .3
l iễu
ster dam
▁Nhà _thờ
▁Tay _vợt
▁nhỏ_nh ặt
▁mich elle
▁Trưở ng_Phòng
▁truyề n_bá
,6 2
▁Giáp _Ngọ
anh_ đ
▁Phú _Lộc
_t ẩu
▁hải_ yến
id ent
▁22 3
▁ar sene
▁Mich elle
ng_b ị
▁du ỗi
▁máy _x
am ol
i_s au
_Th ủy
[...]
