{"<s>":0,"<pad>":1,"</s>":2,"<unk>":3,"<mask>":4,"!":5,"\"":6,"#":7,"$":8,"%":9,"&":10,"'":11,"(":12,")":13,"*":14,"+":15,",":16,"-":17,".":18,"/":19,"0":20,"1":21,"2":22,"3":23,"4":24,"5":25,"6":26,"7":27,"8":28,"9":29,":":30,";":31,"<":32,"=":33,">":34,"?":35,"@":36,"A":37,"B":38,"C":39,"D":40,"E":41,"F":42,"G":43,"H":44,"I":45,"J":46,"K":47,"L":48,"M":49,"N":50,"O":51,"P":52,"Q":53,"R":54,"S":55,"T":56,"U":57,"V":58,"W":59,"X":60,"Y":61,"Z":62,"[":63,"\\":64,"]":65,"^":66,"_":67,"`":68,"a":69,"b":70,"c":71,"d":72,"e":73,"f":74,"g":75,"h":76,"i":77,"j":78,"k":79,"l":80,"m":81,"n":82,"o":83,"p":84,"q":85,"r":86,"s":87,"t":88,"u":89,"v":90,"w":91,"x":92,"y":93,"z":94,"{":95,"|":96,"}":97,"~":98,"":99,"":100,"":101,"":102,"":103,"":104,"":105,"":106,"":107,"":108,"¡":109,"¢":110,"£":111,"¤":112,"¥":113,"§":114,"©":115,"«":116,"¬":117,"­":118,"®":119,"°":120,"±":121,"¶":122,"·":123,"»":124,"¿":125,"À":126,"Á":127,"Â":128,"Ã":129,"Ä":130,"Å":131,"Æ":132,"Ç":133,"È":134,"É":135,"Ê":136,"Ë":137,"Ì":138,"Í":139,"Î":140,"Ï":141,"Ð":142,"Ñ":143,"Ò":144,"Ó":145,"Ô":146,"Õ":147,"Ö":148,"×":149,"Ø":150,"Ù":151,"Ú":152,"Ü":153,"Ý":154,"Þ":155,"ß":156,"à":157,"á":158,"â":159,"ã":160,"ä":161,"å":162,"æ":163,"ç":164,"è":165,"é":166,"ê":167,"ë":168,"ì":169,"í":170,"î":171,"ï":172,"ð":173,"ñ":174,"ò":175,"ó":176,"ô":177,"õ":178,"ö":179,"÷":180,"ø":181,"ù":182,"ú":183,"û":184,"ü":185,"ý":186,"þ":187,"ÿ":188,"ā":189,"Ă":190,"ă":191,"ą":192,"ć":193,"Č":194,"č":195,"ď":196,"Đ":197,"đ":198,"ē":199,"ė":200,"ę":201,"ě":202,"ğ":203,"Ĩ":204,"ĩ":205,"ī":206,"İ":207,"ı":208,"Ł":209,"ł":210,"ń":211,"ň":212,"ŋ":213,"Ō":214,"ō":215,"ŏ":216,"ő":217,"œ":218,"ř":219,"Ś":220,"ś":221,"Ş":222,"ş":223,"Š":224,"š":225,"ţ":226,"ť":227,"Ũ":228,"ũ":229,"ū":230,"ŭ":231,"ů":232,"Ÿ":233,"ź":234,"Ż":235,"ż":236,"Ž":237,"ž":238,"ƒ":239,"Ơ":240,"ơ":241,"Ư":242,"ư":243,"ǎ":244,"ǔ":245,"ș":246,"ț":247,"ɑ":248,"ɒ":249,"ɔ":250,"ə":251,"ɛ":252,"ɪ":253,"ʃ":254,"ʊ":255,"ʌ":256,"ʒ":257,"ʹ":258,"ʺ":259,"ʻ":260,"ˈ":261,"ˌ":262,"ː":263,"̀":264,"́":265,"̃":266,"̄":267,"̇":268,"̈":269,"̊":270,"̣":271,"̧":272,"Δ":273,"Σ":274,"Φ":275,"Ω":276,"ά":277,"έ":278,"ή":279,"ί":280,"α":281,"β":282,"γ":283,"δ":284,"ε":285,"η":286,"θ":287,"ι":288,"κ":289,"λ":290,"μ":291,"ν":292,"ο":293,"π":294,"ρ":295,"ς":296,"σ":297,"τ":298,"υ":299,"φ":300,"χ":301,"ω":302,"ό":303,"ύ":304,"А":305,"Б":306,"В":307,"Г":308,"Д":309,"Е":310,"З":311,"И":312,"К":313,"Л":314,"М":315,"Н":316,"О":317,"П":318,"Р":319,"С":320,"Т":321,"У":322,"Ф":323,"а":324,"б":325,"в":326,"г":327,"д":328,"е":329,"ж":330,"з":331,"и":332,"й":333,"к":334,"л":335,"м":336,"н":337,"о":338,"п":339,"р":340,"с":341,"т":342,"у":343,"ф":344,"х":345,"ц":346,"ч":347,"ш":348,"щ":349,"ы":350,"ь":351,"э":352,"ю":353,"я":354,"ё":355,"і":356,"א":357,"ב":358,"ה":359,"ו":360,"י":361,"ל":362,"מ":363,"ר":364,"ת":365,"״":366,"ا":367,"ب":368,"ة":369,"ت":370,"ج":371,"ح":372,"د":373,"ر":374,"س":375,"ش":376,"ع":377,"ف":378,"ق":379,"ل":380,"م":381,"ن":382,"ه":383,"و":384,"ي":385,"ی":386,"त":387,"न":388,"म":389,"र":390,"ा":391,"ि":392,"्":393,"ก":394,"ข":395,"ค":396,"ง":397,"จ":398,"ช":399,"ด":400,"ต":401,"ท":402,"ธ":403,"น":404,"บ":405,"ป":406,"พ":407,"ม":408,"ย":409,"ร":410,"ล":411,"ว":412,"ศ":413,"ส":414,"ห":415,"อ":416,"ะ":417,"ั":418,"า":419,"ิ":420,"ี":421,"ื":422,"ุ":423,"ู":424,"เ":425,"แ":426,"โ":427,"ใ":428,"ไ":429,"่":430,"้":431,"์":432,"ํ":433,"་":434,"ᄏ":435,"្":436,"ḅ":437,"ḥ":438,"ṃ":439,"ṇ":440,"ṣ":441,"ṭ":442,"Ạ":443,"ạ":444,"Ả":445,"ả":446,"Ấ":447,"ấ":448,"Ầ":449,"ầ":450,"Ẩ":451,"ẩ":452,"Ẫ":453,"ẫ":454,"Ậ":455,"ậ":456,"Ắ":457,"ắ":458,"Ằ":459,"ằ":460,"Ẳ":461,"ẳ":462,"Ẵ":463,"ẵ":464,"Ặ":465,"ặ":466,"Ẹ":467,"ẹ":468,"Ẻ":469,"ẻ":470,"Ẽ":471,"ẽ":472,"Ế":473,"ế":474,"Ề":475,"ề":476,"Ể":477,"ể":478,"Ễ":479,"ễ":480,"Ệ":481,"ệ":482,"Ỉ":483,"ỉ":484,"Ị":485,"ị":486,"Ọ":487,"ọ":488,"Ỏ":489,"ỏ":490,"Ố":491,"ố":492,"Ồ":493,"ồ":494,"Ổ":495,"ổ":496,"Ỗ":497,"ỗ":498,"Ộ":499,"ộ":500,"Ớ":501,"ớ":502,"Ờ":503,"ờ":504,"Ở":505,"ở":506,"Ỡ":507,"ỡ":508,"Ợ":509,"ợ":510,"Ụ":511,"ụ":512,"Ủ":513,"ủ":514,"Ứ":515,"ứ":516,"Ừ":517,"ừ":518,"Ử":519,"ử":520,"Ữ":521,"ữ":522,"Ự":523,"ự":524,"Ỳ":525,"ỳ":526,"Ỵ":527,"ỵ":528,"Ỷ":529,"ỷ":530,"Ỹ":531,"ỹ":532,"​":533,"‎":534,"‐":535,"–":536,"—":537,"‘":538,"’":539,"“":540,"”":541,"„":542,"†":543,"‡":544,"•":545,"‰":546,"′":547,"‹":548,"›":549,"⁄":550,"€":551,"→":552,"∆":553,"∑":554,"−":555,"√":556,"≈":557,"≤":558,"≥":559,"─":560,"▁":561,"■":562,"□":563,"▪":564,"►":565,"○":566,"●":567,"★":568,"☆":569,"♥":570,"♦":571,"、":572,"。":573,"《":574,"》":575,"「":576,"」":577,"『":578,"』":579,"あ":580,"い":581,"う":582,"え":583,"お":584,"か":585,"が":586,"き":587,"く":588,"け":589,"こ":590,"さ":591,"し":592,"じ":593,"す":594,"た":595,"ち":596,"っ":597,"つ":598,"て":599,"で":600,"と":601,"な":602,"に":603,"の":604,"は":605,"ひ":606,"ま":607,"み":608,"め":609,"も":610,"や":611,"よ":612,"ら":613,"り":614,"る":615,"れ":616,"を":617,"ん":618,"ア":619,"ィ":620,"イ":621,"ウ":622,"エ":623,"オ":624,"カ":625,"キ":626,"ク":627,"グ":628,"コ":629,"サ":630,"シ":631,"ジ":632,"ス":633,"タ":634,"ダ":635,"チ":636,"ッ":637,"テ":638,"デ":639,"ト":640,"ド":641,"ナ":642,"ニ":643,"バ":644,"フ":645,"ブ":646,"マ":647,"ミ":648,"ム":649,"メ":650,"ャ":651,"ラ":652,"リ":653,"ル":654,"レ":655,"ロ":656,"ン":657,"・":658,"ー":659,"一":660,"七":661,"三":662,"上":663,"下":664,"不":665,"世":666,"东":667,"中":668,"主":669,"之":670,"九":671,"乡":672,"事":673,"二":674,"五":675,"京":676,"人":677,"仁":678,"代":679,"会":680,"传":681,"伯":682,"佛":683,"你":684,"佳":685,"侯":686,"保":687,"信":688,"修":689,"傳":690,"儀":691,"元":692,"光":693,"克":694,"全":695,"八":696,"公":697,"六":698,"典":699,"内":700,"出":701,"前":702,"劉":703,"化":704,"北":705,"区":706,"十":707,"千":708,"华":709,"南":710,"原":711,"县":712,"口":713,"古":714,"台":715,"史":716,"司":717,"合":718,"吉":719,"同":720,"名":721,"后":722,"君":723,"吳":724,"周":725,"和":726,"員":727,"唐":728,"善":729,"嘉":730,"四":731,"国":732,"國":733,"在":734,"地":735,"城":736,"士":737,"夏":738,"多":739,"大":740,"天":741,"太":742,"夫":743,"女":744,"如":745,"妃":746,"委":747,"姬":748,"嬪":749,"子":750,"孝":751,"学":752,"孫":753,"學":754,"安":755,"宋":756,"宗":757,"定":758,"宣":759,"宮":760,"家":761,"容":762,"寧":763,"寶":764,"寺":765,"小":766,"少":767,"尔":768,"山":769,"島":770,"川":771,"州":772,"左":773,"巴":774,"市":775,"布":776,"帝":777,"師":778,"常":779,"平":780,"年":781,"府":782,"康":783,"廣":784,"延":785,"建":786,"弘":787,"张":788,"張":789,"徐":790,"德":791,"心":792,"志":793,"忠":794,"思":795,"恭":796,"情":797,"惠":798,"愛":799,"慈":800,"慶":801,"懿":802,"成":803,"我":804,"戦":805,"手":806,"承":807,"拉":808,"攻":809,"政":810,"教":811,"敬":812,"文":813,"新":814,"方":815,"族":816,"日":817,"昌":818,"明":819,"星":820,"春":821,"昭":822,"是":823,"時":824,"景":825,"書":826,"曹":827,"會":828,"月":829,"有":830,"朝":831,"木":832,"本":833,"朱":834,"李":835,"村":836,"東":837,"松":838,"林":839,"梁":840,"楊":841,"樂":842,"歌":843,"正":844,"武":845,"殿":846,"氏":847,"民":848,"水":849,"永":850,"江":851,"沙":852,"河":853,"治":854,"法":855,"洞":856,"洪":857,"海":858,"淑":859,"清":860,"湖":861,"源":862,"溪":863,"漢":864,"無":865,"物":866,"特":867,"玉":868,"王":869,"理":870,"生":871,"田":872,"略":873,"白":874,"百":875,"的":876,"皇":877,"真":878,"知":879,"石":880,"社":881,"祖":882,"神":883,"福":884,"禧":885,"秦":886,"穆":887,"空":888,"立":889,"章":890,"第":891,"等":892,"經":893,"編":894,"縣":895,"羅":896,"美":897,"義":898,"者":899,"聖":900,"胡":901,"臣":902,"自":903,"興":904,"良":905,"花":906,"英":907,"莊":908,"華":909,"蕭":910,"藤":911,"行":912,"街":913,"西":914,"親":915,"記":916,"語":917,"貞":918,"貴":919,"越":920,"趙":921,"路":922,"軍":923,"辭":924,"通":925,"道":926,"達":927,"郎":928,"郡":929,"部":930,"都":931,"鄭":932,"里":933,"野":934,"金":935,"镇":936,"長":937,"长":938,"門":939,"阮":940,"阳":941,"阿":942,"陈":943,"院":944,"陳":945,"陵":946,"陽":947,"隆":948,"雄":949,"集":950,"雲":951,"青":952,"韓":953,"音":954,"順":955,"風":956,"香":957,"馬":958,"高":959,"黃":960,"黄":961,"黎":962,"齊":963,"龍":964,"龙":965,"가":966,"고":967,"국":968,"기":969,"김":970,"나":971,"다":972,"대":973,"도":974,"동":975,"랑":976,"리":977,"부":978,"사":979,"산":980,"서":981,"선":982,"성":983,"수":984,"스":985,"시":986,"신":987,"아":988,"왕":989,"원":990,"의":991,"이":992,"인":993,"일":994,"자":995,"전":996,"정":997,"주":998,"지":999,"하":1000,"한":1001,"해":1002,"":1003,"�":1004,"▁t":1005,"▁c":1006,"nh":1007,"▁đ":1008,"▁,":1009,"_t":1010,"▁v":1011,"▁n":1012,"▁th":1013,"▁.":1014,"▁ch":1015,"▁l":1016,"▁k":1017,"▁h":1018,"▁b":1019,"▁m":1020,"n_":1021,"▁tr":1022,"▁nh":1023,"ph":1024,"▁s":1025,"▁kh":1026,"iệ":1027,"ôn":1028,"g_":1029,"▁ng":1030,"▁g":1031,"ch":1032,"qu":1033,"ng_":1034,"▁và":1035,"▁d":1036,"i_":1037,"▁ph":1038,"ông":1039,"ên":1040,"_th":1041,"an":1042,"nh_":1043,"ác":1044,"ườ":1045,"on":1046,"iế":1047,"_tr":1048,"▁T":1049,"▁gi":1050,"t_":1051,"▁củ":1052,"▁của":1053,"ới":1054,"▁qu":1055,"uy":1056,"▁là":1057,"ượ":1058,"▁r":1059,"▁x":1060,"▁có":1061,"ại":1062,"ong":1063,"c_":1064,"▁1":1065,"▁các":1066,"▁2":1067,"u_":1068,"iề":1069,"m_":1070,"ày":1071,"ược":1072,"ơn":1073,"▁trong":1074,"ất":1075,"▁-":1076,"ướ":1077,"▁được":1078,"àn":1079,"ột":1080,"▁cho":1081,"_đ":1082,"▁C":1083,"ình":1084,"▁với":1085,"iện":1086,"ân":1087,"án":1088,"iể":1089,"▁một":1090,"▁đã":1091,"ay":1092,"ười":1093,"▁không":1094,"gi":1095,"_h":1096,"▁N":1097,"ao":1098,"▁người":1099,"ần":1100,"iên":1101,"▁)":1102,"iều":1103,"ăn":1104,"ước":1105,"ai":1106,"▁H":1107,"ầu":1108,"ườn":1109,"ốn":1110,"▁(":1111,"ường":1112,"ang":1113,"ữn":1114,"ững":1115,"▁như":1116,"▁\"":1117,"ây":1118,"▁/":1119,"00":1120,"ải":1121,"anh":1122,"ồn":1123,"▁:":1124,"▁những":1125,"inh":1126,"iê":1127,"ức":1128,"_d":1129,"_l":1130,"ản":1131,"òn":1132,"ến":1133,"ươn":1134,"ăm":1135,"ương":1136,"in":1137,"ông_":1138,"▁để":1139,"gh":1140,"ận":1141,"_s":1142,"ành":1143,"ạn":1144,"kh":1145,"▁này":1146,"▁B":1147,"▁V":1148,"am":1149,"ôi":1150,"ách":1151,"▁Th":1152,"▁từ":1153,"▁về":1154,"▁khi":1155,"eo":1156,"▁Đ":1157,"▁năm":1158,"ân_":1159,"ồng":1160,"áo":1161,"ội":1162,"_n":1163,"au":1164,"▁đó":1165,"▁ở":1166,"àng":1167,"▁đến":1168,"▁ra":1169,"▁ho":1170,"ũn":1171,"ũng":1172,"ùn":1173,"iến":1174,"ống":1175,"ối":1176,"▁tại":1177,"▁3":1178,"ùng":1179,"ực":1180,"ịnh":1181,"ộn":1182,"▁vào":1183,"▁việ":1184,"ập":1185,"▁trên":1186,"n_đ":1187,"un":1188,"▁M":1189,"▁20":1190,"▁ngày":1191,"ộng":1192,"▁cũng":1193,"ăng":1194,"át":1195,"ục":1196,"ật":1197,"a_":1198,"▁ngh":1199,"ết":1200,"ính":1201,"▁nhiều":1202,"ốc":1203,"▁sẽ":1204,"ài":1205,"áng":1206,"iết":1207,"▁S":1208,"▁nhà":1209,"▁Tr":1210,"ấy":1211,"ung":1212,"ngh":1213,"ấp":1214,"▁quy":1215,"▁L":1216,"ảo":1217,"▁thể":1218,"▁theo":1219,"▁phải":1220,"ượn":1221,"_c":1222,"ất_":1223,"ành_":1224,"ượng":1225,"_ch":1226,"er":1227,"ọc":1228,"▁bị":1229,"ổi":1230,"▁công_":1231,"▁P":1232,"▁201":1233,"▁số":1234,"ưa":1235,"ông_t":1236,"ịch":1237,"ạo":1238,"_v":1239,"n_l":1240,"uộ":1241,"áp":1242,"ực_":1243,"n_h":1244,"▁chỉ":1245,"ằn":1246,"t_đ":1247,"iệu":1248,"ằng":1249,"▁tổ":1250,"▁lại":1251,"▁đầu":1252,"ời":1253,"▁;":1254,"iểm":1255,"▁làm":1256,"ái":1257,"▁ông":1258,"ích":1259,"ưở":1260,"▁4":1261,"▁Ch":1262,"ào":1263,"▁cơ":1264,"▁do":1265,"ợp":1266,"uyệ":1267,"ẫn":1268,"en":1269,"iệp":1270,"▁K":1271,"_b":1272,"▁cả":1273,"n_b":1274,"anh_":1275,"▁5":1276,"▁Ng":1277,"_nh":1278,"▁mà":1279,"òng":1280,"ar":1281,"ung_":1282,"▁việc":1283,"ình_":1284,"▁sự":1285,"▁qua":1286,"▁còn":1287,"▁sau":1288,"ọn":1289,"ễn":1290,"▁hơn":1291,"▁xe":1292,"▁nhưn":1293,"▁nhưng":1294,"▁tiế":1295,"▁giá":1296,"ền":1297,"ưởn":1298,"ưởng":1299,"ắn":1300,"hiện":1301,"inh_":1302,"ún":1303,"▁nó":1304,"ụn":1305,"úng":1306,"uộc":1307,"ụng":1308,"▁thì":1309,"úc":1310,"ia":1311,"ỉnh":1312,"▁đang":1313,"▁đồng":1314,"▁đi":1315,"▁A":1316,"al":1317,"▁kho":1318,"▁biết":1319,"i_đ":1320,"▁nước":1321,"_ph":1322,"_m":1323,"▁thực_":1324,"▁anh":1325,"▁tôi":1326,"▁y":1327,"▁nhất":1328,"uyện":1329,"ảng":1330,"▁họ":1331,"▁D":1332,"quan":1333,"▁mới":1334,"ươ":1335,"▁giả":1336,"oại":1337,"iên_":1338,"ài_":1339,"▁thu":1340,"_tế":1341,"▁trước":1342,"âm":1343,"▁G":1344,"iển":1345,"ạt":1346,"ại_":1347,"ng_h":1348,"oàn":1349,"▁Ph":1350,"▁6":1351,"▁rất":1352,"ữa":1353,"ặt":1354,"▁Nh":1355,"ơi":1356,"Qu":1357,"am_":1358,"▁tháng":1359,"▁dự":1360,"oài":1361,"_định":1362,"▁chủ":1363,"ng_đ":1364,"▁tu":1365,"ản_":1366,"▁xu":1367,"▁đề":1368,"▁thành_":1369,"ính_":1370,"▁thế":1371,"▁mình":1372,"áy":1373,"▁đầu_t":1374,"▁mu":1375,"▁lên":1376,"▁tỉnh":1377,"em":1378,"ồi":1379,"uật":1380,"_trình":1381,"ấu":1382,"▁bộ":1383,"ếu":1384,"▁chuy":1385,"▁nguy":1386,"▁vì":1387,"nghiệp":1388,"ắc":1389,"ạnh":1390,"ắt":1391,"▁hà":1392,"ng_c":1393,"▁chiế":1394,"gia":1395,"▁độ":1396,"▁điều":1397,"▁cao":1398,"_trường":1399,"▁tuy":1400,"ọng":1401,"iền":1402,"ánh":1403,"ảnh":1404,"▁đối":1405,"viên":1406,"ạch":1407,"n_n":1408,"ấn":1409,"ạm":1410,"óa":1411,"▁công_t":1412,"es":1413,"▁thờ":1414,"▁7":1415,"iệt":1416,"_gi":1417,"ạng":1418,"▁nên":1419,"ặc":1420,"▁vẫn":1421,"▁cùng":1422,"iệm":1423,"▁khác":1424,"▁kế":1425,"▁lớ":1426,"▁thị":1427,"▁tới":1428,"▁xã":1429,"im":1430,"ốc_":1431,"▁đị":1432,"▁đây":1433,"▁hai":1434,"âu":1435,"_chức":1436,"ứn":1437,"ứng":1438,"▁vậ":1439,"▁10":1440,"▁a":1441,"t_n":1442,"▁gia":1443,"i_ph":1444,"▁thực_hiện":1445,"000":1446,"_dụng":1447,"ương_":1448,"▁con":1449,"or":1450,"el":1451,"▁8":1452,"▁sử":1453,"▁quả":1454,"iệt_":1455,"uất":1456,"iều_":1457,"▁tổ_chức":1458,"▁tiếp":1459,"▁bạn":1460,"▁chứ":1461,"ón":1462,"▁u":1463,"iệc":1464,"▁p":1465,"▁nói":1466,"▁0":1467,"▁cá":1468,"▁tăng":1469,"quy":1470,"ốt":1471,"êm":1472,"iểu":1473,"▁rằng":1474,"▁phá":1475,"▁ta":1476,"▁19":1477,"ắng":1478,"út":1479,"▁cô":1480,"▁chưa":1481,"▁co":1482,"▁thủ":1483,"▁sản_":1484,"▁9":1485,"▁nhân_":1486,".000":1487,"ẩm":1488,"ối_":1489,"_tra":1490,"ướn":1491,"lượng":1492,"ướng":1493,"▁dân":1494,"▁chính":1495,"▁bảo":1496,"n_c":1497,"▁cần":1498,"ựn":1499,"ựng":1500,"n_v":1501,"▁Qu":1502,"▁chính_":1503,"_k":1504,"▁lớn":1505,"▁giao":1506,"▁tài_":1507,"▁phát":1508,"▁lần":1509,"▁di":1510,"_quan":1511,"_tục":1512,"▁cách":1513,"nhân":1514,"▁hiệ":1515,"▁thời_":1516,"_hội":1517,"▁chị":1518,"ọi":1519,"_kh":1520,"▁cấp":1521,"▁Kh":1522,"u_h":1523,"▁đá":1524,"▁tham_":1525,"▁xây":1526,"▁đầu_tư":1527,"Nam":1528,"_án":1529,"gian":1530,"▁đồ":1531,"ỗi":1532,"_dựng":1533,"et":1534,"▁nào":1535,"▁thấy":1536,"▁chúng":1537,"ửa":1538,"▁hay":1539,"vực":1540,"▁bà":1541,"▁quá":1542,"▁triệu":1543,"ên_":1544,"óng":1545,"▁U":1546,"▁200":1547,"u_c":1548,"▁đường":1549,"▁thứ":1550,"ừa":1551,"t_động":1552,"▁sử_dụng":1553,"▁tự":1554,"▁..":1555,"▁...":1556,"_ngh":1557,"▁thiế":1558,"iêu":1559,"▁phụ":1560,"▁tỷ":1561,"▁khá":1562,"_thống":1563,"▁đưa":1564,"▁hoạ":1565,"t_nam":1566,"ội_":1567,"m_v":1568,"ỏi":1569,"▁việt_nam":1570,"▁Việt_":1571,"▁đại_":1572,"▁hàng":1573,"▁vụ":1574,"▁địa_":1575,"▁hoạt_động":1576,"▁xây_dựng":1577,"_triển":1578,"quả":1579,"▁Việt_Nam":1580,"▁hành_":1581,"_động":1582,"▁quy_định":1583,"▁bằng":1584,"▁ba":1585,"▁khó":1586,"▁?":1587,"▁trở":1588,"▁điều_":1589,"is":1590,"▁tiền":1591,"ển":1592,"_thành":1593,"▁'":1594,"_tâm":1595,"▁bán":1596,"▁bệ":1597,"▁hoặc":1598,"▁nếu":1599,"▁cơ_quan":1600,"▁12":1601,"▁phát_triển":1602,"▁yê":1603,"it":1604,"▁cu":1605,"▁to":1606,"▁huyện":1607,"ép":1608,"▁báo":1609,"_thức":1610,"xuất":1611,"úp":1612,"ng_b":1613,"▁tuổi":1614,"ừn":1615,"ừng":1616,"at":1617,"▁vă":1618,"▁hạ":1619,"ặn":1620,"il":1621,"_trị":1622,"ạc":1623,"▁Hà":1624,"_trưởng":1625,"▁em":1626,"▁thời_gian":1627,"ic":1628,"_ho":1629,"ng_s":1630,"▁thông_t":1631,"▁quốc_":1632,"m_đ":1633,"▁nhận":1634,"ằm":1635,"dân":1636,"▁kinh_":1637,"▁khoảng":1638,"n_lý":1639,"uận":1640,"do":1641,"▁lã":1642,"uyền":1643,"▁giảm":1644,"▁cuộc":1645,"▁tập":1646,"▁phát_":1647,"▁bên":1648,"▁hiện":1649,"▁trung_":1650,"▁doanh_":1651,"_thể":1652,"phố":1653,"▁11":1654,"▁ngoài":1655,"▁vậy":1656,"as":1657,"▁xuất_":1658,"▁cổ":1659,"ưới":1660,"▁hợp":1661,"ết_đ":1662,"ảy":1663,"▁trẻ":1664,"▁so":1665,"▁công_ty":1666,"ủy":1667,"▁khiến":1668,"▁nay":1669,"▁R":1670,"ng_l":1671,"_trọng":1672,"▁mua":1673,"▁điện":1674,"âu_":1675,"_đình":1676,"▁đơ":1677,"▁tình_":1678,"▁nhiên":1679,"m_s":1680,"ro":1681,"▁thêm":1682,"▁I":1683,"c_s":1684,"▁kết_":1685,"c_n":1686,"▁đều":1687,"▁hồ":1688,"▁quản_lý":1689,"_N":1690,"phẩm":1691,"ết_định":1692,"▁lu":1693,"▁gây":1694,"▁giờ":1695,"▁máy":1696,"▁f":1697,"▁gì":1698,"ét":1699,"ặp":1700,"▁X":1701,"▁Gi":1702,"inh_tế":1703,"chính":1704,"▁thông_tin":1705,"▁liên_":1706,"▁bu":1707,"_thông":1708,"ng_k":1709,"▁doanh_nghiệp":1710,"▁tì":1711,"ầm":1712,"uyên":1713,"n_ch":1714,"c_b":1715,"▁=":1716,"▁mức":1717,"_tượng":1718,"ởi":1719,"▁gia_đình":1720,"▁giúp":1721,"▁giữa":1722,"_lý":1723,"▁chiếc":1724,"u_vực":1725,"▁nhau":1726,"▁từn":1727,"▁từng":1728,"▁Bộ":1729,"u_cầu":1730,"▁đất":1731,"c_đ":1732,"▁điểm":1733,"_g":1734,"▁khách":1735,"▁phí":1736,"▁gần":1737,"àu":1738,"▁dự_án":1739,"quốc":1740,"n_ph":1741,"_hoạch":1742,"sách":1743,"ấn_đ":1744,"▁khu_vực":1745,"▁!":1746,"ẳn":1747,"▁vừa":1748,"a_h":1749,"ậu":1750,"▁kinh_tế":1751,"oán":1752,"ol":1753,"id":1754,"_tịch":1755,"▁tổn":1756,"▁mẹ":1757,"▁thành_phố":1758,"phủ":1759,"ẹp":1760,"▁thuộc":1761,"ưu":1762,"n_d":1763,"ợi":1764,"▁mang":1765,"▁lo":1766,"▁thị_trường":1767,"▁học":1768,"▁gh":1769,"òa":1770,"▁mỹ":1771,"iếng":1772,"▁rồi":1773,"▁loại":1774,"_thủ":1775,"_sở":1776,"ứu":1777,"_trợ":1778,"▁lúc":1779,"▁nơi":1780,"_giới":1781,"▁trường":1782,"▁tốt":1783,"n_s":1784,"▁quyết_định":1785,"▁đặ":1786,"ầy":1787,"ắc_":1788,"▁giải":1789,"▁Nguy":1790,"▁quan":1791,"ưn":1792,"▁bao":1793,"ưng":1794,"▁khu":1795,"ặng":1796,"ạy":1797,"▁sản_xuất":1798,"▁pháp":1799,"▁15":1800,"▁an":1801,"_toàn":1802,"▁công":1803,"▁ý":1804,"n_bộ":1805,"óm":1806,"us":1807,"▁tiê":1808,"_cáo":1809,"▁Theo":1810,"▁thay":1811,"_nước":1812,"_tích":1813,"n_hành":1814,"▁hệ":1815,"ương_trình":1816,"n_gi":1817,"▁hết":1818,"▁tổng":1819,"▁thành":1820,"▁đạt":1821,"▁tiếp_tục":1822,"▁công_tác":1823,"▁sở":1824,"▁tạo":1825,"▁ngu":1826,"sự":1827,"t_b":1828,"n_kh":1829,"ìn":1830,"▁ngành":1831,"ẩn":1832,"▁hoàn":1833,"▁sáng":1834,"n_m":1835,"▁ảnh":1836,"âm_":1837,"_thuật":1838,"ắp":1839,"ít":1840,"_tôi":1841,"▁mỗi":1842,"▁xã_hội":1843,"ng_m":1844,"_sĩ":1845,"ra":1846,"_đổi":1847,"ảm":1848,"ng_d":1849,"▁ngay":1850,"▁Mỹ":1851,"ẳng":1852,"▁ngân_":1853,"▁nguyễn":1854,"▁i":1855,"▁hộ":1856,"▁tham_gia":1857,"n_vị":1858,"▁Nguyễn":1859,"▁giữ":1860,"▁w":1861,"ắm":1862,"_trí":1863,"quyền":1864,"iếu":1865,"▁thế_giới":1866,"quyết":1867,"▁chu":1868,"▁xử":1869,"iếp":1870,"c_biệt":1871,"ng_n":1872,"oạn":1873,"▁tên":1874,"▁Trong":1875,"▁hô":1876,"áu":1877,"▁trả":1878,"công":1879,"_tạo":1880,"óc":1881,"▁ngườ":1882,"▁mặt":1883,"▁muốn":1884,"▁đơn_vị":1885,"▁mọi":1886,"hàng":1887,"▁phần":1888,"▁rõ":1889,"▁đánh_":1890,"i_s":1891,"▁nhân_dân":1892,"▁chương_trình":1893,"om":1894,"ấn_đề":1895,"▁dù":1896,"ẩu":1897,"vụ":1898,"ad":1899,"nd":1900,"▁cái":1901,"ng_hợp":1902,"u_l":1903,"▁tính":1904,"▁cầu":1905,"▁gặp":1906,"▁hỗ":1907,"▁30":1908,"_r":1909,"▁vấn_đề":1910,"▁đà":1911,"_thời":1912,"▁phòng":1913,"▁vị":1914,"▁kỳ":1915,"▁Trung_":1916,"_nhân":1917,"_năng":1918,"▁TP":1919,"▁bởi":1920,"▁phía":1921,"▁Q":1922,"_x":1923,"▁tay":1924,"_luật":1925,"nh_đ":1926,"▁cơ_sở":1927,"▁cuộ":1928,"ượt":1929,"i_n":1930,"▁bỏ":1931,"▁kiểm":1932,"▁F":1933,"_nhiệm":1934,"doanh":1935,"ãn":1936,"▁vốn":1937,"phương":1938,"ac":1939,"hành":1940,"▁đặc_biệt":1941,"ức_":1942,"▁đầu_tiên":1943,"nhận":1944,"_tác":1945,"▁giáo":1946,"os":1947,"▁chúng_tôi":1948,"ãi":1949,"▁nhỏ":1950,"ẫu":1951,"▁diễn":1952,"▁sinh_":1953,"▁xác":1954,"▁tư":1955,"▁chia":1956,"▁nhiệ":1957,"▁khả":1958,"ter":1959,"▁liên_quan":1960,"_hàng":1961,"▁dịch":1962,"m_n":1963,"▁ai":1964,"▁ăn":1965,"▁mất":1966,"ổn":1967,"▁e":1968,"▁mù":1969,"▁vợ":1970,"▁chuyên_":1971,"▁ấy":1972,"▁trườ":1973,"▁E":1974,"▁kể":1975,"▁hỗ_trợ":1976,"▁mở":1977,"▁Ho":1978,"Quốc":1979,"i_b":1980,"i_phạm":1981,"▁phim":1982,"_tướng":1983,"▁chi":1984,"iêng":1985,"▁sản_phẩm":1986,"▁nữa":1987,"ồm":1988,"ấm":1989,"kết":1990,"▁tìm":1991,"▁trung":1992,"giá":1993,"học":1994,"▁nghĩ":1995,"▁lao":1996,"▁quốc_gia":1997,"hợp":1998,"▁quốc":1999,"le":2000,"▁tp":2001,"iễn":2002,"▁bất_":2003,"▁hệ_thống":2004,"▁tiề":2005,"▁xuống":2006,"▁luôn":2007,"▁đội":2008,"▁vùng":2009,"▁vô":2010,"▁thanh":2011,"▁dùng":2012,"oát":2013,"▁kinh_doanh":2014,"êu":2015,"ing":2016,"▁yêu_cầu":2017,"i_m":2018,"_nội":2019,"▁địa_phương":2020,"▁xảy":2021,"ưỡ":2022,"▁cứ":2023,"_thu":2024,"▁nội_":2025,"_thi":2026,"_sinh":2027,"m_b":2028,"éo":2029,"n_ng":2030,"▁tàu":2031,"▁lấy":2032,"▁sang":2033,"▁nhóm":2034,"▁kiểm_tra":2035,"▁dưới":2036,"▁18":2037,"ật_":2038,"ND":2039,"▁bắ":2040,"▁tin":2041,"▁xử_lý":2042,"▁triể":2043,"▁chống":2044,"ho":2045,"_kiến":2046,"▁đúng":2047,"▁đả":2048,"▁hà_nội":2049,"▁hình_":2050,"▁Hà_N":2051,"▁Hà_Nội":2052,"ur":2053,"n_bản":2054,"ng_ch":2055,"i_ch":2056,"▁trực":2057,"nh_h":2058,"nghệ":2059,"ậm":2060,"_vụ":2061,"▁tác":2062,"▁nhà_nước":2063,"▁Tuy":2064,"▁o":2065,"▁bệnh_":2066,"ực_lượng":2067,"lập":2068,"▁chất_":2069,"▁xem":2070,"▁nhằm":2071,"u_quả":2072,"▁quận":2073,"▁ít":2074,"uyển":2075,"▁chồng":2076,"óp":2077,"m_việc":2078,"▁nă":2079,"_ng":2080,"▁khả_năng":2081,"ịp":2082,"▁bệnh":2083,"▁tiêu_":2084,"▁vàn":2085,"▁j":2086,"▁kỹ":2087,"▁làm_việc":2088,"▁biển":2089,"a_ch":2090,"iêm":2091,"▁chú":2092,"ĩnh_":2093,"▁cạnh":2094,"m_đốc":2095,"▁toà":2096,"▁kế_hoạch":2097,"▁kết_quả":2098,"▁vàng":2099,"báo":2100,"▁tình":2101,"▁cửa":2102,"ng_kh":2103,"▁phân_":2104,"_tiếp":2105,"ường_":2106,"▁sống":2107,"kiện":2108,"_vệ":2109,"▁đón":2110,"▁thường":2111,"▁cụ":2112,"ea":2113,"▁ca":2114,"ổng":2115,"▁thông_":2116,"hình":2117,"▁thực":2118,"▁đủ":2119,"nh_đạo":2120,"_ban":2121,"▁tố":2122,"▁lực_lượng":2123,"_trạng":2124,"▁13":2125,"ương_m":2126,"▁Các":2127,"▁phó":2128,"▁cảnh_":2129,"i_d":2130,"cứu":2131,"um":2132,"▁đặt":2133,"▁14":2134,"_tính":2135,"▁16":2136,"▁cây":2137,"▁trách":2138,"_thân":2139,"ua":2140,"▁Anh":2141,"▁că":2142,"t_k":2143,"_tiêu":2144,"▁tuần":2145,"u_đ":2146,"▁thanh_":2147,"▁bản":2148,"▁bàn":2149,"▁chính_phủ":2150,"▁công_an":2151,"vật":2152,"ộc":2153,"_thường":2154,"▁ô":2155,"_lực":2156,"▁áp":2157,"▁in":2158,"▁J":2159,"_khăn":2160,"ửi":2161,"vi":2162,"ữu":2163,"▁bình_":2164,"▁W":2165,"iếm":2166,"_hợp":2167,"▁khó_khăn":2168,"i_nh":2169,"▁quốc_tế":2170,"▁quân_":2171,"▁nữ":2172,"ed":2173,"_nhận":2174,"iễ":2175,"▁lãnh_đạo":2176,"▁Công_":2177,"▁trận":2178,"viện":2179,"▁phát_hiện":2180,"ất_c":2181,"▁dân_":2182,"▁nướ":2183,"▁bảo_vệ":2184,"ot":2185,"▁lao_động":2186,"ng_ph":2187,"ẩy":2188,"ôi_trường":2189,"▁trách_nhiệm":2190,"▁diễ":2191,"▁lập":2192,"▁hình":2193,"ung_c":2194,"_toán":2195,"▁càng":2196,"n_hóa":2197,"▁hóa":2198,"▁ngân_hàng":2199,"▁phương":2200,"▁trường_hợp":2201,"▁giải_":2202,"▁bất":2203,"▁công_nghệ":2204,"▁điều_tra":2205,"▁cán_bộ":2206,"▁cuối":2207,"ầu_":2208,"▁đối_tượng":2209,"_dục":2210,"▁pháp_luật":2211,"▁nhậ":2212,"and":2213,"dung":2214,"▁chết":2215,"▁Y":2216,"n_nh":2217,"▁kiể":2218,"n_khai":2219,"▁chạy":2220,"_thị":2221,"iên_cứu":2222,"ái_":2223,"▁bắt":2224,"▁chế":2225,"_trung":2226,"▁cổ_ph":2227,"ệnh":2228,"ất_cả":2229,"sản":2230,"c_ng":2231,"▁triển_khai":2232,"▁giấy":2233,"▁ban":2234,"▁truyền":2235,"20":2236,"▁đầy":2237,"▁mạnh":2238,"▁chuyện":2239,"▁báo_cáo":2240,"▁vũ":2241,"òa_":2242,"▁đào":2243,"▁nghệ":2244,"▁đánh_giá":2245,"▁chủ_tịch":2246,"▁1.":2247,"_sẻ":2248,"▁25":2249,"▁17":2250,"▁an_toàn":2251,"▁giới":2252,"a_học":2253,"▁thuế":2254,"▁bé":2255,"▁hoa":2256,"▁Ngh":2257,"▁chung":2258,"diện":2259,",5":2260,"▁chất_lượng":2261,"▁điều_kiện":2262,"_máy":2263,"▁mô":2264,"▁cố":2265,"▁dịch_vụ":2266,"n_nay":2267,"▁truy":2268,"▁sinh":2269,"▁cá_nhân":2270,"ỏa":2271,"▁giao_thông":2272,"▁liên":2273,"_tải":2274,"▁riêng":2275,"quân":2276,"_thích":2277,"_số":2278,"▁lý":2279,"n_hệ":2280,"▁2014":2281,"▁nguồn":2282,"▁môi_trường":2283,"hội":2284,"▁đă":2285,"▁khai":2286,"▁nghiên_cứu":2287,"▁chiến":2288,"_tử":2289,"▁châu_":2290,"▁sao":2291,"nghị":2292,"▁nam":2293,"m_vụ":2294,"▁2015":2295,"▁Ô":2296,"_loại":2297,"ạp":2298,"▁hiệu_quả":2299,"▁dễ":2300,"▁nằm":2301,"▁quan_trọng":2302,"▁100":2303,"▁ngô":2304,"▁trung_quốc":2305,"▁ub":2306,"▁chia_sẻ":2307,"ưỡn":2308,"▁phút":2309,"_thoại":2310,"▁Trung_Quốc":2311,"ưỡng":2312,"ếp":2313,"_đạo":2314,"ối_hợp":2315,"▁chí":2316,"_việc":2317,"biểu":2318,"▁trở_thành":2319,"▁gửi":2320,"u_lịch":2321,"▁nhập":2322,"▁nhiệm_vụ":2323,"▁sức_":2324,"▁vòng":2325,"▁thông":2326,"ải_":2327,"ĩa":2328,"▁UB":2329,"t_l":2330,"m_bảo":2331,"▁tất_cả":2332,"▁trang":2333,"sát":2334,"c_năng":2335,"_sơ":2336,"▁Sau":2337,"ip":2338,"▁giải_quyết":2339,"_do":2340,"_lại":2341,"▁chức_năng":2342,"▁danh_":2343,"▁đảm_bảo":2344,"_thương":2345,"▁nổi":2346,"▁nông_":2347,"ối_c":2348,"i_điểm":2349,"_tình":2350,"▁2016":2351,"nhập":2352,"▁đứng":2353,"bàn":2354,"độ":2355,"▁phối_hợp":2356,"▁chuyển":2357,"▁khỏi":2358,"▁văn":2359,"▁quyền":2360,"▁đêm":2361,"▁chơi":2362,"▁tài_chính":2363,"one":2364,"▁lợ":2365,"▁địa_bàn":2366,"▁Chủ":2367,"_nghị":2368,"ãng":2369,"▁trung_tâm":2370,"c_sinh":2371,"▁nước_ng":2372,"▁khoa_học":2373,"▁nhìn":2374,"▁ả":2375,"▁Nhà":2376,"▁nội_dung":2377,"uôi":2378,"▁chân":2379,"▁yêu":2380,"èo":2381,"▁buổi":2382,"▁vai":2383,"n_hình":2384,"▁Ôn":2385,"▁tra":2386,"▁O":2387,"_nữ":2388,"ẳng_đ":2389,"ừa_":2390,"▁chính_sách":2391,"▁thu_h":2392,"▁hiện_nay":2393,"▁đề_nghị":2394,"▁mạng":2395,"▁21":2396,"▁Ông":2397,"n_đấu":2398,"▁hồ_sơ":2399,"n_định":2400,"▁đô":2401,"▁phục_":2402,"ir":2403,"▁bổ":2404,"▁duy":2405,"▁cảm_":2406,"nghiệm":2407,"▁áo":2408,"qua":2409,"▁dành":2410,"ẳng_định":2411,"▁us":2412,"ọa":2413,"_tiếng":2414,"▁ubnd":2415,"▁UBND":2416,"▁lời":2417,"▁bước":2418,"▁gọi":2419,"▁tài_sản":2420,"_chí":2421,"▁khẳng_định":2422,"▁nước_ngoài":2423,"ám":2424,"ứa":2425,"▁mặ":2426,"▁thời":2427,"▁ủy":2428,"▁bác":2429,"▁vài":2430,"_T":2431,"▁du_lịch":2432,"oo":2433,"_tin":2434,"▁đôi":2435,"▁học_sinh":2436,"▁2013":2437,"▁thời_điểm":2438,"▁tấ":2439,"▁văn_hóa":2440,"▁tình_trạng":2441,"▁24":2442,"▁US":2443,"▁đoàn":2444,"▁ký":2445,"▁thay_đổi":2446,"▁bố":2447,"nh_hưởng":2448,"_thắng":2449,"▁50":2450,"ói":2451,"▁ảnh_hưởng":2452,"▁bình":2453,"_tại":2454,"t_đầu":2455,"▁phù":2456,"_tranh":2457,"▁đẹp":2458,"▁&":2459,"ng_viên":2460,"▁Tôi":2461,"▁ứ":2462,"_tự":2463,"▁trao":2464,"▁mo":2465,"▁Một":2466,"ĩnh_vực":2467,"▁công_trình":2468,"âng_c":2469,"▁đánh":2470,"▁Văn":2471,"▁đăng_k":2472,"▁nga":2473,"▁công_v":2474,"▁thẩ":2475,"▁phụ_nữ":2476,"eb":2477,"▁thủy":2478,"_tập":2479,"ap":2480,"▁sân":2481,"▁đồng_thời":2482,"n_nhân":2483,"▁giá_trị":2484,"▁thấp":2485,"▁thương":2486,"▁bắt_đầu":2487,"▁phường":2488,"▁22":2489,"n_công":2490,"▁da":2491,"▁giám_đốc":2492,"_tiết":2493,"▁lĩnh_vực":2494,"ung_cấp":2495,"▁lễ":2496,"n_g":2497,"▁thi":2498,"▁công_b":2499,"▁tí":2500,"i_đồng":2501,"i_c":2502,"_hiểm":2503,"▁vi_phạm":2504,"▁lớp":2505,"▁hoà":2506,"▁ngo":2507,"▁giáo_dục":2508,"▁đóng":2509,"ương_mại":2510,"▁cộ":2511,"▁cung_cấp":2512,"▁Điều":2513,"▁quan_hệ":2514,"▁Chính_":2515,"▁đổ":2516,"▁vị_trí":2517,"▁phương_":2518,"▁2010":2519,"_bay":2520,"▁nâng_c":2521,"▁chịu":2522,"kỳ":2523,"ut":2524,"▁biể":2525,"▁xuất_hiện":2526,"_thế":2527,"▁usd":2528,"▁dẫn":2529,"▁lượng":2530,"▁USD":2531,"n_viên":2532,"▁thiếu":2533,"▁thật":2534,"_lệ":2535,"▁chiều":2536,"▁chỉ_đạo":2537,"▁hình_ảnh":2538,"t_kế":2539,"▁2017":2540,"▁thành_công":2541,"▁diện":2542,"▁nền":2543,"ỏe":2544,"▁thành_viên":2545,"▁mục":2546,"Ph":2547,"▁cầu_thủ":2548,"▁ma":2549,"ĩnh":2550,"▁đăng_ký":2551,"▁Thủ":2552,"àm":2553,"▁đườ":2554,"▁đa":2555,"▁vượt":2556,"▁Tổng":2557,"cm":2558,"_thiện":2559,"uổi":2560,"▁hướng":2561,"▁tập_trung":2562,"ne":2563,"ẵn":2564,"_trì":2565,".1":2566,"▁máy_bay":2567,"▁23":2568,"▁quá_trình":2569,"oa":2570,"▁hội_":2571,"ãy":2572,"▁199":2573,"_phép":2574,"▁nguyên":2575,"▁thiết_kế":2576,"_tố":2577,"▁kéo":2578,"▁tỉ":2579,"▁Ả":2580,"▁gồm":2581,"ớm":2582,"ent":2583,"▁nghề":2584,"uyế":2585,"_ý":2586,"CM":2587,"▁thú":2588,"▁đào_tạo":2589,"▁ghi":2590,"c_sống":2591,"▁2011":2592,"▁sân_":2593,"▁hội":2594,"úi":2595,"▁kê":2596,"ém":2597,"▁Nga":2598,"▁giao_d":2599,"▁Sở":2600,"▁đại_diện":2601,"ầng":2602,"▁lạ":2603,"▁khách_hàng":2604,"▁cháu":2605,"_thư":2606,"▁tiến_hành":2607,"bình":2608,"▁tích":2609,"▁đất_":2610,"▁xác_định":2611,"▁dài":2612,"▁Thị":2613,"▁Chủ_tịch":2614,"gờ":2615,"▁tuyến":2616,"▁giống":2617,"▁góp":2618,"▁thương_mại":2619,"lo":2620,"▁mắt":2621,"▁chă":2622,"▁chuẩ":2623,"uyệt":2624,"▁thuốc":2625,"▁vu":2626,"t_bị":2627,"▁hợp_tác":2628,"▁liê":2629,"_đồng":2630,"▁kỹ_thuật":2631,"▁luật":2632,"▁Chính_phủ":2633,"▁phù_hợp":2634,"i_l":2635,"▁ý_kiến":2636,"▁thí":2637,"ew":2638,"anh_ch":2639,"▁chất":2640,"▁tươ":2641,"_tay":2642,"▁chẳng":2643,"▁lê":2644,"▁chọn":2645,"iv":2646,"▁sớm":2647,"▁2012":2648,"_hữu":2649,"khẩu":2650,"▁cơ_hội":2651,"▁xin":2652,"▁trần":2653,"▁bó":2654,"▁nghe":2655,"▁vn":2656,"ão":2657,"▁su":2658,"▁Những":2659,"▁trực_tiếp":2660,"▁Công_t":2661,"Th":2662,"▁hành_chính":2663,"▁toàn":2664,"▁cụ_thể":2665,"▁Ảnh":2666,"▁thích":2667,"u_n":2668,"▁tối":2669,"▁phục_vụ":2670,"▁giải_ph":2671,"ex":2672,"▁quý":2673,"n_cứ":2674,"▁thiết_bị":2675,"gu":2676,"▁sức":2677,"▁đo":2678,"uẩn":2679,"▁đáng":2680,"▁nhanh":2681,"▁công_bố":2682,"▁công_việc":2683,"▁chuyể":2684,"▁điện_thoại":2685,"▁xa":2686,"_qu":2687,"▁mặc":2688,"▁hành_vi":2689,"_trai":2690,"ăng_c":2691,"xét":2692,"▁giao_dịch":2693,"▁văn_bản":2694,"▁y_tế":2695,"▁thi_":2696,"▁tử":2697,"▁lịch":2698,"▁trình_":2699,"▁giai_đ":2700,"▁kỷ":2701,"▁Quốc_":2702,"▁nghị":2703,"_trang":2704,"▁nổ":2705,"ng_dẫn":2706,"▁bệnh_viện":2707,"▁tấn_công":2708,"n_ninh":2709,"▁bài":2710,"▁bá":2711,"ên_l":2712,"khách":2713,"▁viên":2714,"_chế":2715,"n_bị":2716,"▁thực_tế":2717,"▁thường_":2718,"động":2719,"▁hu":2720,"▁không_":2721,"▁mẫu":2722,"ăng_cường":2723,"_thần":2724,"ng_ng":2725,"▁làn":2726,"▁Hồ":2727,"n_pháp":2728,"▁thủ_tục":2729,"sắc":2730,"c_l":2731,"▁hợp_đồng":2732,"▁tìm_":2733,"ov":2734,"▁nộ":2735,"▁khoản":2736,"▁thể_h":2737,"▁sa":2738,"▁cuộc_sống":2739,"▁sông":2740,"▁al":2741,"▁số_l":2742,"_tiện":2743,"st":2744,"▁đâu":2745,"▁hãng":2746,"▁mục_tiêu":2747,"nh_m":2748,"▁kiểm_s":2749,"▁loài":2750,"ion":2751,"▁thi_đ":2752,"▁nhờ":2753,"ần_đ":2754,"▁giai_đoạn":2755,"▁hướ":2756,"▁nghiêm":2757,"▁Công_ty":2758,"▁cảnh_sát":2759,"lý":2760,"▁chuẩn_bị":2761,"▁ổ":2762,"▁công_nghiệp":2763,"ạn_nhân":2764,"▁phiên":2765,"▁Quả":2766,"▁vay":2767,"▁quan_tâm":2768,"▁đông":2769,"▁Ủ":2770,"▁hoàn_toàn":2771,"▁chấp":2772,"▁nguồ":2773,"▁thể_hiện":2774,"▁tình_hình":2775,"m_ph":2776,"▁tiếng":2777,"▁thông_báo":2778,"n_phòng":2779,"▁huy":2780,"▁chính_thức":2781,"▁26":2782,"_trò":2783,"_sung":2784,"_viên":2785,"ủng_h":2786,"▁40":2787,"yêu":2788,"▁thố":2789,"niên":2790,"▁Phó":2791,"▁trậ":2792,"_báo":2793,"▁2018":2794,"▁phản_":2795,"▁an_ninh":2796,"▁Giá":2797,"▁tăng_cường":2798,"n_giả":2799,"ak":2800,"▁+":2801,"▁sở_hữu":2802,"_thác":2803,"▁bổ_sung":2804,"_nghiệp":2805,"▁nhu_cầu":2806,"▁bóng":2807,"_y":2808,"▁hiểu":2809,"▁tù":2810,"▁ngoại_":2811,"n_dụng":2812,"▁q":2813,"▁Khi":2814,"▁nạn_nhân":2815,"▁hướng_dẫn":2816,"▁km":2817,"▁đàn_":2818,"ul":2819,"▁sơ":2820,"▁đức":2821,"▁thử":2822,"ên_nhân":2823,"_tưởng":2824,"▁Quy":2825,"_tiên":2826,"t_ch":2827,"▁28":2828,"phục":2829,"▁đại_học":2830,"▁Tổ":2831,"▁viết":2832,"▁27":2833,"▁Đại_":2834,"▁ủy_ban":2835,"▁trở_lại":2836,"▁hy":2837,"art":2838,"▁chuyên_gia":2839,"▁đáp":2840,"▁áp_dụng":2841,"re":2842,"▁quay":2843,"▁đối_":2844,"▁hàng_h":2845,"ợt":2846,"ậy":2847,"iet":2848,"▁yếu":2849,"▁hôm":2850,"úy":2851,"▁tạm":2852,"▁biệ":2853,"ie":2854,"▁tấn":2855,"▁nhân_viên":2856,"▁1,":2857,"_đoàn":2858,"m_ch":2859,"▁dầu":2860,"xuyên":2861,"▁uống":2862,"▁cử":2863,"_thảo":2864,"▁tiêu_ch":2865,"_luận":2866,"▁nợ":2867,"▁nâng_cao":2868,"ng_nh":2869,"▁tt":2870,"ag":2871,"▁khán_giả":2872,"▁giành":2873,"_độ":2874,"▁kiểm_soát":2875,"NG":2876,"ngờ":2877,"khỏe":2878,"▁tránh":2879,"▁TT":2880,"▁chi_ph":2881,"_tộc":2882,"_thuận":2883,"▁nặng":2884,"ên_b":2885,"▁Ủy":2886,"_biến":2887,"▁thủ_tướng":2888,"▁Lê":2889,"i_h":2890,"▁Ngày":2891,"NH":2892,"ẵng":2893,"ine":2894,"ton":2895,"▁Trần":2896,"uân":2897,"▁nghỉ":2898,"▁lương":2899,"▁trái":2900,"▁bất_ngờ":2901,"_thiết":2902,"▁kịp":2903,"▁Nếu":2904,"▁trận_đấu":2905,"▁hcm":2906,"▁khai_thác":2907,"▁công_ch":2908,"▁Nhưng":2909,"▁cha":2910,"▁HCM":2911,"▁thậm":2912,"▁ngồi":2913,"Ch":2914,"▁Đức":2915,"▁cổ_phiếu":2916,"ụp":2917,"▁lự":2918,"▁bí":2919,"ec":2920,"▁cải":2921,"▁Công_an":2922,"▁biện_pháp":2923,"▁sức_khỏe":2924,"▁sinh_viên":2925,"▁thường_xuyên":2926,"a_kh":2927,"úa":2928,"▁ban_hành":2929,"▁29":2930,"50":2931,"▁thuê":2932,"▁cl":2933,"▁cháy":2934,"_thực":2935,"▁mối":2936,"▁đẩy":2937,"▁pho":2938,"▁lòng":2939,"ill":2940,"▁chính_quyền":2941,"▁chỗ":2942,"èm":2943,"▁chờ":2944,"ỏn":2945,"_giá":2946,"▁tương_":2947,"t_m":2948,"số":2949,"▁Có":2950,"▁mạ":2951,"ab":2952,"▁ngân_sách":2953,"▁mùa":2954,"phòng":2955,"▁phương_tiện":2956,"ỏng":2957,"ối_cùng":2958,"▁cũ":2959,"ên_bố":2960,"▁chi_phí":2961,"▁nguyên_nhân":2962,"▁bao_g":2963,"▁quy_hoạch":2964,"▁Ban":2965,"▁đồng_":2966,"▁đạo":2967,"m_l":2968,"▁Không":2969,"ọt":2970,"_lời":2971,"ùi":2972,"▁nghèo":2973,"ard":2974,"m_ng":2975,"▁thành_lập":2976,"▁bao_gồm":2977,"ist":2978,"ọp":2979,"▁st":2980,"▁*":2981,"▁đàn_ông":2982,"m_sát":2983,"▁hỏi":2984,"_khẩu":2985,"giới":2986,"phúc":2987,"▁biên_":2988,"u_d":2989,"▁thí_sinh":2990,"khảo":2991,".5":2992,"▁rừng":2993,"_phần":2994,"iễm":2995,"▁nổi_tiếng":2996,"ng_đồng":2997,"_thưởng":2998,"▁hoàn_thành":2999,"▁may":3000,"▁bảng":3001,"▁Người":3002,"▁Thể":3003,"▁khí":3004,"_gái":3005,"▁lâu":3006,"a_chọn":3007,"▁xuất_khẩu":3008,"amp":3009,"▁Đây":3010,"▁trồng":3011,"n_động":3012,"▁Trước":3013,"▁điều_ch":3014,"▁thư":3015,"▁việt":3016,"ri":3017,"▁>":3018,"ran":3019,"▁suy":3020,"▁câu_":3021,"▁diện_tích":3022,"_kiện":3023,"▁mưa":3024,".2":3025,"30":3026,"▁hành_động":3027,"▁đô_thị":3028,"▁tuyên_bố":3029,"▁lựa_chọn":3030,"_sử":3031,"▁tây":3032,"▁thu_":3033,"▁độc_":3034,"n_đầu":3035,"▁phân":3036,"▁mã":3037,"ần_đây":3038,"▁2009":3039,"i_nạn":3040,"_pháp":3041,"hại":3042,"▁bác_sĩ":3043,"▁nông":3044,"ess":3045,"▁nhân":3046,"▁thẩm_":3047,"▁tinh":3048,"▁Trung":3049,"nước":3050,"▁ổn_định":3051,"▁thanh_niên":3052,"▁thiệt_":3053,"▁trá":3054,"ng_v":3055,"▁đảng":3056,"▁ti":3057,"▁diễn_viên":3058,"▁miề":3059,"yr":3060,"▁Việt":3061,"▁thực_phẩm":3062,"▁bài_":3063,"▁vừa_":3064,"▁0,":3065,"▁phê":3066,"▁minh":3067,"▁giải_pháp":3068,"▁cuối_cùng":3069,"▁kiến":3070,"▁tiến":3071,"▁tai_nạn":3072,"▁ngọc":3073,"▁căn_cứ":3074,"_dài":3075,"▁nhẹ":3076,"oạt":3077,"▁bay":3078,"▁tổng_thống":3079,"▁sắp":3080,"_hình":3081,"▁phổ":3082,"nhiên":3083,"▁điều_chỉnh":3084,"▁sửa":3085,"▁coi":3086,"▁phong":3087,"▁phạm":3088,"▁Ủy_ban":3089,"▁kết":3090,"_ứng":3091,"▁tỷ_lệ":3092,"▁nuôi":3093,"m_c":3094,"▁lưu":3095,"▁Từ":3096,"▁truyề":3097,"▁31":3098,"▁quê":3099,"▁Thủ_tướng":3100,"▁thể_loại":3101,"dự":3102,"luận":3103,"_L":3104,"n_quốc":3105,"▁ha":3106,"_tả":3107,"nh_phúc":3108,"đội":3109,"ina":3110,"▁bóng_đ":3111,"▁thi_đấu":3112,"▁đấu":3113,"▁lư":3114,"_cực":3115,"▁Thanh":3116,"▁cuộc_":3117,"▁nông_nghiệp":3118,"Tr":3119,"guyên":3120,"_vọng":3121,"▁khở":3122,"▁cảm":3123,"minh":3124,"m_xét":3125,"▁sách":3126,"▁Với":3127,"▁hiệp":3128,"▁vụ_việc":3129,"▁01":3130,"▁toàn_bộ":3131,"▁gần_đây":3132,"▁tức":3133,"▁trụ":3134,"▁phò":3135,"ớn":3136,"co":3137,"uyết":3138,"▁chính_trị":3139,"▁dân_tộc":3140,"▁cà":3141,"▁kg":3142,"_thuộc":3143,"▁bạ":3144,"▁lịch_sử":3145,"▁hàng_hóa":3146,"▁Ngoài":3147,"▁phầ":3148,"_thao":3149,"õi":3150,"▁số_lượng":3151,"▁trả_lời":3152,"▁vệ":3153,"▁nộp":3154,"▁hậ":3155,"▁–":3156,"est":3157,"▁Do":3158,"▁dòng":3159,"▁dự_kiến":3160,"iên_bản":3161,"▁bóng_đá":3162,"▁phố":3163,"▁nhớ":3164,"_tuyển":3165,"▁kẻ":3166,"_tô":3167,"kiếm":3168,"▁trọng":3169,"▁cộng_đồng":3170,"▁hãy":3171,"_điểm":3172,"▁tích_cực":3173,"▁mấy":3174,"_thôn":3175,"ev":3176,"▁điệ":3177,"ng_lực":3178,"▁kích":3179,"c_m":3180,"▁bức":3181,"▁đội_b":3182,"▁cục":3183,"_tài":3184,"▁198":3185,"▁chụp":3186,"▁ngoại":3187,"_truyền":3188,"▁trưởng":3189,"m_nay":3190,"▁điều_trị":3191,"▁đỏ":3192,"▁TH":3193,"ig":3194,"▁nón":3195,"_bản":3196,"▁tô":3197,"▁đội_bóng":3198,"ịa":3199,"▁chiếm":3200,"oản":3201,"▁á":3202,"▁Minh":3203,"▁hạn_ch":3204,"▁chuyến":3205,"▁Vă":3206,"ng_sản":3207,"▁dịp":3208,"▁Bình_":3209,"▁hồi":3210,"ùa":3211,"gue":3212,"khí":3213,"▁60":3214,"▁đảo":3215,"ín":3216,"▁thắng":3217,"▁chợ":3218,"▁đứa":3219,"▁cô_gái":3220,"▁ca_sĩ":3221,"▁Nhà_nước":3222,"▁liên_tục":3223,"_rộng":3224,"▁máu":3225,"▁hải_":3226,"_thúc":3227,"▁đại_biểu":3228,"ob":3229,"▁chiến_thắng":3230,"m_d":3231,"_nghĩa":3232,"▁giám_sát":3233,"▁hạn_chế":3234,"cảm":3235,"▁đơn":3236,"▁vai_trò":3237,"n_người":3238,"_Đ":3239,"n_lợi":3240,"_quyết":3241,"ik":3242,"▁thôi":3243,"▁Tại":3244,"_yếu":3245,"ứt":3246,"▁tranh":3247,"▁cổ_phần":3248,"▁Ngọc":3249,"▁điện_tử":3250,"▁hiện_tại":3251,"▁nỗ":3252,"▁kèm":3253,"▁quỹ":3254,"▁đời":3255,"_em":3256,"uốn":3257,"▁lý_do":3258,"▁nêu":3259,"▁lẽ":3260,"_cơ":3261,"tt":3262,"▁vừa_qua":3263,"▁khuyế":3264,"▁thực_sự":3265,"▁xem_xét":3266,"n_đường":3267,"▁hội_đồng":3268,"▁thu_hút":3269,"▁vận":3270,"▁tăng_trưởng":3271,"▁tờ":3272,"ót":3273,"▁tính_":3274,"▁hoàng":3275,"▁quân":3276,"▁xếp":3277,"ấu_":3278,"▁Thanh_":3279,"▁thầy":3280,"▁chữa":3281,"▁vẻ":3282,"▁tiêu_d":3283,"yria":3284,"ng_g":3285,"i_ng":3286,"▁dư":3287,"▁mở_rộng":3288,"▁hạnh_phúc":3289,"▁bệnh_nhân":3290,"uấn":3291,"▁nóng":3292,"_sau":3293,"▁con_người":3294,"▁Quảng_":3295,"ục_đ":3296,"▁thá":3297,"▁ủng_h":3298,"▁ủng_hộ":3299,"▁biế":3300,"▁tâm_":3301,"liệu":3302,"ell":3303,"▁cho_phép":3304,"▁Thể_loại":3305,"▁quân_sự":3306,".3":3307,"phí":3308,"▁nông_thôn":3309,"if":3310,"▁đại":3311,"ck":3312,"▁làng":3313,"ng_bộ":3314,"ng_dụng":3315,"▁hòa_":3316,"▁rút":3317,"▁cậu":3318,"▁chủ_yếu":3319,"▁đất_nước":3320,"_xuất":3321,"▁đoạn":3322,"pháp":3323,"▁xung_":3324,"▁đố":3325,"op":3326,"ank":3327,"_vấn":3328,"▁lái":3329,"▁chế_độ":3330,"▁trẻ_em":3331,"▁học_":3332,"▁cự":3333,"▁tìm_kiếm":3334,"▁nghìn":3335,"▁thất_":3336,"_đảm":3337,"_trương":3338,"_phẩm":3339,"▁hôm_nay":3340,"_cấp":3341,"▁xe_máy":3342,"▁trò":3343,"i_động":3344,"n_đại":3345,"▁viện":3346,"▁chữ":3347,"▁bản_thân":3348,"_khí":3349,"▁thịt":3350,"▁thỏa":3351,"▁đáp_ứng":3352,"▁trăm":3353,"ấu_h":3354,"▁tà":3355,"▁cú":3356,"▁nhập_khẩu":3357,"▁quân_đội":3358,"anh_chóng":3359,"▁ư":3360,"▁dạy":3361,"▁hầu":3362,"m_định":3363,"ỳnh":3364,"▁hình_thức":3365,"▁tặng":3366,"òi":3367,"▁nhanh_chóng":3368,"▁địa":3369,"▁tiêu":3370,"t_ng":3371,"▁truyền_hình":3372,"up":3373,"ng_không":3374,"▁tài":3375,"m_sóc":3376,"▁phú":3377,"▁nguy_cơ":3378,"▁nỗ_lực":3379,"▁trung_ương":3380,"av":3381,"▁bản_":3382,"▁lá":3383,"_tắc":3384,"▁niề":3385,"▁tinh_thần":3386,"ce":3387,"_thiệu":3388,"ng_cách":3389,"▁chở":3390,"▁khủ":3391,"▁Tây":3392,"_liệu":3393,"▁đầy_đ":3394,"▁chục":3395,"_đô":3396,"▁bảo_đảm":3397,"▁thôn":3398,"ên_lửa":3399,"▁sá":3400,"▁âm_":3401,"▁vé":3402,"▁đau":3403,"▁Hải_":3404,"_huy":3405,"▁thẩm_quyền":3406,"_tư":3407,"_xã":3408,"ốc_độ":3409,"▁chi_tiết":3410,"_thấy":3411,"▁kinh_nghiệm":3412,"▁bộ_trưởng":3413,"▁chú_ý":3414,"n_gái":3415,"năng":3416,"_M":3417,"▁xuân":3418,"ướp":3419,"▁chăm_sóc":3420,"▁giới_thiệu":3421,"▁Thái_":3422,"▁trú":3423,"_mạnh":3424,"▁ki":3425,"▁chiến_l":3426,"▁500":3427,"_hai":3428,"▁nghĩa":3429,"pp":3430,"▁sự_kiện":3431,"▁hả":3432,"▁khối":3433,"iêu_":3434,"ich":3435,"▁rộng":3436,"ry":3437,"lv":3438,"▁2008":3439,"▁dừng":3440,"▁trắng":3441,"▁thể_thao":3442,"▁đầy_đủ":3443,"▁truyền_thống":3444,"ideo":3445,"▁sạch":3446,"▁Nam":3447,"▁định_":3448,"▁hiện_đại":3449,"▁the":3450,"c_làm":3451,"hạn":3452,"▁An":3453,"▁ứng_dụng":3454,"▁tái":3455,"nhạc":3456,"▁màu":3457,"▁cảnh":3458,"▁Nghị":3459,"▁kéo_dài":3460,"▁tên_lửa":3461,"bay":3462,"▁góp_phần":3463,"ng_khoán":3464,"rai":3465,"ét_":3466,"▁tho":3467,"lai":3468,"eal":3469,"▁tốc_độ":3470,"▁35":3471,"▁đơn_gi":3472,"xử":3473,"▁con_gái":3474,"_túy":3475,"▁hành":3476,"▁văn_phòng":3477,"▁nhạc":3478,"▁thi_hành":3479,"▁ô_tô":3480,".4":3481,"▁sỹ":3482,"▁sâu":3483,"▁thu_nhập":3484,"▁pha":3485,"▁thanh_tra":3486,"ok":3487,"▁Pháp":3488,"ẹn":3489,"eague":3490,"ương_h":3491,"▁tương":3492,"Gi":3493,"èn":3494,"ớt":3495,"n_số":3496,"▁cơ_thể":3497,"▁việc_làm":3498,"ib":3499,"▁cặp":3500,"▁hội_nghị":3501,"xúc":3502,"▁thân":3503,"ng_lượng":3504,"▁sợ":3505,"▁báo_chí":3506,"cư":3507,"▁phả":3508,"▁khóa":3509,"▁tâm":3510,"chuyện":3511,"_tầng":3512,"ca":3513,"ers":3514,"▁trị":3515,"▁cảm_thấy":3516,"▁kết_thúc":3517,"▁thăm":3518,"▁tết":3519,"▁tuyên":3520,"▁Vũ":3521,"▁siêu":3522,"_trấn":3523,"ail":3524,"▁cuộc_thi":3525,"▁rơi":3526,"iến_":3527,"i_nhà":3528,"▁bị_cáo":3529,"ian":3530,"▁phép":3531,"gọi":3532,"▁minh_":3533,"ha":3534,"i_v":3535,"▁án":3536,"▁cần_thiết":3537,"▁Hoàng":3538,"_dân":3539,"▁tương_đ":3540,"▁nghệ_thuật":3541,"▁dẫ":3542,"giải":3543,"▁động":3544,"▁đem":3545,"_thái":3546,"▁Luật":3547,"▁Tài_":3548,"▁bờ":3549,"▁vụ_án":3550,"_minh":3551,"▁thứ_hai":3552,"m_h":3553,"_địch":3554,"▁ar":3555,"oan":3556,"▁nhà_máy":3557,"▁Giám_đốc":3558,"_H":3559,"▁trình":3560,"▁70":3561,"ềm":3562,"ines":3563,"▁đề_xuất":3564,"▁mùa_":3565,"▁nhấ":3566,"▁đợt":3567,"▁quán":3568,"_tiến":3569,"▁song":3570,"▁kha":3571,"▁ma_túy":3572,"▁chiều_":3573,"ục_đích":3574,"i_suất":3575,"▁tử_v":3576,"khoản":3577,"▁nhà_":3578,"▁gia_":3579,"▁tham_dự":3580,"▁bão":3581,"▁cầm":3582,"▁bắc":3583,"▁Hu":3584,"▁dữ":3585,"▁bảo_hiểm":3586,"▁quyề":3587,"▁ấn":3588,"net":3589,"▁lắm":3590,"ff":3591,"ựa":3592,"▁Năm":3593,"te":3594,"▁vận_tải":3595,"▁Chỉ":3596,"_tuổi":3597,"n_Đ":3598,"_học":3599,"ash":3600,",7":3601,"▁thị_trấn":3602,"▁Đà":3603,"ụt":3604,"ity":3605,"▁tiêu_chuẩn":3606,"▁thảo":3607,"▁tòa_":3608,"▁phương_án":3609,"▁trao_đổi":3610,"_tỏ":3611,"▁quốc_hội":3612,"▁tử_vong":3613,"_dõi":3614,"_mô":3615,"▁mời":3616,"▁chiến_lược":3617,"ore":3618,"▁sơn":3619,"▁nghiêm_trọng":3620,"▁sẵ":3621,"▁gái":3622,"▁bề":3623,"▁rõ_r":3624,"_duyệt":3625,"_thầu":3626,"▁Hiện":3627,"▁khắc_":3628,"n_mạnh":3629,"_thụ":3630,"▁đông_":3631,"▁đóng_g":3632,"LV":3633,"▁Chúng":3634,"ook":3635,"▁đăng":3636,",2":3637,"giác":3638,"khai":3639,"▁bắn":3640,"▁đọc":3641,"▁cánh":3642,"▁xong":3643,"ez":3644,"▁chứa":3645,"▁lộ":3646,"▁thỏa_thuận":3647,"▁trọ":3648,",6":3649,"th":3650,"▁định":3651,"ng_r":3652,"▁quyết":3653,".0":3654,"▁xanh":3655,"▁hấp":3656,"▁Phú":3657,"▁hòa":3658,"_mắt":3659,"▁tập_đoàn":3660,"▁lãi_suất":3661,"oái":3662,"▁tiêu_dùng":3663,"io":3664,"n_lực":3665,"ắc_ch":3666,"▁mong_m":3667,"▁sự_nghiệp":3668,"giao":3669,"▁lũ":3670,"▁nhật_b":3671,"▁Nhật_":3672,"▁câu_chuyện":3673,"_gắng":3674,"▁danh_sách":3675,"▁Vì":3676,"_nhất":3677,"ama":3678,"_quốc":3679,"ắc_chắn":3680,"▁vũ_khí":3681,"▁theo_dõi":3682,"▁nhà_ở":3683,"▁trừ":3684,"_phận":3685,"ub":3686,"▁chứng_khoán":3687,"da":3688,"▁Tổng_thống":3689,"▁phê_duyệt":3690,"▁bình_thường":3691,"▁can":3692,"▁mục_đích":3693,"▁kiểu":3694,"▁cố_gắng":3695,"▁sai":3696,"▁cân_":3697,"_hành":3698,"_tăng":3699,"▁chung_":3700,"▁197":3701,"▁kết_hợp":3702,"▁đầu_":3703,"▁hồng":3704,"▁Cục":3705,"ark":3706,"▁đơn_giản":3707,"▁giết":3708,",4":3709,"môn":3710,"▁tội":3711,"▁In":3712,"▁bầu":3713,"_giờ":3714,"▁vô_c":3715,"▁hiện_trường":3716,"▁nửa":3717,"▁tương_lai":3718,"_sát":3719,"▁36":3720,"▁dần":3721,"▁xét_":3722,"_B":3723,"▁hlv":3724,"_dẫn":3725,"▁HLV":3726,"▁Thông_t":3727,"▁thương_":3728,"▁kịp_thời":3729,"▁z":3730,".6":3731,",3":3732,"_cả":3733,"▁Nhiều":3734,"bại":3735,"_thải":3736,"els":3737,"▁hạt_":3738,"_nhiên":3739,"▁tro":3740,"▁vô_địch":3741,"▁duy_trì":3742,"▁truyền_thông":3743,"_nên":3744,"▁trang_b":3745,"▁trở_nên":3746,"▁80":3747,",8":3748,"▁Cả":3749,"sia":3750,"▁cắt":3751,"▁mô_hình":3752,"▁buộc":3753,"▁trái_ph":3754,"_trách":3755,"danh":3756,"▁xăng":3757,"n_sàng":3758,"▁Bộ_trưởng":3759,"▁cạnh_tranh":3760,"ty":3761,"▁nhấn_mạnh":3762,"▁nguy_hiểm":3763,".8":3764,"▁sàn":3765,".9":3766,"iêm_":3767,"▁chắc_chắn":3768,"▁phạ":3769,"ld":3770,"▁sẵn_sàng":3771,"▁cựu":3772,"▁VN":3773,"▁rượ":3774,"▁cam_":3775,"oảng":3776,"▁nhật_bản":3777,"▁con_trai":3778,"nam":3779,"▁Phạm":3780,"ây_giờ":3781,"▁tư_vấn":3782,"▁Hộ":3783,"Bản":3784,"_từ":3785,"ng_nhất":3786,"▁sân_bay":3787,"▁hạ_tầng":3788,"▁xấu":3789,"pt":3790,"▁ngă":3791,"▁Nhật_Bản":3792,"se":3793,"▁tuyệ":3794,"▁khô":3795,"▁lượt":3796,"▁thua":3797,"▁tiể":3798,"sao":3799,"▁tình_yêu":3800,"▁Việc":3801,"▁thẻ":3802,"ụy":3803,"▁yếu_tố":3804,"▁trang_bị":3805,"▁tộ":3806,"▁ra_mắt":3807,"▁chậm":3808,"ương_hiệu":3809,"▁Kế":3810,"▁môn":3811,"▁vận_động":3812,"▁hưởng":3813,"▁video":3814,"▁nội":3815,"▁300":3816,"▁tại_":3817,"▁phát_biểu":3818,"ệnh_":3819,"chiến":3820,"n_r":3821,".7":3822,"ng_nhận":3823,"lộ":3824,"▁Bà":3825,"▁xuất_sắc":3826,"sen":3827,"▁Thế":3828,"▁ấn_tượng":3829,"10":3830,"uốt":3831,"n_kết":3832,"_thơ":3833,"▁cơ_bản":3834,"▁trời":3835,"▁Để":3836,"▁mạnh_m":3837,"▁du_":3838,"▁mặt_":3839,"phone":3840,"uống":3841,"ack":3842,"▁ban_đầu":3843,"lan":3844,"ng_loạt":3845,"▁năng_lực":3846,"▁đóng_góp":3847,"▁công_c":3848,"▁mũ":3849,"▁xứ":3850,"n_chuyển":3851,"▁chứng_nhận":3852,"_Ch":3853,"▁rời":3854,"▁dây":3855,"▁phân_tích":3856,"▁bánh":3857,"▁hát":3858,"▁tuyể":3859,"▁tình_cảm":3860,"▁tác_động":3861,"▁mạnh_mẽ":3862,"▁sửa_đổi":3863,"_sản":3864,"▁vô_cùng":3865,"chất":3866,"▁luật_":3867,"▁thương_hiệu":3868,"Bình":3869,"▁cp":3870,"▁thoát":3871,"▁cướp":3872,"▁vò":3873,"▁Liên_":3874,"▁gió":3875,"az":3876,"krai":3877,"onal":3878,"▁ngủ":3879,"▁cơn":3880,"▁mắc":3881,"▁nghệ_sĩ":3882,"▁vệ_sinh":3883,"_tinh":3884,"▁bày":3885,"▁câu":3886,"▁màu_":3887,"▁ghi_":3888,"▁Quốc_hội":3889,"▁hương":3890,"▁m2":3891,"▁chấp_nhận":3892,"▁ly":3893,"▁tín_dụng":3894,"▁lan":3895,"▁ru":3896,"▁gam":3897,"▁đen":3898,"▁khắp":3899,"▁thiệt_hại":3900,"▁lờ":3901,"▁giáo_viên":3902,"ư_dân":3903,"▁45":3904,"▁kinh_phí":3905,"_kết":3906,"▁nắm":3907,"▁90":3908,"▁Thành_":3909,"i_sao":3910,"▁đối_thủ":3911,"▁hề":3912,"Dương":3913,"▁CP":3914,"▁mô_tả":3915,"▁thả":3916,"▁Dự":3917,"âu_h":3918,"▁ưu":3919,"▁tự_do":3920,"▁anh_":3921,"▁thiên":3922,"▁hàn_quốc":3923,"▁thống_nhất":3924,"▁Hàn_":3925,"▁nhận_định":3926,"n_sĩ":3927,"▁kim":3928,"a_hậu":3929,"▁khám":3930,"▁Cơ":3931,"▁chuyên_môn":3932,"▁công_nhân":3933,"▁kém":3934,"i_nhuận":3935,"chỉ":3936,"ump":3937,"▁Hàn_Quốc":3938,"ui":3939,"▁xác_nhận":3940,"▁rượu":3941,"rid":3942,"_đông":3943,"▁cửa_hàng":3944,"▁nói_ch":3945,"chủ":3946,"▁chàng":3947,"▁điều_hành":3948,"▁quần":3949,"▁mong_muốn":3950,"_tệ":3951,"▁gắ":3952,"nguyên":3953,"▁dễ_d":3954,"▁tầng":3955,"▁bồ":3956,"ord":3957,"▁Bảo":3958,"▁tác_phẩm":3959,"▁tài_liệu":3960,"ng_kiến":3961,"▁thủ_đô":3962,"▁Họ":3963,"▁rõ_ràng":3964,"hoạt":3965,"▁dn":3966,"n_dịch":3967,"n_biến":3968,"âng":3969,"▁vận_chuyển":3970,"▁Quyết_định":3971,"▁bậ":3972,"▁32":3973,"▁biểu":3974,"ort":3975,"ym":3976,"▁chủ_động":3977,"▁tội_phạm":3978,"▁tuấn":3979,"▁DN":3980,"▁chút":3981,"sinh":3982,"i_dùng":3983,"▁căng":3984,"▁Thu":3985,"xác":3986,"▁cuốn":3987,"all":3988,"▁kênh":3989,"▁tuyên_truyền":3990,"▁com":3991,"▁hạt_nhân":3992,"od":3993,"▁cam":3994,"âu_hỏi":3995,",9":3996,"▁Hội_đồng":3997,"▁điể":3998,"uyến":3999,"▁Bắc_":4000,"n_độ":4001,"▁gấp":4002,"a_khúc":4003,"▁tung":4004,"▁Trung_tâm":4005,"▁cơ_chế":4006,"_niệm":4007,"▁Đảng":4008,"▁tiếp_nhận":4009,"ầu_c":4010,"_cứu":4011,"▁dựa":4012,"▁chuyên":4013,"ae":4014,"▁lợi_nhuận":4015,"▁xét":4016,"▁web":4017,"lực":4018,"▁quang":4019,"▁hài_":4020,"▁Tuấn":4021,"▁2007":4022,"▁phiên_bản":4023,"ng_minh":4024,"▁dọa":4025,"▁eu":4026,"▁sh":4027,"TC":4028,"▁sóng":4029,"▁phổ_biến":4030,"▁la":4031,"▁nhân_vật":4032,"▁khổ":4033,"▁phi":4034,"▁huy_động":4035,"_cấu":4036,"▁dễ_dàng":4037,"_diễn":4038,"▁ă":4039,"▁hàng_không":4040,"▁bây_giờ":4041,"n_bè":4042,"ơm":4043,"▁2020":4044,"▁Z":4045,"_trận":4046,"▁Ar":4047,"▁ngừng":4048,"ee":4049,"ng_số":4050,"▁màn_hình":4051,"▁Trường":4052,"quanh":4053,"▁đờ":4054,"n_đổi":4055,"lệ":4056,"▁tổng_hợp":4057,"▁trà":4058,"▁quốc_phòng":4059,"▁ngược":4060,"son":4061,"▁người_dùng":4062,"n_điểm":4063,"TT":4064,"n_cầu":4065,"▁is":4066,"▁hy_vọng":4067,"▁trạm":4068,"t_độ":4069,"▁cứu":4070,"khiển":4071,"▁liên_kết":4072,"▁du_khách":4073,"sư":4074,"▁Cô":4075,"▁trợ":4076,"▁niềm":4077,",1":4078,"An":4079,"how":4080,"▁mai":4081,"ng_đầu":4082,"▁thẳng":4083,"n_đạo":4084,"▁Hai":4085,"▁tầ":4086,"▁tuyển":4087,"▁tầm":4088,"▁thanh_toán":4089,"_cận":4090,"Sơn":4091,"_quyền":4092,"▁khắc_phục":4093,"▁tự_nhiên":4094,"giáo":4095,"▁ca_khúc":4096,"▁biên_giới":4097,"▁sự_việc":4098,"▁thân_":4099,"▁súng":4100,"▁nam_":4101,"▁02":4102,"▁biến":4103,"▁dấu_h":4104,"era":4105,"▁rủ":4106,"i_đa":4107,"▁câu_hỏi":4108,"▁chứng":4109,"n_k":4110,"▁bạn_bè":4111,"mạng":4112,"▁quy_mô":4113,"▁lợi":4114,"▁Đến":4115,"▁ngắn":4116,"▁gỗ":4117,"▁bom":4118,"▁người_":4119,"▁thị_xã":4120,"▁Đồ":4121,"▁điều_khiển":4122,"▁thu_hồi":4123,"▁tối_đa":4124,"▁Phương":4125,"_lục":4126,"bank":4127,"_sạn":4128,"ng_cáo":4129,"▁mó":4130,"tv":4131,"▁nắng":4132,"▁độc":4133,"▁thừa_":4134,"▁trưở":4135,"▁Và":4136,"TV":4137,"▁ngã":4138,"i_sống":4139,"oh":4140,"▁học_tập":4141,"▁cam_kết":4142,"▁Bên":4143,"ah":4144,"▁lẫn":4145,"▁nỗi":4146,"m_qua":4147,"khấu":4148,"▁Đối":4149,"alia":4150,"▁sữa":4151,"▁võ":4152,"Âu":4153,"▁thuậ":4154,"t_v":4155,"▁người_m":4156,"_trúc":4157,"▁cảng":4158,"▁gốc":4159,"t_kiệm":4160,"eg":4161,"Giang":4162,"ipp":4163,"phần":4164,"▁lưu_":4165,"c_độ":4166,"kraine":4167,"▁cuộc_đ":4168,"▁St":4169,"_trời":4170,"i_ích":4171,"▁cải_thiện":4172,"▁tỏ":4173,"▁triều":4174,"orld":4175,"▁phân_b":4176,"▁viet":4177,"▁bả":4178,"▁hạng":4179,"eu":4180,"_đời":4181,"▁kia":4182,"ng_kê":4183,"▁chào":4184,"▁hơi":4185,"▁ngôi_sao":4186,"họp":4187,"c_đẩy":4188,"▁tương_tự":4189,"▁âm_nhạc":4190,"▁đồng_h":4191,"▁kết_n":4192,"▁dấu_hiệu":4193,"▁sát":4194,"▁công_s":4195,"▁tiết_kiệm":4196,"▁thời_hạn":4197,"▁Xuân":4198,"▁gà":4199,"▁duy_nhất":4200,"▁lợi_ích":4201,"ớp":4202,"▁hải":4203,"dương":4204,"_nẵng":4205,"_về":4206,"▁Còn":4207,"oi":4208,"_cố":4209,"▁đà_nẵng":4210,"▁Như":4211,"iên_h":4212,"▁công_chức":4213,"▁đồng_ý":4214,"▁hấp_dẫn":4215,"_nghiệm":4216,"n_cảnh":4217,"_theo":4218,"m_phán":4219,"▁nông_dân":4220,"▁ông_":4221,"▁lệnh":4222,"▁nghị_định":4223,"▁lúa":4224,"▁thúc_đẩy":4225,"▁tương_đương":4226,"ng_vật":4227,"▁man":4228,"▁quan_điểm":4229,"▁doanh":4230,"▁Hội":4231,"▁Trung_ương":4232,"n_diện":4233,"▁năng_lượng":4234,"alay":4235,"_Nẵng":4236,"▁bar":4237,"mộ":4238,"▁Đà_Nẵng":4239,"▁chiến_đấu":4240,"▁vù":4241,"▁tiếp_cận":4242,"▁phiếu":4243,"ng_chí":4244,"▁khách_sạn":4245,"▁tóc":4246,"▁rác":4247,"n_x":4248,"ng_phục":4249,"i_đẹp":4250,"▁hàng_đầu":4251,"▁món":4252,"▁chức":4253,"ternet":4254,"_mặt":4255,"▁thay_thế":4256,"▁tiểu":4257,"▁dư_luận":4258,"▁phát_hành":4259,"▁đổi":4260,"▁nâng":4261,"▁Hoà":4262,"ãm":4263,"▁hòa_bình":4264,"ain":4265,"sống":4266,"▁trung_bình":4267,"▁bàn_thắng":4268,"▁cấm":4269,"23":4270,"▁núi":4271,"ou":4272,"_hệ":4273,"▁cơ_cấu":4274,"▁máy_tính":4275,"_con":4276,"▁trật":4277,"▁bồi":4278,"▁phóng_viên":4279,"▁Viet":4280,"▁con_số":4281,"▁hữ":4282,"ng_cục":4283,"▁hiệu_l":4284,"▁lỗi":4285,"▁già":4286,"▁gạo":4287,"▁ngàn":4288,"don":4289,"▁thời_trang":4290,"▁con_đường":4291,"▁Ngân_":4292,"▁thực_vật":4293,"▁xung_quanh":4294,"▁biểu_d":4295,"_trữ":4296,"▁cuộc_họp":4297,"▁thi_công":4298,"▁nghiệp":4299,"n_giao":4300,"▁nhiễm":4301,"▁đỗ":4302,"▁quyế":4303,"▁không_gian":4304,"▁họp":4305,"▁Báo":4306,"▁khảo":4307,"▁nhảy":4308,"m_m":4309,"▁trở_về":4310,"elsea":4311,"▁kỷ_niệm":4312,"▁di_ch":4313,"▁thă":4314,"▁Thành":4315,"▁phương_pháp":4316,"▁gia_tăng":4317,"▁băng":4318,"▁Về":4319,"_tá":4320,"▁kiếm":4321,"▁tiêu_thụ":4322,"động_sản":4323,"▁hành_khách":4324,"▁rau":4325,"ng_bố":4326,"▁may_m":4327,"▁tòa":4328,"▁dao":4329,"▁kết_nối":4330,"_sư":4331,"▁vui":4332,"▁cảnh_báo":4333,"▁Qua":4334,"_ngại":4335,"▁cảm_giác":4336,"▁bò":4337,"▁long":4338,"vị":4339,"▁linh":4340,"iz":4341,"▁bốn":4342,"Lan":4343,"▁đe":4344,"▁hạn":4345,"▁dò":4346,"▁khủng_bố":4347,"▁toàn_cầu":4348,"▁trụ_sở":4349,"m_ngoái":4350,"▁trí":4351,"▁2006":4352,"ebook":4353,"▁trật_tự":4354,"▁miễ":4355,"▁trị_giá":4356,"alaysia":4357,"_thanh":4358,"▁đâm":4359,"▁đời_sống":4360,"▁34":4361,"▁suốt":4362,"▁tổng_số":4363,"▁new":4364,"iến_nghị":4365,"▁đợi":4366,"▁công_khai":4367,"i_mới":4368,"▁giấy_phép":4369,"▁khuô":4370,"▁dữ_liệu":4371,"▁bế":4372,"▁chung_kết":4373,"▁thuận_lợi":4374,"_kỷ":4375,"▁tùy":4376,"▁phản_ánh":4377,"▁hẳn":4378,"▁thế_hệ":4379,"_giả":4380,"▁hư":4381,"▁hôm_qua":4382,"▁tha":4383,"▁sân_khấu":4384,"hiểu":4385,"▁nét":4386,"▁đối_tác":4387,"▁sáng_tạo":4388,"▁Ở":4389,"▁CH":4390,"▁hiệu_lực":4391,"ern":4392,"▁chế_biến":4393,"▁xi":4394,"▁bù":4395,"▁chính_xác":4396,"▁Tết":4397,"▁giàu":4398,"tc":4399,"▁33":4400,"▁quà":4401,"▁dương":4402,"▁ý_nghĩa":4403,"▁vật_l":4404,"_tiền":4405,"▁khởi_":4406,"▁hđ":4407,"▁phong_cách":4408,"▁HĐ":4409,"▁Man":4410,"_trú":4411,"▁cấp_cứu":4412,"▁tiếng_":4413,"▁Al":4414,"▁lạnh":4415,"▁chỉ_số":4416,"▁thừa_nhận":4417,"ax":4418,"▁sự_cố":4419,"ber":4420,"acebook":4421,"▁tồn":4422,"▁tâm_lý":4423,"▁phủ":4424,"▁kiến_nghị":4425,"▁bất_động_sản":4426,"▁thành_tích":4427,"AN":4428,"▁nhạ":4429,"▁đừng":4430,"▁quen":4431,"▁ghế":4432,"▁ngoại_giao":4433,"▁Số":4434,"▁đồng_b":4435,"▁trong_s":4436,"0.000":4437,"ico":4438,"▁ung":4439,"ịu":4440,"▁chắc":4441,"▁gói":4442,"▁vườn":4443,"ge":4444,"▁bộ_phận":4445,"_phê":4446,"▁lưới":4447,"Tiên":4448,"▁kết_luận":4449,"ep":4450,"▁đt":4451,"▁Đó":4452,"▁cầu_":4453,"u_hướng":4454,"_nhật":4455,"▁hợp_lý":4456,"▁37":4457,"▁thống_kê":4458,"our":4459,"▁tim":4460,"ánh_":4461,"ite":4462,"▁ví":4463,"âm_s":4464,"huy":4465,"▁quên":4466,"ilipp":4467,"▁thai":4468,"▁bồi_thường":4469,"▁196":4470,"_tốc":4471,"▁bố_trí":4472,"▁cười":4473,"ng_cơ":4474,"▁đồng_chí":4475,"▁đổi_mới":4476,"_trào":4477,"▁ghi_nhận":4478,"▁Hải":4479,",0":4480,"▁may_mắn":4481,"_đỡ":4482,"▁âm":4483,"▁Tài_chính":4484,"▁hàng_loạt":4485,"▁ung_thư":4486,"n_chức":4487,"▁dự_báo":4488,"ìm":4489,"▁năm_ngoái":4490,"▁bang":4491,"▁38":4492,"_trực":4493,"▁hoàn_thiện":4494,"ẫu_thuật":4495,"▁địa_điểm":4496,"▁vết":4497,"_thẳng":4498,"▁thái_":4499,"▁đoà":4500,"▁ngang":4501,"▁rà":4502,"▁|":4503,"man":4504,"▁mặt_hàng":4505,"n_hộ":4506,"▁bày_tỏ":4507,"▁Á":4508,"huống":4509,"nghề":4510,"n_học":4511,"ấn_l":4512,"▁Hồng":4513,"hiệu":4514,"▁New":4515,"▁doanh_thu":4516,"▁châu_âu":4517,"▁cáo":4518,"▁cà_phê":4519,"iệng":4520,"▁hâm_":4521,"▁khoả":4522,"▁hâm_mộ":4523,"▁quảng_cáo":4524,"m_vi":4525,"t_lộ":4526,"chứng":4527,"▁clip":4528,"_tây":4529,"▁Cũng":4530,"▁đấy":4531,"▁đội_tuyển":4532,"▁gắn":4533,"▁liên_tiếp":4534,"a_hè":4535,"_cập":4536,"▁mứ":4537,"na":4538,"▁chặ":4539,"▁trang_phục":4540,"ams":4541,"▁trình_d":4542,"▁trúng":4543,"▁ii":4544,"▁món_":4545,"▁xu_hướng":4546,"▁quan_chức":4547,"▁liền":4548,"▁đặc":4549,"▁đột_":4550,"▁1.000":4551,"▁tân_":4552,"a_m":4553,"▁không_khí":4554,"▁di_động":4555,"▁đẩy_mạnh":4556,"▁chó":4557,"_nhà":4558,"▁di_chuyển":4559,"▁tận":4560,"nhà":4561,"▁tồn_tại":4562,"▁ĐT":4563,"▁tiết_lộ":4564,"▁lệ":4565,"▁ngôi_nhà":4566,"▁buồn":4567,"▁bậc":4568,"▁48":4569,"▁Chúng_tôi":4570,"▁dạng":4571,"▁mãi":4572,"▁tình_huống":4573,"▁giúp_đỡ":4574,"▁xo":4575,"ct":4576,"ng_hòa":4577,"▁Vụ":4578,"▁mong":4579,"▁giải_thưởng":4580,"dài":4581,"▁động_cơ":4582,"▁tìm_hiểu":4583,"▁phạt":4584,"ối_cảnh":4585,"▁NH":4586,"▁thưởng":4587,"▁Kim":4588,"▁ưu_đ":4589,"ingap":4590,"▁nhiêu":4591,"oy":4592,"_phạt":4593,"▁khóc":4594,"iều_Tiên":4595,"▁II":4596,"▁Nghị_định":4597,"u_học":4598,"▁lỗ":4599,"▁trộ":4600,"u_b":4601,"tô":4602,"▁bãi":4603,"▁ngay_sau":4604,"▁dám":4605,"▁tôn":4606,"▁yên":4607,"sh":4608,"▁kịch":4609,"und":4610,"ingapore":4611,"▁căn_hộ":4612,"▁tường":4613,"▁kiến_thức":4614,"▁Ngân_hàng":4615,"▁Ba":4616,"▁chủ_trì":4617,"▁trai":4618,"▁đèn":4619,"▁tiếp_theo":4620,"▁phát_huy":4621,"▁sinh_hoạt":4622,"▁Công":4623,"▁đạo_diễn":4624,"▁đề_án":4625,"▁chấn":4626,"_lắng":4627,"t_chẽ":4628,"▁chặt_chẽ":4629,"▁vi":4630,"sk":4631,"u_gọi":4632,"▁and":4633,"▁Quang":4634,"▁chiến_tranh":4635,"▁chỉ_tiêu":4636,"▁gd":4637,"▁đài":4638,"_phạm":4639,"▁độc_lập":4640,"_biệt":4641,"▁thông_tư":4642,"▁thép":4643,"▁tham_khảo":4644,"▁lô":4645,"▁lắp":4646,"▁kêu_gọi":4647,"_Minh":4648,"▁thuốc_":4649,"▁uy":4650,"▁ngập":4651,"ức_t":4652,"quen":4653,"▁chức_":4654,"▁biểu_diễn":4655,"▁nghị_quyết":4656,"▁chủ_trương":4657,"uyết_":4658,"▁lo_lắng":4659,"ust":4660,"▁rẻ":4661,"én":4662,"_mật":4663,"vn":4664,"▁khung":4665,"▁thuyền":4666,"c_sĩ":4667,"ru":4668,"▁Lý":4669,"▁công_dân":4670,"ey":4671,"t_nghiệp":4672,"▁áp_lực":4673,"n_phí":4674,"▁mức_độ":4675,"_tuyến":4676,"▁triều_tiên":4677,"▁GD":4678,"_nghĩ":4679,"▁hạt":4680,"▁phạm_vi":4681,"_chí_minh":4682,"▁hồ_chí_minh":4683,"sứ":4684,"▁Triều_Tiên":4685,"ầu_cử":4686,"▁hậu_quả":4687,"▁hùng":4688,"_mạng":4689,"▁vật":4690,"xế":4691,"▁lâu_":4692,"▁Linh":4693,"▁dân_cư":4694,"▁màn":4695,"▁ưu_tiên":4696,"ilippines":4697,"▁lâm":4698,"▁bối_cảnh":4699,"n_ảnh":4700,"senal":4701,"▁diễn_biến":4702,"ast":4703,"▁chuẩn":4704,"▁phẫu_thuật":4705,"▁tài_khoản":4706,"▁Sự":4707,"▁sư":4708,"PT":4709,"▁Sơn":4710,"▁hình_sự":4711,"▁đình":4712,"họa":4713,"uk":4714,"chia":4715,"▁sm":4716,"▁dũng":4717,"dục":4718,"▁tinh_":4719,"▁03":4720,"_Chí":4721,"▁mar":4722,"n_hiệu":4723,"▁Tập":4724,"▁Hồ_Chí":4725,"▁trái_phép":4726,"▁khởi":4727,"▁Hồ_Chí_Minh":4728,"ick":4729,"VN":4730,"▁thủy_sản":4731,"n_vệ":4732,"▁đường_":4733,"▁lối":4734,"▁danh":4735,"ức_tạp":4736,"po":4737,"▁tốt_nghiệp":4738,"▁phức_tạp":4739,"ng_độ":4740,"▁miền":4741,"▁Em":4742,"▁trải":4743,"▁ngọ":4744,"▁bầu_cử":4745,"ant":4746,"▁đh":4747,"n_lãm":4748,"▁sn":4749,"▁ĐH":4750,"_thiểu":4751,"ần_l":4752,"▁cao_cấp":4753,"▁Tân_":4754,"ẫy":4755,"▁game":4756,"n_khích":4757,"▁chân_":4758,"▁gương_m":4759,"▁lò":4760,"▁căng_thẳng":4761,"▁thẩm_định":4762,"▁Dũng":4763,"▁chiến_dịch":4764,"mục":4765,"▁Quốc":4766,"▁rộ":4767,"▁Đồng":4768,"▁huấn_l":4769,"▁qđ":4770,"▁QĐ":4771,"▁bức_":4772,"▁sâu_":4773,"▁lừa":4774,"▁tấm":4775,"▁chuyê":4776,"▁400":4777,"▁phản_ứng":4778,"▁giải_thích":4779,"▁trò_ch":4780,"▁tập_thể":4781,"▁syria":4782,"▁Syria":4783,"▁Hùng":4784,"i_sản":4785,"▁cơm":4786,"▁đàm_phán":4787,"▁lửa":4788,"▁khẩ":4789,"▁khoa":4790,"ters":4791,"mặt":4792,"▁Đầu":4793,"▁trốn":4794,"_lưu":4795,"_lợi":4796,"▁tậ":4797,"ud":4798,"▁Thờ":4799,"▁Bar":4800,"▁quanh":4801,"binh":4802,"_giáo":4803,"▁châu_Âu":4804,"pple":4805,"▁tiền_đạo":4806,"▁thất_bại":4807,"cc":4808,"▁liên_h":4809,"▁chứng_kiến":4810,"40":4811,"ùm":4812,"_soát":4813,"_C":4814,"▁mùa_giải":4815,"▁chuyên_nghiệp":4816,"ụi":4817,"ass":4818,"▁loạt":4819,"▁2005":4820,"▁Tư":4821,"▁Nghệ":4822,"_dụ":4823,"▁Đoàn":4824,"_văn":4825,"▁bí_thư":4826,"▁hải_quan":4827,"▁quy_trình":4828,"▁trình_diễn":4829,"19":4830,"▁luật_sư":4831,"▁khảo_sát":4832,"▁tươi":4833,"mưu":4834,"_tội":4835,"ên_liệu":4836,"▁chấ":4837,"▁buôn":4838,"▁pháp_lý":4839,"_tĩnh":4840,"_đề":4841,"▁xâm_":4842,"▁đối_ph":4843,"▁đập":4844,"▁phúc":4845,"▁dự_thảo":4846,"▁trông":4847,"ier":4848,"▁Hiệp":4849,"▁sức_m":4850,"▁Tổ_chức":4851,"▁Tham_":4852,"▁quản":4853,"nhũng":4854,"▁tài_nguyên":4855,"ôm":4856,"n_vững":4857,"ini":4858,"_viện":4859,"▁bền_vững":4860,"_thủy":4861,"▁lãnh":4862,"▁Xây":4863,"201":4864,"▁Phòng":4865,"▁nhật":4866,"▁ngon":4867,"▁tác_giả":4868,"▁Thực_":4869,"▁đòi":4870,"▁thảo_luận":4871,"u_v":4872,"esia":4873,"▁xuất":4874,"▁linh_":4875,"▁tham_nhũng":4876,"▁vỏ":4877,"▁Ngay":4878,"▁người_thân":4879,"_trước":4880,"▁of":4881,"▁tài_xế":4882,"ng_sắt":4883,"▁phòng_ng":4884,"▁39":4885,"▁ấn_đ":4886,"og":4887,"▁tân":4888,"▁thiết_":4889,"iếu_n":4890,"n_sinh":4891,"n_chặn":4892,"istan":4893,"▁cổn":4894,"ork":4895,"▁trình_độ":4896,"▁cổng":4897,"Anh":4898,"▁Că":4899,"▁siêu_":4900,"▁bụng":4901,"dụng":4902,"▁giỏi":4903,"▁Viện":4904,"▁thừa":4905,"▁bắc_":4906,"▁phong_trào":4907,"▁người_đẹp":4908,"nn":4909,"ng_x":4910,"bộ":4911,"i_bật":4912,"▁thái":4913,"▁cập":4914,"▁cầ":4915,"▁Bắc":4916,"▁công_nhận":4917,"iếc":4918,"▁Thứ":4919,"_tu":4920,"_vị":4921,"n_vốn":4922,"▁Sh":4923,"▁Dù":4924,"▁chung_c":4925,"▁cực_":4926,"ắk":4927,"▁Ấ":4928,"▁The":4929,"▁trực_thuộc":4930,"▁pháo":4931,"▁kính":4932,"▁danh_hiệu":4933,"▁nàng":4934,"▁rà_soát":4935,"▁hộp":4936,"▁Cơ_quan":4937,"▁dân_số":4938,"▁ngôi":4939,"_an":4940,"lu":4941,"▁bằ":4942,"▁chấn_thương":4943,"▁đò":4944,"Kỳ":4945,"▁Đồng_":4946,"▁un":4947,"▁thuận":4948,"▁làm_":4949,"dưỡng":4950,"▁Được":4951,"▁ngăn_chặn":4952,"i_đầu":4953,"▁túi":4954,"▁xử_phạt":4955,"▁cát":4956,"hóa":4957,"▁tố_cáo":4958,"▁kiên_":4959,"▁ngụ":4960,"▁miệng":4961,"▁Long":4962,"▁suy_nghĩ":4963,"line":4964,"a_c":4965,"▁Đông":4966,"▁gương_mặt":4967,"_hạng":4968,"▁bảo_t":4969,"▁thức_":4970,"▁Mar":4971,"n_nuôi":4972,"▁nổi_bật":4973,"n_mềm":4974,"▁tự_tin":4975,"▁cân":4976,"an_":4977,"i_ngũ":4978,"▁chứng_minh":4979,"_chối":4980,"▁Hạ":4981,"▁fan":4982,"▁au":4983,"▁ôtô":4984,"▁thiên_":4985,"▁hiện_tượng":4986,"n_hạn":4987,"▁Chú":4988,"▁ước":4989,"▁giáp":4990,"▁hại":4991,"ly":4992,"t_kh":4993,"▁Y_tế":4994,"▁nguyên_liệu":4995,"▁Trên":4996,"▁dầu_":4997,"▁Xây_dựng":4998,"▁thông_minh":4999,"▁đội_ngũ":5000,"▁nâng_cấp":5001,"▁từ_chối":5002,"▁tác_dụng":5003,"eng":5004,"▁xinh_":5005,"▁Mai":5006,"▁09":5007,"▁chặt":5008,"i_ro":5009,"ow":5010,"▁phần_l":5011,"i_dưỡng":5012,"n_mặt":5013,"▁nhắc":5014,".500":5015,"_tức":5016,"▁Hội_":5017,"▁địa_chỉ":5018,"▁xét_xử":5019,"▁sp":5020,"▁tranh_":5021,"▁Dương":5022,"▁cm":5023,"▁show":5024,"ba":5025,"▁đồng_đ":5026,"▁cách_mạng":5027,"_đức":5028,"▁Hương":5029,"▁giây":5030,"u_m":5031,"▁tháo":5032,"▁mùi":5033,"▁lễ_hội":5034,"ước_m":5035,"▁Bệnh_":5036,"▁rủi_ro":5037,"▁bà_con":5038,"▁vận_hành":5039,"đt":5040,"ĐT":5041,"▁nối":5042,"▁tiền_vệ":5043,"▁hoàn_cảnh":5044,"▁khen":5045,"▁chê":5046,"ng_học":5047,"▁ưu_đãi":5048,"▁mặt_b":5049,"n_đồ":5050,"ýt":5051,"▁loại_":5052,"▁khoe":5053,"▁giải_trí":5054,"ủng_hoảng":5055,"ng_chế":5056,"▁thử_nghiệm":5057,"▁hủy":5058,"▁thái_lan":5059,"uối":5060,"▁chấp_hành":5061,"▁cải_c":5062,"▁cuộc_đời":5063,"▁Giáo":5064,"▁Nam_":5065,"ions":5066,"▁04":5067,"▁phần_mềm":5068,"▁lo_ngại":5069,"▁quảng_n":5070,"▁nghiệp_vụ":5071,"▁dường":5072,"▁Thái_Lan":5073,"▁bức_xúc":5074,"▁05":5075,"▁tú":5076,"▁VI":5077,"▁chiếu":5078,"▁100%":5079,"▁váy":5080,"ối_lượng":5081,"▁mm":5082,"▁hó":5083,"ng_điểm":5084,"▁định_h":5085,"▁euro":5086,"▁cải_cách":5087,"_tín":5088,"_tờ":5089,"ng_đất":5090,"▁car":5091,"▁league":5092,"▁Phát":5093,"▁khủng_hoảng":5094,"ệt":5095,"▁chỉ_huy":5096,"phối":5097,"▁bê":5098,"t_ngôn":5099,"▁đỉnh":5100,"▁Nhật":5101,"_tật":5102,"▁bạo":5103,"▁cup":5104,"đai":5105,"_ký":5106,"▁hoa_hậu":5107,"bama":5108,"▁triệ":5109,"▁miền_":5110,"▁Đại_học":5111,"▁CS":5112,"uồn":5113,"▁má":5114,"đoàn":5115,"▁League":5116,"▁Thông_tư":5117,"_quản":5118,"▁công_suất":5119,"▁ố":5120,"▁nhiệt_độ":5121,"▁tạp":5122,"▁tòa_nhà":5123,"25":5124,"_phòng":5125,"▁hình_thành":5126,"iver":5127,"vọng":5128,"ách_thức":5129,"_thú":5130,"▁chủ_nhà":5131,"▁nguồn_vốn":5132,"▁châu_á":5133,"xi":5134,"_buộc":5135,"▁thần":5136,"▁đường_sắt":5137,"▁sức_mạnh":5138,"nghĩa":5139,"▁ven":5140,"▁2004":5141,"▁kỳ_h":5142,"adrid":5143,"▁tiêu_chí":5144,"▁thiệt_mạng":5145,"_dạng":5146,"▁triển_lãm":5147,"▁đối_mặt":5148,"▁thành_phần":5149,"▁Đại":5150,"n_đối":5151,"▁cảm_xúc":5152,"▁ga":5153,"_môn":5154,"▁Đông_":5155,"▁2003":5156,"▁giấy_tờ":5157,"▁khuyến_khích":5158,"▁Căn_cứ":5159,"▁Ngô":5160,"_đơn":5161,"▁hút":5162,"▁phản_đối":5163,"▁Hoàng_":5164,"▁tài_năng":5165,"▁hắn":5166,"▁Gia":5167,"▁minh_họa":5168,"▁tâm_s":5169,"ng_kể":5170,"am_m":5171,"45":5172,"▁phóng":5173,"zil":5174,"▁Khu":5175,"▁Cảnh_":5176,"sĩ":5177,"_thổ":5178,"▁bướ":5179,"▁mũi":5180,"ralia":5181,"ần_":5182,"ress":5183,"▁SN":5184,"_huynh":5185,"▁Bí":5186,"▁xóa":5187,"▁đáng_kể":5188,"▁nhà_trường":5189,"anh_chấp":5190,"▁kỹ_năng":5191,"▁liệu":5192,"▁che":5193,"▁động_viên":5194,"euters":5195,"n_đông":5196,"▁Giao":5197,"▁cứu_h":5198,"▁Ind":5199,"▁hành_trình":5200,"▁niêm_":5201,"▁động_vật":5202,"▁phần_lớn":5203,"_thù":5204,"▁thức_ăn":5205,"_hậu":5206,"▁quyết_tâm":5207,"▁cộng":5208,"UY":5209,"ert":5210,"▁quản_trị":5211,"bản":5212,"_đặt":5213,"▁tuyệt_v":5214,"▁tranh_chấp":5215,"la":5216,"▁tình_dục":5217,"i_kh":5218,"▁đội_":5219,"iss":5220,"▁nhiệt":5221,"▁người_mẫu":5222,"a_chữa":5223,"▁55":5224,"▁Cup":5225,"▁tư_pháp":5226,"▁tiến_độ":5227,"▁thời_tiết":5228,"ara":5229,"▁cực":5230,"ington":5231,"▁thùng":5232,"▁hằng":5233,"n_xét":5234,"70":5235,"_khách":5236,"n_lạc":5237,"khắc":5238,"NN":5239,"▁chủ_đề":5240,"_túc":5241,"c_bộ":5242,"▁sổ":5243,"▁góc":5244,"n_sát":5245,"▁Đặ":5246,"giả":5247,"▁ép":5248,"▁thượ":5249,"▁vật_liệu":5250,"▁tỷ_số":5251,"▁giải_phóng":5252,"▁nguyên_tắc":5253,"▁khỏe":5254,"▁đình_":5255,"▁Cụ":5256,"▁khởi_tố":5257,"ada":5258,"▁khối_lượng":5259,"▁sốt":5260,"ỗn":5261,"phát":5262,"▁tá":5263,"▁cs":5264,"cel":5265,"▁lãi":5266,"▁tưởng":5267,"n_nhượng":5268,"ải_m":5269,"▁khánh":5270,"ẹt":5271,"ỗng":5272,"▁Xã":5273,"hòa":5274,"▁sửa_chữa":5275,"▁phát_ngôn":5276,"ate":5277,"▁trứng":5278,"▁ngư_dân":5279,"iện_":5280,"▁đặc_":5281,"Hóa":5282,"ệt_m":5283,"t_chất":5284,"▁phụ_huynh":5285,"▁bia":5286,"▁tâm_sự":5287,"_xúc":5288,"▁người_yêu":5289,"▁giớ":5290,"n_lẻ":5291,"uchia":5292,"▁nguồn_tin":5293,"inho":5294,"▁số_liệu":5295,"▁top":5296,"óc_":5297,"▁hợp_pháp":5298,"lin":5299,"▁Huy":5300,"▁thắ":5301,"land":5302,"▁hiể":5303,"▁43":5304,"▁Chính":5305,"hôn":5306,"n_nhà":5307,"▁bình_quân":5308,"▁thách_thức":5309,"▁vỡ":5310,"▁chảy":5311,"_nhiễm":5312,"▁xe_tải":5313,"▁chú_thích":5314,"i_nhánh":5315,"▁tòa_án":5316,"▁quảng_b":5317,"ona":5318,"ampuchia":5319,"m_nh":5320,"▁Bệnh_viện":5321,"21":5322,"▁rửa":5323,"ya":5324,"▁Bạn":5325,"▁Cao":5326,"▁ts":5327,"_thật":5328,"▁Văn_phòng":5329,"_tòa":5330,"quang":5331,"▁Nội_":5332,"▁trưa":5333,"▁kỷ_luật":5334,"▁de":5335,"yết":5336,"▁tính_năng":5337,"▁treo":5338,"let":5339,"ta":5340,"▁viên_":5341,"▁internet":5342,"▁biểu_":5343,"▁ô_nhiễm":5344,"▁trong_suốt":5345,"▁sáu":5346,"amsung":5347,"▁46":5348,"▁phan":5349,"yan":5350,"▁chuyển_nhượng":5351,"_thuyết":5352,"_sắm":5353,"ei":5354,"▁sả":5355,"▁mặt_bằng":5356,"m_g":5357,"▁nạn":5358,"▁niêm_yết":5359,"ùy":5360,"ros":5361,"▁toàn_quốc":5362,"▁đường_bộ":5363,"▁Thủy":5364,"▁Sài_":5365,"▁tài_trợ":5366,"▁sc":5367,"▁định_hướng":5368,"▁Tiến":5369,"onaldo":5370,"▁chung_cư":5371,"▁Lo":5372,"▁ro":5373,"▁gỡ":5374,"▁mê":5375,"▁vĩ":5376,"▁miền_n":5377,"▁điện_ảnh":5378,"▁thiết":5379,"ood":5380,"▁lên_tiếng":5381,"▁mộ":5382,"▁41":5383,"▁than":5384,"▁Cùng":5385,"▁đa_dạng":5386,"▁nhận_thức":5387,"▁bữa":5388,"▁sài_":5389,"_điện":5390,"gòn":5391,"▁PV":5392,"_tri":5393,"ks":5394,"▁giọ":5395,"▁vân":5396,"_trẻ":5397,"chức":5398,"ation":5399,"▁nha":5400,"▁mua_sắm":5401,"▁Quảng_N":5402,"▁tiên":5403,"▁150":5404,"▁pv":5405,"▁tại_sao":5406,"▁xả":5407,"▁on":5408,"oàng":5409,"enn":5410,"▁quy_chế":5411,"▁Cảnh_sát":5412,"▁42":5413,"inh_dưỡng":5414,"▁miễn_phí":5415,"▁sài_gòn":5416,"lòng":5417,"_tim":5418,"▁cáo_buộc":5419,"iếu_nại":5420,"razil":5421,"▁đấu_":5422,"giang":5423,"_thẩm":5424,"▁kỷ_lục":5425,"▁dứ":5426,"▁đồng_hồ":5427,"_thuẫn":5428,"_hiệu":5429,"▁cập_nhật":5430,"ật_sự":5431,"▁bến":5432,"▁So":5433,"80":5434,"▁nđ":5435,"▁căn_nhà":5436,"▁lít":5437,"▁NĐ":5438,"_thăm":5439,"▁giải_đ":5440,"▁lãnh_thổ":5441,"Gòn":5442,"▁Bình":5443,"▁Sài_Gòn":5444,"▁camera":5445,"_tán":5446,"▁thú_vị":5447,"▁yêu_thích":5448,"ens":5449,"gt":5450,"▁chùa":5451,"▁tải":5452,"▁lưng":5453,"▁liên_lạc":5454,"▁thập":5455,"▁nội_đ":5456,"ÂN":5457,"ix":5458,"▁tuân":5459,"▁đất_đai":5460,"▁nhận_xét":5461,"ester":5462,"_lan":5463,"▁ý_tưởng":5464,"▁Trưở":5465,"idae":5466,"▁hiệu":5467,"▁bốc":5468,"▁Vĩnh_":5469,"▁Mặc":5470,"_ba":5471,"▁nói_chuyện":5472,"_đảo":5473,"i_hỏi":5474,"▁cụm":5475,"_trùng":5476,"Hòa":5477,"▁Chị":5478,"raq":5479,"▁chiến_sĩ":5480,"rael":5481,"hát":5482,"ng_ban":5483,"▁br":5484,"▁Con":5485,"▁ấn_độ":5486,"▁thơ":5487,"▁lào":5488,"▁chủ_quyền":5489,"▁kiến_trúc":5490,"▁khiếu_nại":5491,"▁Bí_thư":5492,"▁nhì":5493,"SE":5494,"▁quan_sát":5495,"▁cổ_đông":5496,"▁tiếp_xúc":5497,"▁đồng_đội":5498,"▁smart":5499,"_quán":5500,"n_Độ":5501,"▁Kho":5502,"▁Ấn_Độ":5503,"▁Sáng":5504,"▁xú":5505,"▁toàn_diện":5506,"u_ng":5507,"m_dứt":5508,"▁cắ":5509,"n_bay":5510,"▁độc_đ":5511,"Nh":5512,"▁Duy":5513,"▁h30":5514,"phạt":5515,"▁Đình":5516,"▁chủ_nghĩa":5517,"▁thời_kỳ":5518,"▁dinh_dưỡng":5519,"_trả":5520,"▁xếp_hạng":5521,"▁50%":5522,"end":5523,"▁Chương_trình":5524,"▁hội_thảo":5525,"▁trương":5526,"▁thở":5527,"▁Chú_thích":5528,"_trắng":5529,"▁thật_sự":5530,"60":5531,"▁giấu":5532,"▁ký_kết":5533,"▁hải_quân":5534,"i_cục":5535,"▁sẵn":5536,"▁Hy":5537,"chế":5538,"▁chia_tay":5539,"▁08":5540,"▁49":5541,"▁Lào":5542,"▁chuyế":5543,"▁châu_Á":5544,"▁huyền":5545,"▁195":5546,"ohn":5547,"▁tự_động":5548,"▁CL":5549,"ile":5550,"▁Đặc_biệt":5551,"▁at":5552,"▁nhà_hàng":5553,"▁kể_cả":5554,"▁chuỗi":5555,"n_gốc":5556,"▁chấm_dứt":5557,"n_đảo":5558,"▁tuyệt_vời":5559,"pool":5560,"_An":5561,"ải_mái":5562,"▁gợ":5563,"amin":5564,"▁mổ":5565,"▁trải_":5566,"▁trải_nghiệm":5567,"ath":5568,"▁TS":5569,"▁tượng":5570,"▁đòi_hỏi":5571,"▁chuyển_đổi":5572,"▁thoải_mái":5573,"▁dị":5574,"▁ôm":5575,"▁sắc":5576,"▁châu":5577,"▁Nhân_":5578,"▁thổ":5579,"▁cưới":5580,"▁đấu_giá":5581,"▁vật_chất":5582,"_lệnh":5583,"_D":5584,"Phòng":5585,"▁đàn":5586,"▁thế_kỷ":5587,"_tỏa":5588,"▁pl":5589,"▁51":5590,"▁chăn_nuôi":5591,"n_nhận":5592,"▁nhân_lực":5593,"▁bớt":5594,"▁nguồn_gốc":5595,"▁bã":5596,"▁thận":5597,"▁hữu":5598,"ạc_":5599,"ía":5600,"n_vọng":5601,"▁phỏ":5602,"▁1,5":5603,"▁00":5604,"▁món_ăn":5605,"hồi":5606,"▁trư":5607,"ng_cấp":5608,"▁Phan":5609,"▁biểu_tình":5610,"▁trực_tuyến":5611,"▁thi_đua":5612,"m_năng":5613,"_V":5614,"_thất":5615,"▁giày":5616,"rem":5617,"utin":5618,"▁Trương":5619,"▁phân_phối":5620,"đẹp":5621,"▁44":5622,"▁công_cộng":5623,"ashington":5624,"_tai":5625,"aw":5626,"▁dọc":5627,"▁tôm":5628,"▁chuyến_bay":5629,"n_lượng":5630,"ampions":5631,"▁màu_sắc":5632,"▁Quản_lý":5633,"▁bo":5634,"▁xinh_đẹp":5635,"iverpool":5636,"▁facebook":5637,"▁bạc":5638,"n_Đông":5639,"▁tiềm_năng":5640,"ver":5641,"di":5642,"▁đăng_tải":5643,"▁ví_dụ":5644,"▁tế":5645,"▁lưu_thông":5646,"▁chạm":5647,"▁béo":5648,"▁hậu":5649,"▁xóm":5650,"▁hữu_":5651,"▁vĩnh_":5652,"▁bổ_nhiệm":5653,"phá":5654,"▁nghĩa_":5655,"▁danh_mục":5656,"▁tối_thiểu":5657,"▁hiế":5658,"▁bí_mật":5659,"▁bán_lẻ":5660,"CC":5661,"tel":5662,"▁kỳ_vọng":5663,"▁nhé":5664,"HCM":5665,"▁ngực":5666,"▁47":5667,"ti":5668,"▁rạ":5669,"▁nhiệm_":5670,"▁Thông_tin":5671,"_tặng":5672,"lor":5673,"▁2000":5674,"▁tuyển_sinh":5675,"▁tính_toán":5676,"▁đấu_tranh":5677,"▁tứ":5678,"▁tiếc":5679,"ft":5680,"ươi":5681,"▁75":5682,"yên":5683,"▁ánh":5684,"▁Kế_hoạch":5685,"11":5686,"▁tph":5687,"▁tin_tưởng":5688,"_tất":5689,"▁liên_hệ":5690,"▁phiên_tòa":5691,"▁nội_địa":5692,"▁lợn":5693,"▁uy_tín":5694,"▁gu":5695,"▁Thái":5696,"▁ser":5697,"▁sô":5698,"▁Đào":5699,"▁huấn_luyện":5700,"ica":5701,"▁đoạt":5702,"▁real":5703,"▁tphcm":5704,"▁vinh":5705,"aris":5706,"▁it":5707,"▁tắt":5708,"a_chất":5709,"văn":5710,"ero":5711,"▁tuyên_":5712,"▁đội_hình":5713,"_cao":5714,"▁đại_hội":5715,"▁Ngo":5716,"▁TPHCM":5717,"▁thường_trực":5718,"ans":5719,"▁Co":5720,"▁Dự_án":5721,"▁khác_biệt":5722,"▁06":5723,"▁phụ_trách":5724,"i_giáo":5725,"_đoán":5726,"▁nhiệm_kỳ":5727,"mỹ":5728,"▁nặ":5729,"▁bám":5730,"▁học_trò":5731,"▁định_cư":5732,"▁Đầu_tư":5733,"▁dung":5734,"nay":5735,"▁bă":5736,"ek":5737,"▁lưu_ý":5738,"▁công_chúng":5739,"▁độc_đáo":5740,"▁600":5741,"▁An_":5742,"▁quốc_lộ":5743,"▁chi_nhánh":5744,"va":5745,"▁cung_":5746,"▁bình_luận":5747,"ng_vấn":5748,"▁vương":5749,"i_phục":5750,"ley":5751,"▁Mỗi":5752,"▁say":5753,"▁viễn":5754,"▁giấ":5755,"▁Phá":5756,"nh_ủy":5757,"▁chín":5758,"▁cn":5759,"▁Real":5760,"com":5761,"ani":5762,"▁ol":5763,"▁thô":5764,"onald":5765,"▁cộng_hòa":5766,"▁thông_thường":5767,"▁ném":5768,"ws":5769,"▁phỏng_vấn":5770,"▁niềm_tin":5771,"▁nói_chung":5772,"▁thanh_hóa":5773,"_Nh":5774,"gle":5775,"▁công_thương":5776,"ymp":5777,"▁Lúc":5778,"▁thi_thể":5779,"n_đàn":5780,"▁vữ":5781,"▁đoàn_kết":5782,"Long":5783,"_đẹp":5784,"▁nghiện":5785,"▁trường_học":5786,"▁vẽ":5787,"▁xuất_phát":5788,"ng_lồ":5789,"▁Thời_":5790,"▁phục_hồi":5791,"▁khổng_lồ":5792,"▁hải_ph":5793,"▁trump":5794,"▁chiếm_đ":5795,"▁bài_hát":5796,"▁tạp_chí":5797,"▁não":5798,"▁ý_thức":5799,"▁af":5800,"▁nhạc_sĩ":5801,"▁Vinh":5802,"▁Độ":5803,"▁xác_minh":5804,"▁nghĩa_vụ":5805,"ơn_":5806,"15":5807,"site":5808,"_khoa":5809,"▁vua":5810,"_nay":5811,"▁Tập_đoàn":5812,"ice":5813,"▁xô":5814,"▁di_tích":5815,"▁thườ":5816,"▁bảy":5817,"▁Trang":5818,"▁bình_đ":5819,"▁trộm":5820,"▁Trump":5821,"_trừ":5822,"▁mất_tích":5823,"▁Lu":5824,"▁hầm":5825,"n_ngành":5826,"▁65":5827,"▁phát_sinh":5828,"▁Thanh_Hóa":5829,"xp":5830,"▁cuộc_chiến":5831,"▁đắt":5832,"▁smartphone":5833,"guyện":5834,"▁mâu":5835,"▁đậu":5836,"▁clb":5837,"▁dẫn_đầu":5838,"oogle":5839,"▁tham_mưu":5840,"▁ra_đời":5841,"nguyện":5842,"▁hải_phòng":5843,"▁CLB":5844,"▁trọng_tài":5845,"▁07":5846,"▁bùi":5847,"_đuổi":5848,"▁La":5849,"▁ấp":5850,"▁kín":5851,"▁alb":5852,"GT":5853,"ng_dây":5854,"▁đinh":5855,"▁biên":5856,"▁Ngoại_":5857,"▁mơ":5858,"▁tiêu_c":5859,"▁khâu":5860,"▁họa":5861,"to":5862,"cấp":5863,"▁cao_tốc":5864,"_hào":5865,"▁xương":5866,".201":5867,"▁nghiêm_túc":5868,"▁phổ_thông":5869,"▁tủ":5870,"▁CN":5871,"ech":5872,"▁kết_hôn":5873,"▁nghệ_an":5874,"▁cử_tri":5875,"▁Xu":5876,"a_khoa":5877,"_công":5878,"▁sắt":5879,"▁tổng_cục":5880,"▁thầ":5881,"▁Hải_Phòng":5882,"▁2.000":5883,"▁Tham_khảo":5884,"▁đậm":5885,"▁mét":5886,"▁bàn_giao":5887,"▁as":5888,"▁cờ":5889,"▁trích":5890,"▁binh_":5891,"▁chuyên_ngành":5892,"▁ukraine":5893,"▁Võ":5894,"▁Ukraine":5895,"orn":5896,"▁biên_bản":5897,"▁dày":5898,"yl":5899,"iệt_th":5900,"m_khảo":5901,"▁tròn":5902,"▁Tây_B":5903,"▁viên_chức":5904,"▁world":5905,"ng_phòng":5906,"_ảnh":5907,"▁bh":5908,"▁sản_lượng":5909,"Phone":5910,"▁Nghệ_An":5911,"▁am":5912,"▁Chi":5913,"▁dự_toán":5914,"▁hư_h":5915,"▁đồng_bào":5916,"▁muối":5917,"▁đại_sứ":5918,"nh_s":5919,"▁lão":5920,"t_điểm":5921,"▁buýt":5922,"▁khố":5923,"▁sai_l":5924,"▁pro":5925,"▁tiêu_cực":5926,"▁mỏ":5927,"▁Cách":5928,"▁đuổi":5929,"_sao":5930,"▁1.2":5931,"xanh":5932,"▁dứt_điểm":5933,"▁siêu_thị":5934,"▁biểu_hiện":5935,"▁mâu_thuẫn":5936,"i_hạn":5937,"▁cảm_ơn":5938,"▁10%":5939,"▁°":5940,"▁pin":5941,"hi":5942,"▁10.000":5943,"▁hóa_chất":5944,"▁Đề":5945,"▁đạo_đức":5946,"cách":5947,"▁mái":5948,"▁Ki":5949,"▁city":5950,"▁vui_v":5951,"ata":5952,"▁khoá":5953,"▁đốt":5954,"▁sinh_sống":5955,"▁63":5956,"▁đế":5957,"iên_l":5958,"_thiệp":5959,"▁giao_lưu":5960,"i_ngờ":5961,"▁Lao":5962,"▁tín_hiệu":5963,"_bộ":5964,"▁52":5965,"▁thất":5966,"▁thuyết_":5967,"_trích":5968,"▁hưng":5969,"▁bọn":5970,"▁cứu_hộ":5971,"▁Cụ_thể":5972,"▁cường":5973,"i_mạc":5974,"n_cấp":5975,"▁đường_dây":5976,"▁vui_vẻ":5977,"_thuê":5978,"▁nhựa":5979,"12":5980,"▁nấu":5981,"t_liệt":5982,"xuân":5983,"_Th":5984,"CH":5985,"▁chìm":5986,"▁1.5":5987,"▁hoàn_tất":5988,"▁hào":5989,"aly":5990,"ana":5991,"▁khẩn_cấp":5992,"▁Phát_triển":5993,"▁dấu":5994,"▁bật":5995,"mar":5996,"▁IS":5997,"▁xuyên":5998,"▁cư":5999,"▁đồng_bộ":6000,"▁cung":6001,"▁nhà_báo":6002,"viết":6003,"▁quyết_liệt":6004,"_trưng":6005,"▁cđ":6006,"▁Quân_":6007,"▁hứ":6008,"▁Cá":6009,"▁nhẹ_nh":6010,"▁lâu_dài":6011,"▁CĐ":6012,"am_mê":6013,"▁Cộ":6014,"▁đồng_nghiệp":6015,"▁tiểu_học":6016,"▁cho_thuê":6017,"▁Thắng":6018,"▁khoảng_cách":6019,"_thước":6020,"▁nghi_ngờ":6021,"ần_lượt":6022,"▁tách":6023,"▁Hội_nghị":6024,"▁sát_":6025,"▁phi_":6026,"▁Khánh":6027,"▁tiêu_h":6028,"▁nguyê":6029,"▁City":6030,"▁cấu":6031,"▁ab":6032,"▁thuyết_phục":6033,"ng_sinh":6034,"▁hiện_hành":6035,"▁gia_c":6036,"▁hài_lòng":6037,"▁tai":6038,"▁quyền_lợi":6039,"go":6040,"▁dụ":6041,"▁dự_thi":6042,"rl":6043,"▁cải_tạo":6044,"▁Thành_phố":6045,"▁dân_chủ":6046,"▁đĩa":6047,"_cách":6048,"▁taxi":6049,"ói_":6050,"t_c":6051,"essi":6052,"xh":6053,"_phí":6054,"▁ấm":6055,"▁nhã":6056,"▁Nghị_quyết":6057,"_thập":6058,"ino":6059,"▁tư_nhân":6060,"▁lính":6061,"_biển":6062,"▁lọt":6063,"m_cưới":6064,"▁Bùi":6065,"▁đông_đ":6066,"▁nghi":6067,"▁chấm":6068,"▁bồi_dưỡng":6069,"▁World":6070,"ram":6071,"▁hôn_nhân":6072,"▁khẩn":6073,"▁chelsea":6074,"i_độ":6075,"ẹo":6076,"▁giám_khảo":6077,"chỗ":6078,"ma":6079,"▁inch":6080,"▁Chelsea":6081,"▁đền":6082,"_dưỡng":6083,"▁quảng":6084,"▁nhà_thầu":6085,"▁tại_chỗ":6086,"▁lần_lượt":6087,"▁đánh_b":6088,"▁Thời_gian":6089,"âm_đ":6090,"▁Vân":6091,"i_dụng":6092,"▁chỉ_trích":6093,"▁ngày_m":6094,"▁net":6095,"▁iphone":6096,"nh_sáng":6097,"_thọ":6098,"▁lở":6099,"nghe":6100,"u_số":6101,"▁khai_mạc":6102,"▁chế_tạo":6103,"_đẳng":6104,"▁sai_phạm":6105,"ãnh":6106,"▁sự_thật":6107,"AM":6108,"▁dựn":6109,"▁chốt":6110,"▁phụ_thuộc":6111,"▁dựng":6112,"▁vit":6113,"▁mẫ":6114,"▁Hòa":6115,"n_nhiệm":6116,"lđ":6117,"CN":6118,"XH":6119,"cn":6120,"▁nguồn_lực":6121,"▁bột":6122,"▁Vào":6123,"▁thiết_lập":6124,"LĐ":6125,"ấn_đấu":6126,"▁kỳ_thi":6127,"▁Nữ":6128,"▁thuốc_l":6129,"▁tự_hào":6130,"▁ngầm":6131,"▁chàng_trai":6132,"▁tham_quan":6133,"▁can_thiệp":6134,"▁dự_đoán":6135,"▁ngắ":6136,"▁tất_":6137,"▁malaysia":6138,"▁leo":6139,"▁vinh_":6140,"▁cư_dân":6141,"▁hot":6142,"▁56":6143,"▁trôi":6144,"ondon":6145,"▁Hưng":6146,"n_lời":6147,"▁thiên_nhiên":6148,"▁Malaysia":6149,"▁mặt_đ":6150,"_xếp":6151,"▁54":6152,"m_học":6153,"_bé":6154,"▁2002":6155,"▁Nguồn":6156,"▁Lâm":6157,"t_gi":6158,"▁tiền_l":6159,"goại":6160,"▁sứ":6161,"ẫm":6162,"▁chức_vụ":6163,"▁Hoa":6164,"▁BH":6165,"▁KH":6166,"▁Cường":6167,"▁thái_độ":6168,"▁tội_":6169,"Tây":6170,"▁bếp":6171,"▁hđnd":6172,"▁HĐND":6173,"▁đam_mê":6174,"▁vẻ_đẹp":6175,"ói_quen":6176,"▁dậy":6177,"▁tràn":6178,"n_lỗi":6179,"ilan":6180,"▁mùa_hè":6181,"▁ý_định":6182,"▁Kỳ":6183,"▁Car":6184,"▁phương_thức":6185,"▁53":6186,"▁57":6187,"n_khổ":6188,"▁anh_h":6189,"▁chim":6190,"▁thợ":6191,"▁độc_giả":6192,"▁nghề_nghiệp":6193,"▁vin":6194,"▁ánh_sáng":6195,"▁sắp_xếp":6196,"▁doanh_nhân":6197,"▁Bởi":6198,"ames":6199,"▁ac":6200,"ola":6201,"▁mạch":6202,"ướt":6203,"▁ống":6204,"_hương":6205,"NT":6206,"ela":6207,"▁Hiệ":6208,"ari":6209,"▁tạ":6210,"▁đeo":6211,"▁Trọng":6212,"▁thpt":6213,"▁Tổng_cục":6214,"▁phạm_tội":6215,"▁kì":6216,"ất_v":6217,"▁20%":6218,"▁công_viên":6219,"▁Lan":6220,"▁THPT":6221,"▁công_cụ":6222,"▁bất_thường":6223,"ngoại":6224,"▁Tiếp":6225,"▁tuần_trước":6226,"▁hiếm":6227,"▁dạ":6228,"▁xưa":6229,"alax":6230,"loại":6231,"▁miêu":6232,"▁Sp":6233,"igh":6234,"▁đám_cưới":6235,"▁no":6236,"▁Hữu":6237,"▁iPhone":6238,"▁đệ":6239,"▁vietnam":6240,"▁thứ_trưởng":6241,"▁tuân_thủ":6242,"▁kích_thước":6243,"yo":6244,"▁táo":6245,"▁album":6246,"yếu":6247,"▁tương_ứng":6248,"etro":6249,"_tảng":6250,"ng_phạt":6251,"▁hè":6252,"▁hoa_":6253,"▁dấu_":6254,"_tụ":6255,"▁Is":6256,"ts":6257,"alaxy":6258,"entina":6259,"▁64":6260,"ng_cố":6261,"▁tnh":6262,"▁đương_":6263,"▁nút":6264,"▁trống":6265,"▁And":6266,"_trở":6267,"▁tận_dụng":6268,"▁trừng_phạt":6269,"_thờ":6270,"▁Hà_T":6271,"▁bán_kết":6272,"▁CA":6273,"▁giam":6274,"▁tông":6275,"▁ấ":6276,"▁TNH":6277,"rist":6278,"▁website":6279,"▁Đường":6280,",5%":6281,"▁Nông_":6282,"▁thói_quen":6283,"▁rob":6284,"▁xoay":6285,"▁xin_lỗi":6286,"99":6287,"_gỡ":6288,"▁mừng":6289,"▁Cho":6290,"▁Phúc":6291,"▁Giấy":6292,"▁huế":6293,"▁suất":6294,"▁thụ":6295,"▁Kết_":6296,"ary":6297,"bạch":6298,"_chủ":6299,"▁tnhh":6300,"▁TNHH":6301,"ympic":6302,"▁Đội":6303,"iu":6304,"▁chiếm_đoạt":6305,"▁phấn_đấu":6306,"▁Huế":6307,"▁đạ":6308,"Định":6309,"▁nhẹ_nhàng":6310,"▁viễn_thông":6311,"t_đẹp":6312,"▁Hoa_hậu":6313,"ất_vả":6314,"▁800":6315,"▁vỉ":6316,"▁thủ_môn":6317,"▁vươn":6318,"▁bài_viết":6319,"▁tốt_đẹp":6320,"hoàng":6321,"▁xuất_bản":6322,"▁khớp":6323,"▁Nguyên":6324,"▁Đồng_thời":6325,"▁ẩm":6326,"▁kỳ_họp":6327,"ost":6328,"▁le":6329,"▁miễn":6330,"▁dính":6331,"22":6332,"▁năm_học":6333,"▁Tiề":6334,"▁thủy_điện":6335,"▁vir":6336,"bằng":6337,"m_phát":6338,"▁đa_số":6339,"▁ad":6340,"_luyện":6341,"▁chú_trọng":6342,"▁vất_vả":6343,"▁bạch":6344,"▁Quốc_gia":6345,"▁đề_cập":6346,"▁Giáo_dục":6347,"▁giải_đấu":6348,"▁gặp_gỡ":6349,"▁cưỡ":6350,"▁Hoa_":6351,"m_phá":6352,"▁trại":6353,"▁Hơn":6354,"▁tn":6355,"▁răng":6356,"▁cứng":6357,"dáng":6358,"▁miêu_tả":6359,"▁lợi_thế":6360,"bia":6361,"▁bắt_b":6362,"_su":6363,"▁thơm":6364,"▁Nó":6365,"n_kinh":6366,"▁công_văn":6367,"▁ngăn":6368,"▁nền_tảng":6369,"▁lợi_dụng":6370,"▁dung_":6371,"▁ứng_c":6372,"▁lực":6373,"tor":6374,"▁người_b":6375,"▁trò_chơi":6376,"▁yế":6377,"▁30%":6378,"▁mầ":6379,"n_ngữ":6380,"▁củng_cố":6381,"▁làm_ăn":6382,"_khai":6383,"▁màu_đ":6384,"▁biển_đông":6385,"▁hò":6386,"chọn":6387,"▁58":6388,"▁san":6389,"▁bỗng":6390,"▁ảo":6391,"▁du":6392,"▁đánh_bại":6393,"▁đạn":6394,"ox":6395,"iên_liệu":6396,"_tàu":6397,"▁nụ":6398,"▁khí_hậu":6399,"▁tên_":6400,"chi":6401,"ệt_mỏi":6402,"▁85":6403,"▁người_l":6404,"ng_cộng":6405,"▁hiệp_hội":6406,"_chịu":6407,"_hôn":6408,"▁cỏ":6409,"u_vệ":6410,"▁120":6411,"ke":6412,"ota":6413,"▁bảo_tồn":6414,"▁dân_sự":6415,"▁khuy":6416,"▁điều_lệ":6417,"per":6418,"▁thái_b":6419,"▁bạo_lực":6420,"m_non":6421,"▁tính_chất":6422,"▁chuyến_thăm":6423,"▁xe_đ":6424,"▁gã":6425,"oc":6426,"sóng":6427,"ony":6428,"▁Văn_":6429,"m_vui":6430,"▁khen_thưởng":6431,"ose":6432,"sean":6433,"▁thuốc_lá":6434,"ind":6435,"▁biến_đổi":6436,"▁con_c":6437,"chơi":6438,"▁nhiên_liệu":6439,"▁el":6440,"▁mệt_mỏi":6441,"▁tôn_trọng":6442,"▁minh_bạch":6443,"ưu_":6444,"▁đói":6445,"▁hoàn_h":6446,"▁tổn_thương":6447,"▁mốc":6448,"▁Tấn":6449,"▁cảm_nhận":6450,"▁Bác":6451,"▁Đỗ":6452,"▁diễn_đàn":6453,"▁trái_phiếu":6454,"ng_đáng":6455,"bày":6456,"▁PH":6457,"vấn":6458,"▁Un":6459,"▁tệ":6460,"▁biến_động":6461,"_huấn":6462,"▁Là":6463,"▁thích_hợp":6464,"▁trục":6465,"▁kiện":6466,"▁cân_bằng":6467,"▁thượng":6468,"▁vải":6469,"▁vì_sao":6470,"▁dàn":6471,"▁chuyển_giao":6472,"▁iran":6473,"ng_lưới":6474,"▁quay_lại":6475,"▁ngày_nay":6476,"▁bạn_đ":6477,"▁Liên_kết":6478,"▁singapore":6479,"▁Long_":6480,"▁giường":6481,"tvt":6482,"▁Iran":6483,"ênh":6484,"▁chặn":6485,"▁quê_hương":6486,"TVT":6487,"▁2001":6488,"▁bánh_":6489,"▁tuần_tra":6490,"▁Tự":6491,"▁giới_hạn":6492,"▁Singapore":6493,"▁sợi":6494,"▁Can":6495,"▁ASE":6496,"▁rắn":6497,"▁sai_lầm":6498,"kích":6499,"▁khói":6500,"▁khe":6501,"▁ngờ":6502,"▁hoàn_hảo":6503,"▁giáo_sư":6504,"_ước":6505,"n_vẹn":6506,"ũi":6507,"▁asean":6508,"▁anh_hùng":6509,"▁đối_thoại":6510,"▁tùng":6511,"huyết":6512,"c_đầu":6513,"▁bắt_buộc":6514,"▁trái_tim":6515,"n_kho":6516,"Yên":6517,"▁đại_lý":6518,"chấp":6519,"▁sốc":6520,"▁chỉnh":6521,"▁cô_bé":6522,"ited":6523,"▁động_lực":6524,"▁bãi_b":6525,"▁Kết_quả":6526,"▁trầm":6527,"ối_cao":6528,"n_đoán":6529,"_thoát":6530,"lad":6531,"▁Hàng":6532,"▁tuyết":6533,"rom":6534,"a_chạm":6535,"▁xứng_đáng":6536,"▁tên_tuổi":6537,"_sánh":6538,"▁người_bệnh":6539,"▁cẩn":6540,"▁liên_minh":6541,"▁đường_phố":6542,"_bào":6543,"_thuốc":6544,"u_kh":6545,"indo":6546,"eth":6547,"▁lừa_đảo":6548,"_xanh":6549,"▁tan":6550,"n_đoàn":6551,"▁ủy_viên":6552,"giữ":6553,"▁Châu":6554,"▁đầ":6555,"▁sưu":6556,"▁bản_đồ":6557,",000":6558,"▁Xem":6559,"▁trình_bày":6560,"▁Phong":6561,"▁phân_công":6562,"age":6563,"xpress":6564,"▁trưởng_thành":6565,"▁nhà_văn":6566,"▁di_sản":6567,"90":6568,"▁tập_luyện":6569,"▁đối_phương":6570,"▁AF":6571,"▁hư_hỏng":6572,"▁kế_toán":6573,"gan":6574,"n_bó":6575,"▁philippines":6576,"▁khoan":6577,"▁Phụ":6578,"▁Philippines":6579,"▁ASEAN":6580,"u_ngầm":6581,"▁xét_nghiệm":6582,"▁hiệu_":6583,"▁arsenal":6584,"ng_hát":6585,"▁khám_phá":6586,"▁quảng_bá":6587,"▁va_chạm":6588,"▁Thảo":6589,"▁đè":6590,"▁lạm_phát":6591,"▁mây":6592,"▁tắm":6593,"▁Arsenal":6594,"▁vũ_trang":6595,"▁miếng":6596,"▁EU":6597,"▁Biể":6598,"▁Tháng":6599,"▁Cần_":6600,"▁tập_huấn":6601,"hoa":6602,"▁ước_tính":6603,"▁đại_gia":6604,"▁lệ_phí":6605,"▁gắn_bó":6606,"roid":6607,"_hóa":6608,"▁đồng_tiền":6609,"▁vướ":6610,"ng_mục":6611,"_nguyên":6612,"▁đích":6613,"▁thiên_tai":6614,"▁nặng_n":6615,"▁quen_thuộc":6616,"_nàng":6617,"Nha":6618,"uô":6619,"▁quá_kh":6620,"▁Quốc_phòng":6621,"▁hội_nhập":6622,"ris":6623,"▁online":6624,"▁tái_":6625,"sc":6626,"▁tế_bào":6627,"▁niềm_vui":6628,"▁huỳnh":6629,"▁kim_ng":6630,"▁cô_giáo":6631,"n_chỉnh":6632,"▁Chiều":6633,"i_sinh":6634,"▁cửa_":6635,"n_bang":6636,"▁lắ":6637,"▁mạng_lưới":6638,"▁nặng_nề":6639,"▁3.000":6640,"▁@":6641,"▁quyền_hạn":6642,"ena":6643,"▁học_b":6644,"▁kịch_bản":6645,"▁Lưu":6646,"▁sâu_sắc":6647,"_hoa":6648,"▁nước_":6649,"▁động_thái":6650,"ng_chứng":6651,"▁sắ":6652,"▁Thứ_trưởng":6653,"_S":6654,"▁quần_đ":6655,"xe":6656,"ael":6657,"▁nội_bộ":6658,"_bỏ":6659,"▁đề_tài":6660,"▁ruột":6661,"▁hiền":6662,"phong":6663,"▁van":6664,"13":6665,"▁Vậy":6666,"▁hỏa":6667,"▁kiểm_toán":6668,"▁tích_hợp":6669,"▁mát":6670,"gentina":6671,"▁Giải":6672,"_hạn":6673,"▁viêm":6674,"▁5.000":6675,"▁thụy":6676,"▁xung_đ":6677,"▁đặng":6678,"celona":6679,"▁lây":6680,"▁vitamin":6681,"▁phân_kh":6682,"▁Mạnh":6683,"▁múa":6684,"▁Vin":6685,"nt":6686,"▁lạc_":6687,"▁kích_thích":6688,"▁hậu_vệ":6689,"▁Huỳnh":6690,"▁te":6691,"cãi":6692,"ước_mắt":6693,"▁Tùng":6694,"▁mầm_non":6695,"▁sáng_tác":6696,"▁hạng_mục":6697,"▁kiêm":6698,"▁so_sánh":6699,"▁194":6700,"_chính":6701,"▁chương":6702,"cao":6703,"▁kêu":6704,"▁có_lợi":6705,"▁ruộng":6706,"▁khoáng_sản":6707,"▁dáng":6708,"n_minh":6709,"▁Su":6710,"_giải":6711,"▁Hòa_":6712,"_chồng":6713,"ron":6714,"▁Văn_hóa":6715,"▁âm_thanh":6716,"ng_bày":6717,"▁tình_nguyện":6718,"tain":6719,"▁Am":6720,"t_h":6721,"▁đua":6722,"▁tỷ_giá":6723,"ạc_nhiên":6724,"▁Giao_thông":6725,"▁apple":6726,"n_nha":6727,"▁nhấn":6728,"▁muộn":6729,"▁nhịp":6730,"t_giảm":6731,"_la":6732,"▁62":6733,"▁Lương":6734,"▁Quỹ":6735,"▁ngõ":6736,"_trụ":6737,"▁xúc":6738,"n_bạc":6739,"▁mỏng":6740,"▁nhạy":6741,"nhi":6742,"ng_mắc":6743,"▁thất_vọng":6744,"du":6745,"▁gia_nhập":6746,"_can":6747,"▁Loài":6748,"Kh":6749,"▁giọng":6750,"ắc_m":6751,"điệp":6752,"▁chinh_":6753,"ef":6754,"▁ngạc_nhiên":6755,"▁tư_cách":6756,"▁Apple":6757,"▁tiêm":6758,"▁gạch":6759,"_kỳ":6760,"c_điểm":6761,"▁tranh_cãi":6762,"▁m3":6763,"uth":6764,"_tối":6765,"_vợt":6766,"▁biên_chế":6767,"▁Thụy":6768,"▁Lễ":6769,"_ban_nha":6770,"▁không_quân":6771,"▁vướng_mắc":6772,"▁khẩn_trương":6773,"▁đồng_n":6774,"▁tây_ban_nha":6775,"▁đình_chỉ":6776,"▁ap":6777,"▁giá_cả":6778,"▁đối_đầu":6779,"ng_xóm":6780,"▁sinh_học":6781,"t_đối":6782,"▁trưng_bày":6783,"ng_nói":6784,"n_rũ":6785,"▁xung_đột":6786,"ng_suất":6787,"aul":6788,".10":6789,"_đồ":6790,"GH":6791,"an_Nha":6792,"▁700":6793,"▁thực_thi":6794,"_giúp":6795,"m_r":6796,"▁tàu_ngầm":6797,"▁Trường_":6798,"▁Đặng":6799,"▁Tây_Ban_Nha":6800,"▁triệu_":6801,"▁cột":6802,"▁Air":6803,"▁thưởng_thức":6804,"_cảm":6805,"▁luyện":6806,"n_đồn":6807,"nhắc":6808,"▁TA":6809,"▁canh":6810,"▁Tu":6811,"bỏ":6812,"_thận":6813,"▁quyến_rũ":6814,"ano":6815,"▁hà_tĩnh":6816,"▁cục_trưởng":6817,"▁dự_phòng":6818,"n_giáo":6819,"▁tiến_sĩ":6820,"▁chừng":6821,"▁sang_trọng":6822,"ng_loại":6823,"onda":6824,"n_nhắn":6825,"▁1.3":6826,"u_nạn":6827,"▁cao_đẳng":6828,"▁Vietnam":6829,"▁100.000":6830,"▁sập":6831,"▁khuôn_mặt":6832,"▁tổng_cộng":6833,"▁67":6834,"▁ngôn_ngữ":6835,"▁nhân_sự":6836,"▁tương_đối":6837,"▁chai":6838,"▁hế":6839,"▁bắc_k":6840,"▁mồ":6841,"_chuẩn":6842,"▁ngộ":6843,"▁Gia_":6844,"ear":6845,"▁Br":6846,"▁heo":6847,"▁mớ":6848,"▁59":6849,"▁Thổ":6850,"▁bông":6851,"m_nghiệm":6852,"▁Trườ":6853,"16":6854,"indows":6855,"▁giám_định":6856,"▁Hà_Tĩnh":6857,"_thách":6858,"▁lấp":6859,"▁lưu_trữ":6860,"▁tụ":6861,"▁quần_đảo":6862,"gữ":6863,"▁tổng_thể":6864,"▁độ_tuổi":6865,"td":6866,"▁Vương":6867,"rộng":6868,"▁chém":6869,"▁thu_thập":6870,"▁Thiên":6871,"▁gtvt":6872,"▁vở":6873,"▁GTVT":6874,"▁bị_can":6875,"▁tin_nhắn":6876,"▁Hiện_nay":6877,"▁mười":6878,"▁aust":6879,"▁kim_l":6880,"_nạn":6881,"▁phá_h":6882,"▁trạng":6883,"▁giật":6884,"▁liệt_":6885,"bur":6886,"iệt_thự":6887,"▁cứu_nạn":6888,"ng_kính":6889,"▁hàng_xóm":6890,"▁phe":6891,"▁Bắc_K":6892,"▁for":6893,"Trung":6894,"▁dài_":6895,"▁thiếu_":6896,"ng_rãi":6897,"14":6898,"▁rộng_rãi":6899,"nh_l":6900,"▁Chiếc":6901,"▁săn":6902,"▁Cl":6903,"lạ":6904,"pa":6905,"ến_":6906,"▁cực_kỳ":6907,"▁It":6908,"▁trọng_điểm":6909,"▁Ninh_":6910,"17":6911,"lạc_bộ":6912,"▁Đinh":6913,"▁quyền_lực":6914,"_lập":6915,"▁từ_thiện":6916,"_thăng":6917,"Thương":6918,"▁tour":6919,"ngữ":6920,"▁Cổ":6921,"▁lộc":6922,"▁chênh_":6923,"▁đê":6924,"_tiễn":6925,"▁Đả":6926,"_điển":6927,"CB":6928,"▁dâng":6929,"▁ngắm":6930,"▁tiêu_biểu":6931,"▁nồ":6932,"▁mặt_trời":6933,"▁học_bổng":6934,"▁tuyệt_đối":6935,"▁bằng_chứng":6936,"▁vỉa_hè":6937,"▁Yên_":6938,"▁lắp_đặt":6939,"▁nhiệt_đ":6940,"▁thể_dục":6941,"▁khống_chế":6942,"att":6943,"▁bất_chấp":6944,"▁72":6945,"▁kết_c":6946,"▁cân_nhắc":6947,"▁giang":6948,"▁cô_nàng":6949,"▁năng_suất":6950,"▁xét_tuyển":6951,"n_hàng":6952,"▁căn":6953,"▁bàn_tay":6954,"CS":6955,"▁tuyển_dụng":6956,"▁chi_trả":6957,"▁điển_hình":6958,"▁Mới":6959,"_hoàng":6960,"▁Aust":6961,"▁hố":6962,"▁xe_đạp":6963,"▁250":6964,"▁cal":6965,"▁đỡ":6966,"ive":6967,"▁bụi":6968,"▁Tâm":6969,"lệch":6970,"_trại":6971,"_tân":6972,"Châu":6973,"ng_chỉ":6974,"▁bảo_quản":6975,"▁đồng_nai":6976,"▁bv":6977,"m_họa":6978,"▁cần_thơ":6979,"▁đông_đảo":6980,"cs":6981,"▁QUY":6982,"18":6983,"▁tư_tưởng":6984,"▁Công_nghệ":6985,"▁trung_học":6986,"▁sạt":6987,"▁xe_khách":6988,"▁gia_cầm":6989,"▁anh_ch":6990,"_ẩn":6991,"ng_kết":6992,"▁BV":6993,"▁indon":6994,"▁tiến_bộ":6995,"▁hang":6996,"▁con_cái":6997,"▁mả":6998,"gon":6999,"▁tưở":7000,"▁chấp_thuận":7001,"▁dự_trữ":7002,"▁Indon":7003,"n_nước":7004,"▁tin_đồn":7005,"Thơ":7006,"mối":7007,"Nai":7008,"▁Internet":7009,"▁indonesia":7010,"ala":7011,"▁cúm":7012,"a_r":7013,"▁Facebook":7014,"▁Indonesia":7015,"▁thử_thách":7016,"▁2019":7017,"▁biệt_thự":7018,"▁đặc_trưng":7019,"Thành":7020,"▁buô":7021,"▁định_kỳ":7022,"yanmar":7023,"▁khuôn_khổ":7024,"ộp":7025,"▁lời_":7026,"▁trưởng_ban":7027,"▁tên_gọi":7028,"▁đối_phó":7029,"▁tổ_quốc":7030,"_quý":7031,"▁Sơn_":7032,"▁Đồng_Nai":7033,"▁95":7034,"▁cận":7035,"▁hành_nghề":7036,"err":7037,"▁tiền_tệ":7038,"iễu":7039,"▁bình_dương":7040,"▁thông_điệp":7041,"▁sĩ":7042,"▁tay_vợt":7043,"▁phong_độ":7044,"▁Lao_động":7045,"ng_phí":7046,"▁người_mua":7047,"▁nảy":7048,"▁cửa_khẩu":7049,"▁tạm_thời":7050,"▁Cần_Thơ":7051,"▁ăn_m":7052,"xa":7053,"ace":7054,"_hát":7055,"ối_l":7056,"▁Trường_hợp":7057,"▁Môi_trường":7058,"_lộ":7059,"▁ngọt":7060,"▁thỏ":7061,"▁công_lập":7062,"▁bl":7063,"▁đú":7064,"_bệnh":7065,".200":7066,"▁Ser":7067,"ss":7068,"▁bộ_máy":7069,"vàng":7070,"▁hoàng_":7071,"▁Tiế":7072,"▁tiên_tiến":7073,"▁thẩm_mỹ":7074,"▁đành":7075,"▁đáy":7076,"▁cắm":7077,"erry":7078,"▁theo_đuổi":7079,"▁virus":7080,"ney":7081,"▁68":7082,"ưỡi":7083,"_qua":7084,"▁Bình_Dương":7085,"cây":7086,"phận":7087,"▁lẻ":7088,"▁cty":7089,"▁đậ":7090,"phi":7091,"▁kiên":7092,"KS":7093,"mẫu":7094,"▁ứng_cử":7095,"đối":7096,"▁học_viên":7097,"uv":7098,"ương_vị":7099,"▁tin_tức":7100,"_móc":7101,"▁chênh_lệch":7102,"▁Cầu":7103,"▁hẹn":7104,"_tuệ":7105,"▁Ab":7106,"▁nhập_c":7107,"ish":7108,"▁CHỦ":7109,"▁trang_trí":7110,"▁Ba_":7111,"▁cản":7112,"▁84":7113,"▁lộ_trình":7114,"▁loại_hình":7115,"n_binh":7116,"_đội":7117,"t_mục":7118,"osco":7119,"▁dĩ":7120,"ale":7121,"illa":7122,"▁khẩu":7123,"▁mod":7124,"▁va":7125,"▁Hình_":7126,"▁quảng_ninh":7127,"▁nắ":7128,"▁Hệ":7129,"▁Hãy":7130,"▁bát":7131,"▁Kim_":7132,"▁công_bằng":7133,"▁đặc_s":7134,"▁ghép":7135,"sơn":7136,"▁ngoại_tệ":7137,"▁trực_thăng":7138,"▁lậu":7139,"▁ngày_sau":7140,"ợp_quốc":7141,"▁loại_bỏ":7142,"▁Châu_":7143,"▁Tư_pháp":7144,"▁thang":7145,"▁Thố":7146,"▁chánh":7147,"▁Thanh_tra":7148,"_nam":7149,"▁cắt_giảm":7150,"u_điện":7151,"_nợ":7152,"▁trò_chuyện":7153,"ủn":7154,"▁động_đất":7155,"enk":7156,"Sa":7157,"▁hiếu":7158,"▁hỏng":7159,"nh_khắc":7160,"_nhớ":7161,"ane":7162,"ium":7163,"▁đa_khoa":7164,"▁góp_mặt":7165,"remier":7166,"ng_động":7167,"▁cao_su":7168,"▁66":7169,"▁biểu_tượng":7170,"▁quảng_nam":7171,"_hại":7172,"n_xe":7173,"▁Hằng":7174,"▁dầu_khí":7175,"ước_":7176,"▁Quảng_Ninh":7177,"▁thổ_nh":7178,"▁cỡ":7179,"lang":7180,"▁chi_tiêu":7181,"▁tám":7182,"▁cá_tính":7183,"▁mảng":7184,"icros":7185,"▁thạch":7186,"ng_sa":7187,"▁kem":7188,"▁mượn":7189,"▁trí_tuệ":7190,"▁kí":7191,"▁mặt_n":7192,"i_cảm":7193,"oáng":7194,"▁đoàn_thể":7195,"n_giang":7196,"▁khuyến_m":7197,"oft":7198,"▁chứng_chỉ":7199,"▁gợi_cảm":7200,"▁tiếng_anh":7201,"▁trái_":7202,"phạm":7203,"▁tổng_kết":7204,"▁dốc":7205,"exico":7206,"▁Xe":7207,"▁tiệm":7208,"▁hoài":7209,"▁hữu_nghị":7210,"▁mỡ":7211,"▁hành_tinh":7212,"_Kỳ":7213,"ẻo":7214,"▁Cty":7215,"▁Obama":7216,"ng_mặt":7217,"ng_ca":7218,"▁thiết_thực":7219,"▁obama":7220,"old":7221,"▁thực_tiễn":7222,"▁dâu":7223,"▁Ol":7224,"▁dập":7225,"▁TN":7226,"_cười":7227,"▁Tân":7228,"▁hứa_h":7229,"▁khéo":7230,"_phú":7231,"▁Công_Thương":7232,"▁Quảng_Nam":7233,"35":7234,"▁madrid":7235,"ỊNH":7236,"▁reuters":7237,"▁tỏa":7238,"▁đuôi":7239,"▁môi":7240,"iga":7241,"▁thư_ký":7242,"▁chức_danh":7243,"▁Thường":7244,"▁Quý":7245,"▁Máy":7246,"▁bạn_đọc":7247,"▁Madrid":7248,"▁đảng_viên":7249,"▁trước_mắt":7250,"ies":7251,"ng_qu":7252,"u_hành":7253,"▁thanh_l":7254,"▁hứa_hẹn":7255,"m_ảnh":7256,"▁kim_loại":7257,"▁người_lớn":7258,"▁dẫn_d":7259,"▁vết_thương":7260,"_Nhĩ":7261,"▁gan":7262,"▁chủ_nhiệm":7263,"▁phát_sóng":7264,"▁quá_khứ":7265,"n_liền":7266,"▁qua_đời":7267,"▁PC":7268,"▁cấu_trúc":7269,"▁lãng_phí":7270,"_tổng":7271,"▁Ngườ":7272,"▁ùn":7273,"▁Gu":7274,"oạch":7275,"▁TR":7276,"▁trâu":7277,"▁Liê":7278,"▁Đị":7279,"▁bài_học":7280,"▁men":7281,"_tông":7282,"▁phước":7283,"by":7284,"▁Dân_":7285,"_vật":7286,"▁đồ_":7287,"▁thâm_":7288,"▁người_nhà":7289,"▁my":7290,"▁trinh":7291,"▁nguyệ":7292,"▁ứng_viên":7293,"ng_dạy":7294,"▁Khoa_học":7295,"_tụng":7296,"▁hn":7297,"▁vắ":7298,"▁ê":7299,"▁trạng_thái":7300,"▁chiến_binh":7301,"ng_sáng":7302,"▁chì":7303,"i_dậy":7304,"▁thúy":7305,"▁quỳnh":7306,"▁tối_cao":7307,"▁ct":7308,"▁tiết_mục":7309,"▁bờ_biển":7310,"▁sáp":7311,"AT":7312,"▁btc":7313,"▁1999":7314,"▁phân_biệt":7315,"▁sơ_thẩm":7316,"▁hóa_đơn":7317,"▁dài_hạn":7318,"▁BTC":7319,"af":7320,"▁australia":7321,"▁giảng_dạy":7322,"i_đất":7323,"▁Báo_cáo":7324,"▁chứng_tỏ":7325,"oscow":7326,"ond":7327,"chợ":7328,"▁Dân":7329,"▁Australia":7330,"▁nhập_viện":7331,"▁lụ":7332,"▁mềm":7333,"ovic":7334,"▁mc":7335,"▁trinh_":7336,"▁hàn":7337,"▁chiều_dài":7338,"▁im":7339,"Ng":7340,"▁văn_học":7341,"c_động":7342,"▁đau_đ":7343,"ll":7344,"▁Cuộc":7345,"▁chất_thải":7346,"▁thương_binh":7347,"ịn":7348,"ủng":7349,"▁Đã":7350,"ner":7351,"▁văn_minh":7352,"▁bình_chọn":7353,"▁nước_thải":7354,"▁NS":7355,"ith":7356,"▁hy_sinh":7357,"▁Riêng":7358,"▁iii":7359,"▁ind":7360,"Phi":7361,"chiếu":7362,"▁Nông_nghiệp":7363,"▁ủy_quyền":7364,"▁sụt":7365,"▁Thúy":7366,"▁Ngoại_giao":7367,"▁77":7368,"▁tốn":7369,"▁76":7370,"u_k":7371,"▁phun":7372,"▁đoạ":7373,"▁gọn":7374,"▁Lã":7375,"▁ngành_":7376,"res":7377,"ĩ_kỳ":7378,"▁73":7379,"▁tán":7380,"▁98":7381,"▁thổ_nhĩ_kỳ":7382,"Hải":7383,"enz":7384,"▁đẻ":7385,"▁chặng":7386,"▁Thổ_Nhĩ":7387,"_nghỉ":7388,"▁dẫn_dắt":7389,"▁ngựa":7390,"▁Thổ_Nhĩ_Kỳ":7391,"▁Ư":7392,"▁cân_đối":7393,"uyề":7394,"ng_cụ":7395,"ull":7396,"▁khuyết":7397,"▁lọc":7398,"▁trợ_cấp":7399,"▁quầ":7400,"▁trưởng_phòng":7401,"▁anh_chàng":7402,"▁tiền_lương":7403,"_lễ":7404,"▁thu_hoạch":7405,"_giác":7406,"▁khởi_động":7407,"▁bất_c":7408,"chester":7409,"▁dịch_bệnh":7410,"▁tang":7411,"gs":7412,"ng_ngày":7413,"▁kim_ngạch":7414,"ghan":7415,"ẾT":7416,"ng_T":7417,"▁20.000":7418,"▁đồn":7419,"ủi":7420,"▁nhạy_cảm":7421,"▁xúc_động":7422,"ữa_":7423,"▁sức_ép":7424,"▁mật_":7425,"oney":7426,"▁Reuters":7427,"▁tỉ_lệ":7428,"▁Bản":7429,"▁khó_chịu":7430,"▁tand":7431,"Đông":7432,"▁kar":7433,"ưởi":7434,"▁Chu":7435,"▁Giang":7436,"▁Tất_cả":7437,"▁mày":7438,"▁thí_điểm":7439,"▁tiết":7440,"n_bệnh":7441,"▁bắc_kinh":7442,"▁phi_công":7443,"▁khủn":7444,"ng_phú":7445,"▁Đại_hội":7446,"▁khủng":7447,"▁sex":7448,"▁HN":7449,"▁đấu_thầu":7450,"ato":7451,"_độc":7452,"▁1,2":7453,"icrosoft":7454,"▁người_ch":7455,"▁Bắc_Kinh":7456,"▁trợ_giúp":7457,"▁bọc":7458,"▁ơi":7459,"▁đầu_mối":7460,"▁đối_ngoại":7461,"_chương":7462,"_trọ":7463,"▁vịnh":7464,"▁TAND":7465,"▁ồ":7466,"▁or":7467,"▁cung_ứng":7468,"_đường":7469,"▁Quỳnh":7470,"_chiến":7471,"▁suối":7472,"▁nở":7473,"▁đột_phá":7474,"▁mặt_trận":7475,"▁họp_báo":7476,"▁chi_cục":7477,"▁Kinh_tế":7478,"▁tập_trận":7479,"▁chiêu":7480,"▁Tỉ":7481,"berg":7482,"▁khoảnh_khắc":7483,"▁Du_lịch":7484,"▁Hiện_tại":7485,"nặng":7486,"▁Huyền":7487,"vệ":7488,"▁quá_tải":7489,"▁III":7490,"pe":7491,"▁70%":7492,"m_dò":7493,"▁câu_lạc_bộ":7494,"ốp":7495,"▁yo":7496,"_suất":7497,"▁trọng_tâm":7498,"▁thiê":7499,"▁nữ_sinh":7500,"eon":7501,"IỆ":7502,"▁tw":7503,"_ĐỊNH":7504,"▁trọng_lượng":7505,"▁nhắm":7506,"▁thân_thiện":7507,"▁Hồng_":7508,"▁gen":7509,"▁Trà":7510,"ỘI":7511,"▁mi":7512,"▁vệ_tinh":7513,"▁sinh_thái":7514,"▁Thực_hiện":7515,"cia":7516,"▁trộm_c":7517,"▁văn_":7518,"▁trinh_sát":7519,"▁phát_động":7520,"uro":7521,"▁mọc":7522,"nhật":7523,"Bộ":7524,"▁hiển":7525,"▁kết_cấu":7526,"▁phủ_nhận":7527,"▁2,5":7528,"▁email":7529,"▁campuchia":7530,"n_đề":7531,"▁hiến":7532,"_nhập":7533,"▁hành_lang":7534,"▁máy_móc":7535,"▁cai":7536,"▁lời_khai":7537,"▁mất_":7538,"▁hóa_học":7539,"▁yên_tâm":7540,"_dâu":7541,"▁di_d":7542,"▁Campuchia":7543,"ect":7544,"▁chiều_cao":7545,"▁soạn":7546,"▁Xuân_":7547,"vào":7548,"quà":7549,"▁Col":7550,"▁duyên":7551,"▁cúp":7552,"▁Ro":7553,"▁nông_sản":7554,"▁hứa":7555,"n_cáo":7556,"▁lđ":7557,"▁hối_":7558,"▁ước_m":7559,"▁Hải_quan":7560,"▁khuyên":7561,"▁phân_loại":7562,"▁samsung":7563,"c_mừng":7564,"▁sưu_tập":7565,"▁vũng":7566,"▁dụng_cụ":7567,"▁LĐ":7568,"▁Phước":7569,"▁Hiệp_hội":7570,"▁nhí":7571,"▁thăm_dò":7572,"▁Biển_Đông":7573,"▁Đơ":7574,"▁Tòa_":7575,"▁đồi":7576,"_chất":7577,"▁dồn":7578,"▁khắc":7579,"_dày":7580,"▁giới_tính":7581,"▁cất":7582,"▁ao":7583,"▁định_m":7584,"▁đài_":7585,"▁tôn_giáo":7586,"▁thưa":7587,"▁0,0":7588,"▁thần_kinh":7589,"▁khơi":7590,"▁bi":7591,"▁luật_pháp":7592,"già":7593,"▁dự_định":7594,"▁giàn":7595,"▁thiể":7596,"ach":7597,"▁cay":7598,"▁bê_tông":7599,"▁miền_núi":7600,"▁Samsung":7601,"▁buồ":7602,"n_sắc":7603,"▁Phú_":7604,"▁nhãn":7605,"▁news":7606,"▁hàng_hải":7607,"c_mơ":7608,"_cánh":7609,"m_dụng":7610,"▁đầu_vào":7611,"▁nhất_trí":7612,"▁ronaldo":7613,"▁Pl":7614,"ott":7615,"▁hiệp_định":7616,"▁di_dời":7617,"▁csgt":7618,"II":7619,"▁Ronaldo":7620,"ân_ch":7621,"▁mệnh_":7622,"ăng_":7623,"▁CSGT":7624,"xin":7625,"▁quy_phạm":7626,"▁truy_cập":7627,"▁căn_bệnh":7628,"ps":7629,"▁Tính":7630,"▁thải":7631,"▁ác":7632,"▁Nhân":7633,"▁gãy":7634,"▁99":7635,"▁%":7636,"▁xúc_tiến":7637,"▁nguyện_vọng":7638,"▁tiền_mặt":7639,"▁phong_phú":7640,"▁triệu_chứng":7641,"▁hổ":7642,"▁dav":7643,"▁dẫn_lời":7644,"▁miền_nam":7645,"▁thửa":7646,"▁u23":7647,"▁khỏe_mạnh":7648,"▁Cái":7649,"▁U23":7650,"rim":7651,"_thang":7652,"ược_":7653,"▁50.000":7654,"▁tiện_":7655,"▁Barca":7656,"▁barca":7657,"▁hàm_":7658,"▁2.1":7659,"▁se":7660,"▁hoa_kỳ":7661,"▁1998":7662,"▁bể":7663,"▁nhắn":7664,"IA":7665,"▁bẩn":7666,"▁khép":7667,"ng_ủy":7668,"nhở":7669,"▁nuô":7670,"▁món_quà":7671,"▁gắn_liền":7672,"▁VIỆ":7673,"ng_mạn":7674,"▁cải_tiến":7675,"▁brazil":7676,"ng_phó":7677,"▁Đại_sứ":7678,"fi":7679,"▁trân":7680,"▁Hợp":7681,"▁nụ_cười":7682,"▁đầm":7683,"▁tọa":7684,"▁hung":7685,"▁Brazil":7686,"chúng":7687,"▁thằng":7688,"▁Dav":7689,"ng_lợi":7690,"ink":7691,"▁inter":7692,"▁30.000":7693,"▁Liên_h":7694,"▁trộm_cắp":7695,"▁đau_đớn":7696,"ìa":7697,"▁đám":7698,"▁biên_phòng":7699,"oss":7700,"▁AP":7701,"▁Khoảng":7702,"▁78":7703,"▁đô_la":7704,"▁lãng_mạn":7705,"▁Ngay_sau":7706,"Thuận":7707,"▁tuyệt":7708,"▁hoả":7709,"▁ang":7710,"▁sim":7711,"▁Hoa_Kỳ":7712,"▁tối_":7713,"▁Hô":7714,"▁nội_vụ":7715,"dấu":7716,"▁Chiến":7717,"▁vạn":7718,"▁ly_hôn":7719,"▁sôi_động":7720,"▁lông":7721,"▁bến_xe":7722,"▁Chí":7723,"▁1990":7724,"▁chúc_mừng":7725,"▁Nghĩa":7726,"ghanistan":7727,"▁kinh":7728,"nghi":7729,"▁bđ":7730,"▁york":7731,"▁ứng_phó":7732,"▁Thậm":7733,"▁phòng_ngự":7734,"hứng":7735,"▁mùa_đông":7736,"i_chơi":7737,"eria":7738,"▁61":7739,"▁đồng_minh":7740,"▁lương_thực":7741,"▁thiểu_số":7742,"▁mờ":7743,"▁hiệu_trưởng":7744,"▁Đất":7745,"▁York":7746,"▁na":7747,"▁BĐ":7748,"_sổ":7749,"▁ngại":7750,"▁Điểm":7751,"▁bảo_tàng":7752,"▁tiếng_Anh":7753,"▁đối_diện":7754,"▁kiên_quyết":7755,"olf":7756,"▁gánh_":7757,"▁thẳng_th":7758,"▁vui_chơi":7759,"_NGH":7760,"▁khuyến_cáo":7761,"_mời":7762,"_tóc":7763,"▁74":7764,"▁iraq":7765,"_cổ":7766,"ali":7767,"▁đối_lập":7768,"▁đa_":7769,"▁bỏ_qua":7770,"i_k":7771,"SC":7772,"ng_xử":7773,"▁Song":7774,"▁Iraq":7775,"▁israel":7776,"▁đánh_dấu":7777,"▁xa_":7778,"_ngơi":7779,"▁độ_cao":7780,"▁cat":7781,"▁thực_hành":7782,"▁tỉnh_ủy":7783,"▁1.4":7784,"▁dạo":7785,"▁vũ_trụ":7786,"▁Israel":7787,"▁Chánh":7788,"▁tàu_":7789,"▁cáp":7790,"ush":7791,"dịch":7792,"▁ham":7793,"▁công_đoàn":7794,"ÔNG":7795,"_TR":7796,"▁phân_bổ":7797,"▁88":7798,"▁mảnh":7799,"iên_họp":7800,"▁kê_khai":7801,"▁binh_sĩ":7802,"▁Cà":7803,"▁Ale":7804,"▁cố_định":7805,"▁thắng_lợi":7806,"▁lứa":7807,"tainer":7808,"ối_loạn":7809,"▁ngắn_hạn":7810,"▁vùng_đất":7811,"▁Bá":7812,"▁trịnh":7813,"_sút":7814,"akistan":7815,"▁tướng":7816,"▁đẳ":7817,"▁chỉ_định":7818,"75":7819,"rad":7820,"▁tình_báo":7821,"▁cẩn_thận":7822,"ichael":7823,"_đỏ":7824,"▁69":7825,"▁hài":7826,"n_ngại":7827,"▁mon":7828,"▁nghiê":7829,"Minh":7830,"▁thủ_trưởng":7831,"▁80%":7832,"▁chăm_ch":7833,"▁tiêu_diệt":7834,"▁thẩm":7835,"uyên_":7836,"_ủy":7837,"ight":7838,"▁chinh_phục":7839,"▁truy_tố":7840,"u_biết":7841,"▁trượt":7842,"▁Tim":7843,"▁110":7844,"▁ứng_xử":7845,"yt":7846,"▁[":7847,"Bắc":7848,"▁nát":7849,"_nguyện":7850,"▁khách_quan":7851,"▁cách_thức":7852,"▁gas":7853,"▁Đài_":7854,"▁xà":7855,"▁Lực_lượng":7856,"ien":7857,"▁non":7858,"_vỡ":7859,"▁cong":7860,"iềng":7861,"▁thảm_họa":7862,"▁Nói":7863,"▁gr":7864,"▁Nhóm":7865,"▁gay":7866,"▁Chưa":7867,"▁gầ":7868,"▁buôn_l":7869,"▁5%":7870,"▁trộn":7871,"nhiệm":7872,"▁dỡ":7873,"▁lên_":7874,"▁đẳng_cấp":7875,"▁hiểu_biết":7876,"t_khi":7877,"▁thiếu_n":7878,"▁chuyền":7879,"▁Hiền":7880,"▁Rob":7881,"▁trái_cây":7882,"_hơi":7883,"_Tr":7884,"▁Ngoại":7885,"n_bắc":7886,"▁khuyết_tật":7887,"▁đề_c":7888,"ike":7889,"▁To":7890,"hỏi":7891,"▁thường_vụ":7892,"n_biết":7893,"_trần":7894,"▁ww":7895,"▁bản_l":7896,"▁thủy_lợi":7897,"▁Kiểm":7898,"eh":7899,"▁sáp_nhập":7900,"t_g":7901,"▁bơm":7902,"▁cây_xanh":7903,"ann":7904,"m_nhìn":7905,"▁Thủ_đô":7906,"▁vững_ch":7907,"▁tiệc":7908,"▁lý_giải":7909,"▁ùn_tắc":7910,"ắc_nhở":7911,"▁container":7912,"▁rối_loạn":7913,"▁truyện":7914,"hồn":7915,"▁phế":7916,"_danh":7917,"▁giảng_viên":7918,"▁tranh_thủ":7919,"erc":7920,"tm":7921,"n_bà":7922,"▁john":7923,"▁iv":7924,"▁Mẹ":7925,"▁chuột":7926,"▁Liên":7927,"ng_cảm":7928,"▁trùng":7929,"roup":7930,"▁nhắc_nhở":7931,"24":7932,"iều_hành":7933,"_chơi":7934,"▁Tên":7935,"▁bất_cập":7936,"▁trẻ_trung":7937,"▁đồng_tình":7938,"▁83":7939,"ẩn_đoán":7940,"▁loa":7941,"PH":7942,"▁Tây_N":7943,"▁tháp":7944,"wood":7945,"n_nào":7946,"▁Trịnh":7947,"▁Tú":7948,"▁gần_g":7949,"ữa_ăn":7950,"▁John":7951,"▁cực_đ":7952,"▁công_vụ":7953,"▁kiề":7954,"▁phần_nào":7955,"_ly":7956,"▁lau":7957,"▁Bước":7958,"▁tam_":7959,"▁washington":7960,"ella":7961,"▁40%":7962,"▁mật":7963,"▁thùy":7964,"▁liên_bang":7965,"▁nhi":7966,"▁quét":7967,"▁gần_gũi":7968,"ng_quang":7969,"▁huyết_":7970,"_đón":7971,"ii":7972,"i_khuẩn":7973,"▁Washington":7974,"ng_long":7975,"▁học_phí":7976,"▁Xã_hội":7977,"_trong":7978,"▁My":7979,"▁phiên_họp":7980,"n_xuất":7981,"▁champions":7982,"▁khoác":7983,"▁Tổ_quốc":7984,"BC":7985,"khu":7986,"▁AT":7987,"định":7988,"▁dược":7989,"▁nam_giới":7990,"n_vật":7991,"▁nhìn_nhận":7992,"▁Đài":7993,"pl":7994,"▁Cộng_hòa":7995,"▁Champions":7996,"▁cảm_hứng":7997,"▁lành_m":7998,"▁lành_mạnh":7999,"▁nhầm":8000,"_bao":8001,"▁gia_hạn":8002,"▁ước_mơ":8003,"▁thức":8004,"▁liverpool":8005,"▁cố_tình":8006,"▁1.6":8007,"▁mư":8008,"▁đón_nhận":8009,"▁hành_h":8010,"iếp_ảnh":8011,"▁phượng":8012,"▁huy_chương":8013,"ựu":8014,"▁Truyền":8015,"▁dữ_d":8016,"▁Liverpool":8017,"▁bơi":8018,"▁doanh_số":8019,"▁fl":8020,"▁nghỉ_ngơi":8021,"▁Tình_":8022,"▁ngón":8023,"▁sch":8024,"▁nấm":8025,"▁193":8026,"▁thổi":8027,"m_lặng":8028,"▁ngưỡng":8029,"▁os":8030,"▁Thường_":8031,"▁lượ":8032,"okia":8033,"▁blo":8034,"▁miền_bắc":8035,"nham":8036,"▁tín_nhiệm":8037,"▁trang_điểm":8038,"▁park":8039,"▁ninh":8040,"▁Hoài":8041,"▁tất_nhiên":8042,"▁200.000":8043,"▁đb":8044,"i_dương":8045,"ân_c":8046,"▁que":8047,"▁chán":8048,"▁Thực":8049,"▁học_viện":8050,"▁Inter":8051,"▁rải":8052,"▁đặc_thù":8053,"▁dán":8054,"▁khả_thi":8055,"▁ĐB":8056,"_tỉnh":8057,"_ga":8058,"▁liều":8059,"▁ttx":8060,"▁nhạc_":8061,"▁TTX":8062,"▁tờ_báo":8063,"▁cuộc_đua":8064,"▁Tài_nguyên":8065,"rối":8066,"con":8067,"▁ninh_":8068,"xứ":8069,"que":8070,"▁bí_ẩn":8071,"▁bọ":8072,"▁hải_sản":8073,"oe":8074,"ng_hoàng":8075,"▁ngành_nghề":8076,"m_kh":8077,"▁Mọi":8078,"▁hồi_giáo":8079,"_sự":8080,"les":8081,"▁bữa_ăn":8082,"_gìn":8083,"▁đáng_":8084,"▁tồ":8085,"▁nếp":8086,"▁thận_trọng":8087,"▁miền_trung":8088,"▁vi_khuẩn":8089,"ford":8090,"▁Nội_vụ":8091,"▁putin":8092,"▁liệt_sĩ":8093,"▁86":8094,"▁Bị":8095,"▁hưu":8096,"ric":8097,"▁dấu_ấn":8098,"▁pc":8099,"▁Putin":8100,"▁Diễ":8101,"▁]":8102,"▁chè":8103,"ng_hiến":8104,"▁KT":8105,"_duy":8106,"▁QL":8107,"▁Ang":8108,"▁Hệ_thống":8109,"▁người_chồng":8110,"▁tầm_nhìn":8111,"ire":8112,"ham":8113,"bi":8114,"▁linh_hoạt":8115,"▁đàn_bà":8116,"▁đồng_hành":8117,"_đại":8118,"▁rét":8119,"loan":8120,"▁chẩn_đoán":8121,"_kho":8122,"_CH":8123,"▁nghi_phạm":8124,"▁Chứ":8125,"▁trùm":8126,"m_bé":8127,"▁rào":8128,"▁buôn_lậu":8129,"▁El":8130,"▁rạng_sáng":8131,"▁ex":8132,"▁hồi_phục":8133,"▁lạc":8134,"▁đặc_điểm":8135,"wn":8136,"▁vố":8137,"_trội":8138,"▁92":8139,"▁Park":8140,"▁Doanh_":8141,"▁rad":8142,"▁phòng_kh":8143,"▁Toàn":8144,"▁giấc_mơ":8145,"▁hù":8146,"ova":8147,"▁Nhiệ":8148,"▁phân_khúc":8149,"▁Ủy_viên":8150,"uyện_viên":8151,"▁1.500":8152,"▁giữ_gìn":8153,"▁thăng":8154,"uế":8155,"▁dở":8156,"▁Đào_tạo":8157,"▁Ý":8158,"▁Thương_mại":8159,"▁giọng_hát":8160,"_tháp":8161,"▁Quy_định":8162,"▁nướng":8163,"ỈNH":8164,"▁cư_trú":8165,"▁thực_trạng":8166,"▁hợp_lệ":8167,"▁Di":8168,"ka":8169,"▁sinh_nhật":8170,"▁tẩy":8171,"▁rạp":8172,"▁News":8173,"▁mặt_đất":8174,"▁mèo":8175,"▁huyền_thoại":8176,"▁Nhân_dân":8177,"▁trung_vệ":8178,"▁bình_đẳng":8179,"▁điện_b":8180,"giận":8181,"_bạc":8182,"▁phòng_ngừa":8183,"▁ttxvn":8184,"▁quảng_ng":8185,"▁chip":8186,"▁TTXVN":8187,"ide":8188,"ga":8189,"88":8190,"▁hẹ":8191,"▁màu_xanh":8192,"▁thiệ":8193,"dol":8194,"▁chất_liệu":8195,"▁har":8196,"▁hẹp":8197,"ania":8198,"▁Sao":8199,"▁đầu_b":8200,"▁Danh_":8201,"▁Ú":8202,"▁chất_vấn":8203,"▁bộ_đội":8204,"▁www":8205,"▁dải":8206,"▁nhan_sắc":8207,"cáo":8208,"▁quyết_toán":8209,"▁ql":8210,"▁tư_duy":8211,"▁quảng_ngãi":8212,"_trồng":8213,"▁xưởng":8214,"▁đài_loan":8215,"▁con_d":8216,"▁chỉ_thị":8217,"▁CT":8218,"iến_quân":8219,"_quân":8220,"▁google":8221,"▁biên_tập":8222,"oma":8223,"▁Dung":8224,"▁dữ_dội":8225,"▁Hồi_giáo":8226,"▁pal":8227,"▁song_":8228,"▁gia_l":8229,"▁thanh_khoản":8230,"▁thương_tích":8231,"_R":8232,"▁bào":8233,"▁be":8234,"car":8235,"▁Cấp":8236,"▁lam":8237,"▁chả":8238,"xy":8239,"▁vững_chắc":8240,"▁bước_đầu":8241,"▁điểm_s":8242,"n_khoăn":8243,"_tựu":8244,".00":8245,"▁tinh_tế":8246,"▁Thư":8247,"▁Vị":8248,"t_biểu":8249,"▁Phát_biểu":8250,"Loan":8251,"▁viê":8252,"▁hợp_tác_xã":8253,"▁0,5":8254,"▁đề_thi":8255,"▁Làm":8256,"gãi":8257,"biz":8258,"t_ngào":8259,"ạc_sĩ":8260,"Mỹ":8261,"m_chế":8262,"▁Đài_Loan":8263,"▁1992":8264,"ắc_mắc":8265,"_đầu":8266,"▁thảm":8267,"▁túi_":8268,"▁Chi_cục":8269,"▁Khánh_":8270,"▁chức_trách":8271,"n_đán":8272,"▁Hiếu":8273,"▁nguồn_nước":8274,"▁Mặt":8275,".11":8276,"bo":8277,"▁tính_mạng":8278,"▁thượng_đ":8279,"▁chủ_nhân":8280,"_niên":8281,"▁Gia_L":8282,"▁105":8283,"▁diễn_xuất":8284,"▁PT":8285,"▁khởi_công":8286,"edia":8287,"▁thực_chất":8288,"▁toán":8289,"▁thích_thú":8290,"▁ngọt_ngào":8291,"▁Quảng_Ngãi":8292,"▁đánh_bắt":8293,"▁cây_trồng":8294,"▁Thùy":8295,"sút":8296,"_tù":8297,"_kịch":8298,"ng_đốc":8299,"▁bảo_l":8300,"▁thắc_mắc":8301,"▁chiều_nay":8302,"▁băn_khoăn":8303,"▁79":8304,"▁kiểm_sát":8305,"▁thành_ủy":8306,"_hộ":8307,"▁sát_hại":8308,"▁phó_tổng":8309,"▁nhiệt_đới":8310,"▁ngoại_trưởng":8311,"▁Trinh":8312,"▁mực":8313,"ler":8314,"éc":8315,"▁1.0":8316,"▁Rất":8317,"▁Ly":8318,"ren":8319,"▁son":8320,"u_có":8321,"▁ngoại_ngữ":8322,"bc":8323,"ỘNG":8324,"▁giải_cứu":8325,"▁phòng_không":8326,",00":8327,"za":8328,"n_vinh":8329,"▁khai_":8330,"nh_hòa":8331,"▁tựa":8332,"▁sáng_kiến":8333,"▁tồi":8334,"▁1.1":8335,"▁lý_tưởng":8336,"n_hồi":8337,"▁vị_thế":8338,"▁nội_thất":8339,"▁500.000":8340,"ve":8341,"▁trang_trại":8342,"▁thất_nghiệp":8343,"▁dưa":8344,"▁Ad":8345,"▁tự_nguyện":8346,"▁bản_quyền":8347,"▁en":8348,"▁1995":8349,"▁ngày_trước":8350,"▁khoản_":8351,"▁tiên_":8352,"▁Cử":8353,"▁khám_nghiệm":8354,"▁fran":8355,"▁lùi":8356,"▁hình_phạt":8357,"▁TỈNH":8358,"iano":8359,"_điều_hành":8360,"▁Tòa_án":8361,"▁phân_giải":8362,"▁bán_đảo":8363,"▁phiến_quân":8364,"_hòa":8365,"eld":8366,"aza":8367,"▁song_phương":8368,"▁chiến_thuật":8369,"combank":8370,"▁cống_hiến":8371,"1%":8372,"ives":8373,"t_để":8374,"hước":8375,"▁Độc_":8376,"▁Đề_án":8377,"▁bú":8378,"▁nghỉ_h":8379,"CT":8380,"IV":8381,"letico":8382,"_trái":8383,"▁Cam":8384,"▁ròng":8385,"▁kiểm_định":8386,"▁em_bé":8387,"▁4.000":8388,"▁Har":8389,"▁bấm":8390,"▁giao_tiếp":8391,"hạng":8392,"▁lai":8393,"▁thẳng_thắn":8394,"▁phà":8395,"▁model":8396,"_bình":8397,"▁khởi_nghiệp":8398,"▁Anh_":8399,"aily":8400,"▁kinh_hoàng":8401,"▁ông_chủ":8402,"_bị":8403,"ng_nghe":8404,"26":8405,"n_bù":8406,"▁thù":8407,"▁lát":8408,"n_chứng":8409,"linh":8410,"▁rè":8411,"_thừa":8412,"▁hàng_r":8413,"▁xuất_nhập":8414,"▁phấ":8415,"_binh":8416,"▁Google":8417,"▁nhân_tạo":8418,"ấn_":8419,"▁Quốc_tế":8420,"ại_d":8421,"ein":8422,"▁phòng_thủ":8423,"▁cống":8424,"▁Đại_diện":8425,"▁Biên_":8426,"▁hài_hước":8427,"_tráng":8428,"▁cước":8429,"▁năng_động":8430,"▁sáng_l":8431,"▁đông_n":8432,"▁Sch":8433,"▁giải_ng":8434,"▁hàm_lượng":8435,"▁dừa":8436,"▁HS":8437,"▁pt":8438,"▁đội_trưởng":8439,"▁nhà_c":8440,"▁giá_thành":8441,"▁đền_bù":8442,"▁Bạch":8443,"▁90%":8444,"▁ngăn_c":8445,"▁nhân_chứng":8446,"oto":8447,"ưu_điện":8448,"n_hợp":8449,"▁nhiếp_ảnh":8450,"▁xe_hơi":8451,"ộm":8452,"▁vui_m":8453,"▁tv":8454,"▁vô_tình":8455,"▁thao":8456,"▁Cal":8457,"▁chúc":8458,"▁vây":8459,"▁dà":8460,"▁cao_điểm":8461,"▁AFP":8462,"▁vội_":8463,"▁Kinh_":8464,"▁afp":8465,"_vũ":8466,"▁xe_tăng":8467,"▁hoang":8468,"▁mẹ_chồng":8469,"▁lâm_":8470,"▁tin_c":8471,"46":8472,"▁Trao":8473,"▁Pal":8474,"▁trái_đất":8475,"▁nhiệt_tình":8476,"▁triệt_để":8477,"ID":8478,"ttp":8479,"▁đắ":8480,"t_cóc":8481,"▁Kiể":8482,"▁tê":8483,"▁hậu_":8484,"▁đồng_bằng":8485,"ện":8486,"▁Thiế":8487,"▁bản_án":8488,"▁đông_nam_":8489,"ibya":8490,"▁trầ":8491,"▁87":8492,"t_ngột":8493,"_đạc":8494,"▁kỹ_sư":8495,"▁dây_ch":8496,"_lượng":8497,"▁giàu_có":8498,"▁hệ_điều_hành":8499,"ần_d":8500,"u_lòng":8501,"▁hs":8502,"_giảm":8503,"▁tin_cậy":8504,"_trăng":8505,"▁Điện_":8506,"▁ngày_một":8507,"▁1997":8508,"eor":8509,"Nam_":8510,"▁Hình_ảnh":8511,"▁900":8512,"▁Phượng":8513,"_hãi":8514,"▁Thông":8515,"▁khánh_hòa":8516,"ịt":8517,"▁Bay":8518,"▁tỷ_phú":8519,"▁cấp_ủy":8520,"▁duyệt":8521,"ẩm_":8522,"▁đột_ngột":8523,"▁Chiế":8524,"▁nghiêng":8525,"▁Đông_Nam_":8526,"▁Thạch":8527,"▁cố_ý":8528,"▁bắt_cóc":8529,"▁điện_lực":8530,"erm":8531,"▁số_phận":8532,"▁bảo_mật":8533,"▁vội":8534,"▁kt":8535,"unce":8536,"entus":8537,"▁tứ_kết":8538,"▁cổ_vũ":8539,"▁tiêu_hóa":8540,"▁suy_giảm":8541,"▁huấn_luyện_viên":8542,"▁xách":8543,"▁rực_":8544,"n_hò":8545,"lam":8546,"ward":8547,"▁đồng_loạt":8548,"▁ạ":8549,"▁liệt":8550,"▁dãy":8551,"▁tiệ":8552,"n_động_viên":8553,"▁sợ_hãi":8554,"uột":8555,"▁Hà_":8556,"▁2.2":8557,"▁lớp_học":8558,"▁Thay":8559,"▁chân_sút":8560,"▁chắn":8561,"▁sư_phạm":8562,"EA":8563,"▁đựng":8564,"▁Thực_vật":8565,"▁lạm_dụng":8566,"rỡ":8567,"▁Ca":8568,"▁Tin":8569,"m_gái":8570,"i_măng":8571,"uventus":8572,"▁Nước":8573,"▁hc":8574,"▁bản_sao":8575,"▁trao_tặng":8576,"▁kiềm_chế":8577,"▁hoãn":8578,"▁vui_mừng":8579,"▁ed":8580,"▁ounce":8581,"▁phân_bón":8582,"▁bắt_tay":8583,"▁giải_ngân":8584,"▁hiện_diện":8585,"▁Bồ":8586,"▁NG":8587,"▁cửa_sổ":8588,"yd":8589,"▁đồng_nghĩa":8590,"oll":8591,"▁hẹn_hò":8592,"▁kháng":8593,"▁Quang_":8594,"▁vật_":8595,"▁hào_h":8596,"▁học_hỏi":8597,"▁Lần":8598,"▁HA":8599,"▁vĩnh":8600,"▁david":8601,"▁190":8602,"▁rực_rỡ":8603,"ÊN":8604,"alk":8605,"▁định_mức":8606,"▁soạn_thảo":8607,"▁sáng_lập":8608,"95":8609,"guồn":8610,"▁đề_cử":8611,"▁phản_b":8612,"▁thuê_bao":8613,"illi":8614,"n_luyện":8615,"▁chữ_ký":8616,"▁96":8617,"▁hỗn_hợp":8618,"itter":8619,"▁350":8620,"Biên":8621,"orm":8622,"▁bạn_thân":8623,"▁lắng_nghe":8624,"▁Khánh_Hòa":8625,"▁dông":8626,"Nguyên":8627,"▁Quân_đội":8628,"▁David":8629,"▁khởi_đầu":8630,"▁Mi":8631,"▁Le":8632,"▁San":8633,"Quang":8634,"▁180":8635,"▁thành_tựu":8636,"▁hung_":8637,"▁1996":8638,"▁chứng_c":8639,"▁chăn":8640,"▁1994":8641,"▁mắm":8642,"▁đại_tá":8643,"▁val":8644,"Đồng":8645,"▁1,3":8646,"n_ngh":8647,"▁col":8648,"_TH":8649,"▁Bl":8650,"▁giọt":8651,"▁nóng_b":8652,"▁vắng":8653,"▁1993":8654,"▁dọn":8655,"▁giảm_thiểu":8656,"▁tuổi_trẻ":8657,"_PH":8658,"Ninh":8659,"▁rèn_luyện":8660,"▁Điều_":8661,"▁mour":8662,"isa":8663,"i_vấn":8664,"▁thập_kỷ":8665,"▁op":8666,"▁quán_":8667,"▁mark":8668,"ube":8669,"▁mươi":8670,"_đua":8671,"enger":8672,"▁Mour":8673,"▁gian_l":8674,"▁góp_ý":8675,"▁khôi_phục":8676,"▁Fran":8677,"▁màu_trắng":8678,"▁TV":8679,"▁15%":8680,"▁Tỉnh_ủy":8681,"i_chức":8682,"_họa":8683,"▁phụ_lục":8684,"▁dân_gian":8685,"▁nhãn_hiệu":8686,"Xuân":8687,"▁khách_mời":8688,"▁Thượ":8689,"▁Hòa_Bình":8690,"▁tính_cách":8691,"ều":8692,"▁NHÂN":8693,"ors":8694,"oth":8695,"▁thấm":8696,"▁li":8697,"▁chuyển_biến":8698,"erg":8699,"▁giải_tỏa":8700,"phu":8701,"▁messi":8702,"▁Messi":8703,"▁Gia_đình":8704,"▁seo":8705,"▁lang":8706,"▁Nhìn":8707,"_Lan":8708,"ọn_l":8709,"▁trọn":8710,"▁mourinho":8711,"▁cô_dâu":8712,"▁xa_x":8713,"▁Mourinho":8714,"▁phanh":8715,"▁nhậu":8716,"▁cản_trở":8717,"▁hà_lan":8718,"▁đắk":8719,"▁xuất_xứ":8720,"qt":8721,"▁ngâm":8722,"ky":8723,"n_xao":8724,"▁lặ":8725,"QT":8726,",7%":8727,"▁hiện_thực":8728,"▁tố_tụng":8729,"▁huyết_áp":8730,"▁Ma":8731,"▁Chương":8732,"▁vận_động_viên":8733,"▁Lộc":8734,"▁lạc_quan":8735,"▁Mon":8736,"▁đoạn_đường":8737,"burg":8738,"▁à":8739,"▁hải_dương":8740,"_trải":8741,"▁hoàn_chỉnh":8742,"▁mậ":8743,"▁Lãnh_đạo":8744,"ốm":8745,"Phong":8746,"▁tiểu_đ":8747,"n_niệm":8748,"gin":8749,"iforn":8750,"▁mì":8751,"▁triệu_tập":8752,"ray":8753,"▁Hà_Lan":8754,"▁ấm_":8755,"ictor":8756,"▁gian_lận":8757,"▁đạp":8758,"▁vương_":8759,"▁MU":8760,"▁phân_cấp":8761,"▁vĩ_mô":8762,"▁Chung":8763,"ò_m":8764,"▁bhxh":8765,"▁vòng_loại":8766,"_DÂN":8767,"ean":8768,"▁í":8769,"▁paris":8770,"▁chứng_cứ":8771,"▁Yo":8772,"▁london":8773,"▁BHXH":8774,"_tang":8775,"ng_sơn":8776,"▁tôn_vinh":8777,"▁60%":8778,"▁luồng":8779,"▁82":8780,"▁quốc_tịch":8781,"i_giới":8782,"_tú":8783,"EC":8784,"m_lâm":8785,"▁hạnh":8786,"▁bình_tĩnh":8787,"▁Thường_trực":8788,"▁games":8789,"▁London":8790,"ÀNH":8791,"▁Paris":8792,"n_rộn":8793,"mình":8794,"▁đáng_yêu":8795,"rab":8796,"▁phổi":8797,"▁Khoản":8798,"_lạ":8799,"▁Hậ":8800,"▁em_gái":8801,"▁xôn_xao":8802,"i_đại":8803,"▁Đắk":8804,"▁hằ":8805,"▁trân_trọng":8806,"ifornia":8807,"7%":8808,"▁tím":8809,"▁liên_hợp_quốc":8810,"▁bất_ổn":8811,"▁canada":8812,"▁nghi_vấn":8813,"▁130":8814,"gom":8815,"▁air":8816,"▁đánh_đ":8817,"▁chuối":8818,"top":8819,"▁ax":8820,"▁bút":8821,".12":8822,"▁nhà_cửa":8823,"▁Canada":8824,"▁triển_vọng":8825,"▁dạ_dày":8826,"▁thí_nghiệm":8827,"▁Thượng":8828,"▁tổ_hợp":8829,"▁thập_niên":8830,"▁tâm_thần":8831,"▁Du":8832,"▁Đô":8833,"▁đống":8834,"▁Tờ":8835,"▁Cầu_":8836,".600":8837,"▁chanh":8838,"▁nồi":8839,"▁cua":8840,"▁showbiz":8841,"▁hết_m":8842,"_bắc":8843,"▁Bằng":8844,"▁lật":8845,"▁từ_chức":8846,"▁Thái_B":8847,"▁Phần":8848,"m_bắt":8849,",6%":8850,"▁ẩm_thực":8851,"▁tư_thế":8852,"▁trình_tự":8853,"ình_dương":8854,"▁nguồn_c":8855,"▁Thành_ủy":8856,"▁ns":8857,"▁Nghiên_cứu":8858,"▁gối":8859,"yn":8860,"ics":8861,"phụ":8862,"▁đàm":8863,"▁bơ":8864,"▁thị_phần":8865,"_đào":8866,"sâu":8867,"▁cườ":8868,"▁hở":8869,"▁HD":8870,"▁NHÂN_DÂN":8871,",3%":8872,"▁Tỷ":8873,"▁VF":8874,"▁Phương_":8875,"▁cán":8876,"n_nhạc":8877,"▁galaxy":8878,"▁dũ":8879,"▁kỳ_hạn":8880,"▁rò":8881,"▁min":8882,"▁kề":8883,"▁tam":8884,"u_ch":8885,"▁điều_hòa":8886,"▁tình_c":8887,"▁đăng_quang":8888,"▁Hãng":8889,"▁1.8":8890,"▁tre":8891,"▁hd":8892,"▁kiều":8893,"▁XÃ":8894,"▁tư_lệnh":8895,"▁yến":8896,"▁tiến_trình":8897,"▁Sinh":8898,"▁Thể_thao":8899,"▁Sc":8900,"▁thống":8901,"▁móng":8902,"nh_v":8903,"▁biển_số":8904,"▁khăn":8905,"▁quỷ":8906,"▁thân_thiết":8907,"_đoạn":8908,"▁nhà_hát":8909,"_vững":8910,"▁sai_s":8911,"▁sân_chơi":8912,"▁kẹo":8913,"▁ngày_mai":8914,"▁Học_":8915,"_liệt":8916,"nh_đồng":8917,"▁hàm":8918,"▁môi_giới":8919,"▁đồ_chơi":8920,"íu":8921,"▁Nơi":8922,"▁Thăng_":8923,"▁thái_bình_dương":8924,"▁nguồn_thu":8925,"ng_nổ":8926,",8%":8927,"bóng":8928,"▁phá_hủy":8929,"▁Loại":8930,"▁tang_vật":8931,"▁tiếng_nói":8932,"▁quan_niệm":8933,"ational":8934,"_thượng":8935,"▁ngưng":8936,"▁Galaxy":8937,"▁bấy":8938,"iev":8939,".800":8940,"▁dự_bị":8941,"▁er":8942,"▁giếng":8943,"▁xông":8944,"▁giải_trình":8945,"n_máy":8946,"▁GS":8947,"▁Khoa":8948,"▁vật_tư":8949,"▁áo_dài":8950,"▁Mức":8951,"▁Đạo":8952,"_phủ":8953,"▁lh":8954,"▁bùn":8955,"▁ghen":8956,"▁Video":8957,"▁Phải":8958,"u_kém":8959,"▁Thế_giới":8960,"ng_niên":8961,"▁Chẳng":8962,"▁Tiền_":8963,"▁bận_rộn":8964,"▁phương_tây":8965,"▁sam":8966,"4%":8967,"_gia":8968,"andal":8969,"▁yếu_kém":8970,"▁bỏn":8971,"▁vũng_tàu":8972,"_sợ":8973,"▁bỏng":8974,"▁Giả":8975,"▁đùa":8976,"▁ram":8977,"▁93":8978,"▁Cu":8979,"i_r":8980,"▁nhung":8981,"▁TM":8982,"▁89":8983,"▁lành":8984,"66":8985,"▁ngũ":8986,"▁Thái_Bình_":8987,"▁giữ_vững":8988,"_sơn":8989,"ixel":8990,"▁sal":8991,"▁Thái_Bình_Dương":8992,",2%":8993,"▁Cuộ":8994,"▁nn":8995,"▁ẩn":8996,"▁trông_":8997,"_xưa":8998,"▁Hàn":8999,"▁yên_b":9000,"▁Mo":9001,".400":9002,"mer":9003,"▁nhắn_tin":9004,"▁Cần":9005,"▁viện_trợ":9006,"YT":9007,"▁báo_động":9008,"▁Euro":9009,"ure":9010,"▁tm":9011,"▁ngộ_độc":9012,"▁du_học":9013,"xá":9014,"n_đốc":9015,"▁đông_nam_á":9016,"ida":9017,"▁voi":9018,"▁quảng_bình":9019,"▁xi_măng":9020,"▁LH":9021,"▁bình_ổn":9022,"▁Sản_":9023,"▁mía":9024,"▁CTC":9025,"▁At":9026,"ote":9027,"ại_dâm":9028,"▁bãi_biển":9029,"▁Val":9030,"are":9031,"vong":9032,"▁bản_lĩnh":9033,"▁tấm_g":9034,"▁thường_niên":9035,"làng":9036,"▁ngư":9037,"▁gs":9038,"▁VÀ":9039,"_chấp":9040,"ille":9041,"▁diệt":9042,"me":9043,",4%":9044,"▁Đông_Nam_Á":9045,"▁Hải_quân":9046,"_thấp":9047,"▁71":9048,"uộng":9049,"▁gb":9050,"▁NN":9051,"▁sút":9052,"▁chiến_trường":9053,"_K":9054,"▁nghị_sĩ":9055,"ima":9056,"u_mến":9057,"▁dưỡng":9058,"▁mái_tóc":9059,"▁mại_dâm":9060,"gành":9061,"ng_người":9062,"_nhỏ":9063,"▁Nguyên_nhân":9064,"65":9065,"▁xâm_nhập":9066,"ngành":9067,"▁May":9068,"▁ml":9069,"_cảnh":9070,"▁im_lặng":9071,"▁chân_thành":9072,"▁milan":9073,"▁Tình":9074,"▁bác_bỏ":9075,"▁Quá":9076,"▁VIỆT":9077,"▁3,5":9078,"▁mac":9079,"▁bài_thi":9080,"hậu":9081,"▁ngoại_hình":9082,"▁trữ":9083,"▁ghé":9084,"▁đoàn_viên":9085,"▁Thực_tế":9086,"▁Lệ":9087,"▁Vn":9088,"▁me":9089,"lywood":9090,"▁Ánh":9091,"▁lee":9092,"ila":9093,"▁mụn":9094,"Hưng":9095,"▁thời_đại":9096,"▁nhnn":9097,"▁Milan":9098,"▁màu_đen":9099,"_chiếu":9100,"▁NHNN":9101,"▁tỉ_số":9102,"▁hữu_h":9103,"osh":9104,"▁set":9105,"ng_an":9106,"▁nghỉ_dưỡng":9107,"▁lữ":9108,"▁nghiêm_":9109,"▁nắm_bắt":9110,"TP":9111,"▁khung_thành":9112,"ng_Tàu":9113,"▁Nhờ":9114,"itt":9115,"▁nhà_nghỉ":9116,"▁Vũng_Tàu":9117,"▁Quảng_Bình":9118,"▁vang":9119,"▁Pro":9120,"▁Giới":9121,"▁Chỉ_đạo":9122,"▁gó":9123,"▁Kiều":9124,"▁nuôi_dưỡng":9125,"▁Gh":9126,"▁Lee":9127,"▁Trao_đổi":9128,"▁thú_y":9129,"▁Thương_":9130,"▁thế_mạnh":9131,"▁1991":9132,"_tắm":9133,"▁tham_vọng":9134,"▁lặp":9135,"▁kép":9136,"ng_chiến":9137,"▁thủn":9138,"▁rạch":9139,"▁olympic":9140,"elle":9141,"▁thủng":9142,"▁tay_s":9143,"▁dây_chuyền":9144,"▁rối":9145,"▁dã":9146,"▁mỹ_phẩm":9147,"a_b":9148,"_NAM":9149,"▁phê_bình":9150,"▁phúc_thẩm":9151,"▁thương_vụ":9152,"▁thu_gom":9153,"n_dạng":9154,"_léo":9155,"▁lối_":9156,"▁Trí":9157,"▁tự_tử":9158,"▁qh":9159,"▁Thuận":9160,"eder":9161,"_cung":9162,"▁bình_định":9163,"▁sởi":9164,"▁ttg":9165,"▁cắn":9166,"▁Lâm_":9167,"ọc_":9168,"ưởng_":9169,"▁bận":9170,"▁VO":9171,"▁Cổ_phần":9172,"▁TB":9173,"▁Olympic":9174,"▁Doanh_nghiệp":9175,"any":9176,"ates":9177,"▁MC":9178,"▁ám_ảnh":9179,"▁QUYẾT":9180,"▁mực_":9181,"▁ri":9182,"▁khéo_léo":9183,"▁neo":9184,"m_lo":9185,"ệch":9186,"n_gửi":9187,"ưởng_ứng":9188,"m_cháy":9189,"ng_đợi":9190,"ỤC":9191,"▁phụ_kiện":9192,"▁Mặ":9193,"▁Tự_do":9194,"▁Điện":9195,"▁để_ý":9196,"▁hoài_":9197,"▁tri":9198,"▁liên_đoàn":9199,"▁alex":9200,"▁Quảng_Tr":9201,"▁sea":9202,".300":9203,"▁nảy_sinh":9204,"▁bảo_lãnh":9205,"▁1000":9206,"▁Hạnh":9207,"▁hằng_ngày":9208,"i_báo":9209,"ng_song":9210,"▁khai_trương":9211,"▁danh_tiếng":9212,"▁màu_đỏ":9213,"▁nóng_bỏng":9214,"_súc":9215,"▁QH":9216,"▁chôn":9217,"u_kỳ":9218,"▁trang_s":9219,"▁ngón_tay":9220,"▁chọn_l":9221,"▁2030":9222,"n_lửa":9223,"▁index":9224,"▁địch":9225,"▁Giờ":9226,"▁Mục":9227,"xx":9228,"▁sen":9229,"▁điều_động":9230,"nh_đất":9231,"▁tấm_gương":9232,"▁1975":9233,"ridge":9234,"▁gia_súc":9235,"▁Truyền_thông":9236,"_lạc":9237,"_thoảng":9238,"_dâm":9239,"▁vp":9240,"▁phát_thanh":9241,"▁thân_hình":9242,"t_đi":9243,"▁Sang":9244,"_hôi":9245,"▁000":9246,"▁Quân":9247,"cơ":9248,"ũy":9249,"đồng":9250,"▁xuất_nhập_khẩu":9251,"ẻm":9252,"▁Dưới":9253,"85":9254,"ng_B":9255,"▁bề_mặt":9256,"eae":9257,"▁Hải_Dương":9258,"▁hạ_cánh":9259,"▁rú":9260,"▁tự_chủ":9261,"▁1.7":9262,"27":9263,"▁tưới":9264,"▁On":9265,"▁xâm_phạm":9266,"▁thọ":9267,"▁gay_g":9268,"▁chăm_lo":9269,"▁ôn":9270,"▁cánh_đồng":9271,"▁công_chứng":9272,"▁vú":9273,"▁xuân_":9274,"▁liên_ngành":9275,"aco":9276,"▁ip":9277,"▁họa_sĩ":9278,"Phú":9279,"▁tất":9280,"_vua":9281,"▁Nhi":9282,"▁cành":9283,"▁VP":9284,"▁125":9285,"▁vov":9286,"▁HC":9287,"▁cổ_tức":9288,"▁nhà_thờ":9289,"aka":9290,"_HỘI":9291,"▁hiệu_ứng":9292,"▁tưởng_tượng":9293,"_đáng":9294,"▁thuần":9295,"▁nghỉ_hưu":9296,"▁tập_hợp":9297,"▁cú_sút":9298,"▁Trả":9299,"▁đôn_đốc":9300,"▁mong_đợi":9301,"▁cà_m":9302,"m_nhận":9303,"8%":9304,"▁lưỡi":9305,"▁Hạnh_phúc":9306,"▁sĩ_quan":9307,"▁300.000":9308,"lịch":9309,"▁hội_viên":9310,"liền":9311,"▁dâm":9312,"▁cò":9313,"▁máy_ảnh":9314,"▁ngã_tư":9315,"▁cà_mau":9316,"aria":9317,"lt":9318,"▁hội_chợ":9319,"▁Vi":9320,"▁Ai":9321,"▁Bến_":9322,"29":9323,"_lụt":9324,"▁kháng_chiến":9325,"▁donald":9326,"▁chứng_từ":9327,"▁Thuế":9328,"uông":9329,"▁nguồn_cung":9330,"▁rồng":9331,"▁Tam_":9332,"▁GB":9333,"▁đan":9334,"▁biệt_":9335,"▁Donald":9336,"_lạnh":9337,"33":9338,"▁mạo":9339,"▁trì":9340,"▁tiền_gửi":9341,"eland":9342,"▁lượt_đi":9343,"▁đất_liền":9344,"▁bích":9345,"▁lồ":9346,"▁thế_chấp":9347,"▁phơi":9348,"▁Đă":9349,"đạo":9350,"6%":9351,"▁re":9352,"▁Lam":9353,"▁vịt":9354,"ji":9355,"▁Alex":9356,"▁thượng_đỉnh":9357,"▁ngọn_lửa":9358,"▁trợ_lý":9359,"ân_cận":9360,"_cai":9361,"▁lân_cận":9362,"imir":9363,"▁mảnh_đất":9364,"▁Thấy":9365,"▁kích_c":9366,"▁tb":9367,"iveshow":9368,"▁Ngoại_trưởng":9369,"▁hoành":9370,"Bank":9371,"▁lục_đ":9372,"_tiệc":9373,"▁mồ_hôi":9374,"▁tay_súng":9375,"▁độc_quyền":9376,"ng_mộ":9377,"▁lặn":9378,"▁thịnh":9379,"▁hệ_số":9380,"che":9381,"▁tiếp_thu":9382,"▁tranh_luận":9383,"▁lâu_nay":9384,"▁ghi_ch":9385,"▁dồ":9386,"▁Kiểm_tra":9387,"ng_nghề":9388,"_tùng":9389,"▁ben":9390,"▁thủ_thành":9391,"ươm":9392,"ÒA":9393,"CK":9394,"▁hôn":9395,"u_đựng":9396,"ệt_may":9397,"▁Khu_vực":9398,"▁độc_hại":9399,"▁nổi_dậy":9400,"bon":9401,"▁NT":9402,"_BAN":9403,"▁mã_lực":9404,"▁Top":9405,"▁Đáng":9406,"▁Đơn_vị":9407,"▁Vàng":9408,"▁lăn":9409,"▁nho":9410,"▁ỦY":9411,"▁chịu_đựng":9412,"▁đòn":9413,"▁phản_hồi":9414,"▁Hol":9415,"▁gương":9416,"a_mãn":9417,"▁trình_báo":9418,"▁vạch":9419,"▁vật_thể":9420,"▁vượ":9421,"▁ứng":9422,"▁nghĩa_trang":9423,"▁lào_cai":9424,"▁quỳ":9425,"▁qua_lại":9426,"▁sinh_vật":9427,"▁công_đ":9428,"nh_mắt":9429,"▁dầu_m":9430,"▁Hành_":9431,"▁Bình_Định":9432,"_Mau":9433,"▁Cà_Mau":9434,"▁ngữ":9435,"▁vứt":9436,"▁mart":9437,"▁gay_gắt":9438,"▁thỏa_mãn":9439,"▁bệnh_tật":9440,"▁hoang_m":9441,"nợ":9442,"▁chuyên_đề":9443,"▁tị":9444,"▁tắc":9445,"giống":9446,"▁thăng_long":9447,"rin":9448,"▁chủ_ch":9449,"▁Không_":9450,"▁ag":9451,"▁siêu_mẫu":9452,"▁VIỆT_NAM":9453,"▁tâm_trạng":9454,"▁yên_":9455,"▁tiện_ích":9456,"▁lấn":9457,"edes":9458,"a_Tr":9459,"▁hưởng_ứng":9460,"ladimir":9461,"▁Thượng_":9462,"▁đám_cháy":9463,"▁tuyên_phạt":9464,"▁hãng_tin":9465,"▁tối_ưu":9466,"m_quyền":9467,"▁liên_hoan":9468,"▁thủ_công":9469,"47":9470,"▁ỦY_BAN":9471,"▁XÃ_HỘI":9472,"ặm":9473,"▁tia":9474,"▁blu":9475,"kim":9476,"CP":9477,"▁Dự_kiến":9478,"▁Thăng_Long":9479,"▁đứt":9480,"estine":9481,"▁liên_doanh":9482,"▁đếm":9483,"▁TTg":9484,"n_phá":9485,"▁Sử":9486,"▁điều_khoản":9487,"▁khiêm":9488,"▁Nội_dung":9489,"liệt":9490,"atar":9491,"▁đụ":9492,"t_biến":9493,"▁HĐQT":9494,"▁hiến_pháp":9495,"▁hđqt":9496,"▁hết_mình":9497,"▁mùng":9498,"▁Mà":9499,"▁huyệ":9500,"▁Index":9501,"▁đổ_bộ":9502,"▁Triệu":9503,"▁cồn":9504,"28":9505,"▁tiếng_v":9506,"ỉnh_thoảng":9507,"▁người_tình":9508,"▁mặt_đường":9509,"n_ngừa":9510,"2%":9511,"▁Tiểu":9512,"▁cốc":9513,"▁Trưởng":9514,"▁gia_lai":9515,"▁thiếu_nhi":9516,"i_ý":9517,"ruột":9518,"▁đột_biến":9519,"▁Triể":9520,"_thở":9521,"osa":9522,"lợi":9523,"▁PG":9524,"▁miền_Trung":9525,"▁gói_thầu":9526,"▁tàu_chiến":9527,"▁thuyề":9528,"▁kiế":9529,"▁hôi":9530,"▁cã":9531,"▁kẹt":9532,"_đất":9533,"enko":9534,"we":9535,"▁del":9536,"_tàng":9537,"▁yêu_mến":9538,"▁làng_nghề":9539,"ng_cầu":9540,"▁phẩ":9541,"▁lọ":9542,"▁bùng_nổ":9543,"▁sl":9544,"_Cai":9545,"uela":9546,"▁sai_sót":9547,"ger":9548,"▁mưa_r":9549,"▁Độc_lập":9550,"▁ngọn":9551,"▁tây_bắc":9552,"i_niệm":9553,"▁tiểu_thuyết":9554,"▁Quy_chế":9555,"▁lên_án":9556,"▁gác":9557,"n_phạt":9558,"▁phương_Tây":9559,"▁đồ_ăn":9560,"ếch":9561,"▁kĩ":9562,"uss":9563,"i_khuyên":9564,"cp":9565,"▁Lào_Cai":9566,"▁ne":9567,"▁chủ_nhật":9568,"▁tội_danh":9569,"_tết":9570,"▁lă":9571,"▁lậ":9572,"▁trung_cấp":9573,"▁argentina":9574,"_túng":9575,"kok":9576,"▁xúc_":9577,"▁đảm_nhận":9578,"▁GDP":9579,"rah":9580,"▁vắng_mặt":9581,"▁sil":9582,"▁thái_bình":9583,"▁ích":9584,"▁quảng_trị":9585,"n_đêm":9586,"▁Khách":9587,"▁úc":9588,"▁gdp":9589,"▁1980":9590,"ealand":9591,"erk":9592,"▁Argentina":9593,"▁tao":9594,"▁giúp_việc":9595,"▁thể_lực":9596,"▁cưỡng_chế":9597,"▁đại_chúng":9598,"ng_hoa":9599,"67":9600,"▁Gia_Lai":9601,"▁Quận":9602,"3%":9603,"▁barcelona":9604,"ng_đoàn":9605,"▁hiển_thị":9606,"▁Chuyện":9607,"▁Thi":9608,"▁chủ_chốt":9609,"▁Barcelona":9610,"▁phục":9611,"▁rác_thải":9612,"▁Dịch":9613,"▁nhân_tố":9614,"▁hoang_mang":9615,"▁Mc":9616,"▁tầng_l":9617,"▁mas":9618,"▁bao_b":9619,"▁xó":9620,"t_nh":9621,"▁Vợ":9622,"_Sơn":9623,"▁lưu_giữ":9624,"▁ốc":9625,"▁đối_xử":9626,"▁phán_":9627,"▁thẩm_tra":9628,"▁ngăn_ngừa":9629,"n_vay":9630,".700":9631,"▁Lịch":9632,"▁mưa_rào":9633,"n_vũ":9634,"▁Xin":9635,"▁girl":9636,"_yên":9637,"▁HT":9638,"ng_đắn":9639,"▁Van":9640,"Hoàng":9641,"▁mực_nước":9642,"▁cứu_trợ":9643,"▁QUYẾT_ĐỊNH":9644,"_HÒA":9645,"▁ánh_mắt":9646,"_ráp":9647,"▁sơ_sinh":9648,"▁bản_chất":9649,"▁thoái_":9650,"▁lồng":9651,"▁sho":9652,"_trộm":9653,"_lĩnh":9654,"▁phiên_":9655,"68":9656,"_tắt":9657,"ita":9658,"_thứ":9659,"ment":9660,"▁IV":9661,"▁81":9662,"▁Úc":9663,"▁tiền_bạc":9664,"xã":9665,"▁giới_chức":9666,"▁En":9667,"íp":9668,"▁hag":9669,"▁triều_":9670,"▁mặt_nước":9671,"▁bỉ":9672,"▁Phi":9673,"▁thoáng":9674,"_hấp":9675,"ng_giềng":9676,"_táng":9677,"▁bảo_hộ":9678,"▁tử_hình":9679,"▁anh_trai":9680,"▁chui":9681,"▁<":9682,"▁táo_b":9683,"▁danh_tính":9684,"▁lên_đường":9685,"▁ngăn_cản":9686,"▁Af":9687,"▁Kể":9688,"ezuela":9689,"▁đảng_bộ":9690,"m_biến":9691,"▁trường_sa":9692,"▁Hồi":9693,"▁Tàu":9694,"▁đồng_tính":9695,"▁phụ_cấp":9696,"_chính_trị":9697,"▁chính_đ":9698,"m_điểm":9699,"▁điều_tiết":9700,"use":9701,"▁láng_giềng":9702,"▁vượt_trội":9703,"▁nhẫn":9704,"▁160":9705,"▁tư_liệu":9706,"▁hol":9707,"▁hài_hòa":9708,"phú":9709,"í_nghiệp":9710,"▁rock":9711,"▁bí_quyết":9712,"▁nô":9713,"▁mật_độ":9714,"▁15.000":9715,"unich":9716,"▁Quảng_Trị":9717,"▁xích":9718,"▁De":9719,"▁Sông":9720,"nói":9721,"acom":9722,"▁mắc_":9723,"▁2.0":9724,"ng_chất":9725,"_thoái":9726,"▁VOV":9727,"▁nhân_đạo":9728,"▁tồi_tệ":9729,"▁nghiệm":9730,"▁Mart":9731,"▁Trường_Sa":9732,"▁nhà_x":9733,"▁gợi_ý":9734,"▁mg":9735,"_Q":9736,"_bắt":9737,"▁giọng_ca":9738,"▁bưu_điện":9739,"▁hào_hứng":9740,"▁ấm_áp":9741,"ắc_rối":9742,"▁gò":9743,"▁Toà":9744,"▁up":9745,"▁vinh_dự":9746,"▁As":9747,"▁cánh_":9748,"▁Đêm":9749,"▁hoa_h":9750,"▁25%":9751,"▁android":9752,"ade":9753,"▁Tối":9754,"oli":9755,"u_dáng":9756,"▁Thiếu":9757,"▁gầm":9758,"n_chọn":9759,"▁cố_vấn":9760,"▁vff":9761,"m_hỏi":9762,"▁miền_Nam":9763,"▁per":9764,"▁xuố":9765,"▁windows":9766,"▁vđ":9767,"ial":9768,"▁golf":9769,"▁chào_đón":9770,"men":9771,"▁cậ":9772,"▁CỘNG":9773,"▁thiện":9774,"▁chiê":9775,"▁di_c":9776,"▁hô_hấp":9777,"▁Cục_trưởng":9778,"▁VĐ":9779,"▁lốp":9780,"▁Ví":9781,"▁thể_chế":9782,"▁Thật":9783,"▁vướng":9784,"▁italy":9785,"▁VFF":9786,"▁SH":9787,"▁ic":9788,"FA":9789,"▁trong_sáng":9790,"my":9791,"▁phá_vỡ":9792,"▁nguyên_":9793,"▁sú":9794,"▁nhường":9795,"▁hé":9796,"▁lý_thuyết":9797,"▁1982":9798,"▁http":9799,"▁thuận_tiện":9800,"ĨA":9801,"▁lap":9802,"▁kiểm_điểm":9803,"▁thần_tượng":9804,"▁Italy":9805,"▁liveshow":9806,"ương_đ":9807,"▁Â":9808,"▁lục_địa":9809,"eter":9810,"▁Android":9811,"i_can":9812,"▁thắp":9813,"▁ổn":9814,"u_đáo":9815,"rimea":9816,"▁tem":9817,"▁kim_c":9818,"▁gian":9819,"▁chữa_trị":9820,"▁rõ_rệt":9821,"▁vo":9822,"_mai":9823,"▁thường_trú":9824,"▁diễn_tập":9825,"▁Bang":9826,"▁Thái_Bình":9827,"▁văn_nghệ":9828,"ng_sông":9829,"xạ":9830,"▁chủ_quan":9831,"▁gia_vị":9832,"▁đoán":9833,"▁siêu_xe":9834,"ng_phát":9835,"▁Đi":9836,"_nã":9837,"Việt":9838,"▁ưa":9839,"ivers":9840,"▁khí_tượng":9841,"_giật":9842,"▁rắc_rối":9843,"▁đánh_bạc":9844,"▁điệp":9845,"▁Bố":9846,"ằng_s":9847,"▁địa_phận":9848,"_cột":9849,"▁em_trai":9850,"mi":9851,"▁kỳ_lạ":9852,"▁đệm":9853,"n_sự":9854,"▁cảm_biến":9855,"ED":9856,"▁Đạt":9857,"▁bộ_chính_trị":9858,"▁phần_thi":9859,"▁dệt_may":9860,"▁phòng_ngủ":9861,"▁Phía":9862,"▁đắc_":9863,"_treo":9864,"▁đắp":9865,"▁Tỉnh":9866,"▁Nhất":9867,"▁Tô":9868,"▁sạc":9869,"▁bùng_phát":9870,"_tấn":9871,"▁vật_dụng":9872,"▁phá_sản":9873,"khoa":9874,"▁tâm_hồn":9875,"▁Học_viện":9876,"▁hòa_giải":9877,"▁97":9878,"▁công_thức":9879,"▁sụp":9880,"▁vật_lý":9881,"_lỗ":9882,"55":9883,"_thuế":9884,"ưu_chính":9885,"▁CỘNG_HÒA":9886,"▁ngân":9887,"▁tầng_lớp":9888,"▁tờ_trình":9889,"▁chố":9890,"ằng_sau":9891,"▁trụ_cột":9892,"▁lâm_nghiệp":9893,"▁MV":9894,"i_vọng":9895,"▁nhà_b":9896,"▁út":9897,"▁Games":9898,"▁buông":9899,"▁hàng_rào":9900,"Phước":9901,"m_đông":9902,"▁Thường_vụ":9903,"▁Đối_tượng":9904,"▁Ta":9905,"khác":9906,"▁ốm":9907,"nh_đai":9908,"▁cao_tuổi":9909,"▁bách":9910,"_nghi":9911,"▁trù":9912,"▁vành_đai":9913,"▁nhặt":9914,"▁xấu_":9915,"▁chuyên_trách":9916,"▁miền_Bắc":9917,"▁scandal":9918,"ận_":9919,"▁truy_nã":9920,"giảng":9921,"9%":9922,"▁tả":9923,"▁cảnh_quan":9924,"▁hảo":9925,"u_khổ":9926,"▁ca_":9927,"▁Windows":9928,"▁khái_niệm":9929,"_tặc":9930,"▁lối_sống":9931,"▁united":9932,"▁vtc":9933,"▁huệ":9934,"_NGHĨA":9935,"▁kiểu_dáng":9936,"▁khuyến_mãi":9937,"▁mặt_khác":9938,"ầm_":9939,"▁trăn":9940,"▁lời_khuyên":9941,"▁pol":9942,"▁Mã":9943,"▁công_chúa":9944,"▁khang":9945,"▁danh_dự":9946,"▁quà_tặng":9947,"no":9948,"▁să":9949,"▁cáo_trạng":9950,"▁dung_lượng":9951,"▁tỏi":9952,"n_nhiên":9953,",9%":9954,"▁thủ_đoạn":9955,"▁chứng_thực":9956,"ng_bảng":9957,"▁khoai":9958,"▁Kỹ":9959,"▁United":9960,"_giãn":9961,"▁Sư":9962,"▁cấp_b":9963,"ng_sự":9964,"▁tây_nguyên":9965,"▁lơ":9966,"▁xuống_cấp":9967,"▁ngưỡ":9968,"▁bài_toán":9969,"▁Rồi":9970,"▁bayern":9971,"▁giao_hữu":9972,"▁cực_đoan":9973,"▁honda":9974,"▁ống_kính":9975,"▁ht":9976,"▁quần_ch":9977,"▁nhát":9978,"cấm":9979,"atch":9980,"▁Bayern":9981,"▁mìn":9982,"▁1988":9983,"98":9984,"ỊCH":9985,"▁6.000":9986,"▁màu_vàng":9987,"▁hợp_nhất":9988,"▁đình_đ":9989,"▁an_sinh":9990,"▁ẩ":9991,"▁đau_khổ":9992,"▁Bích":9993,"▁sữ":9994,"m_mạch":9995,"▁nd":9996,"_ức":9997,"▁mv":9998,"▁Ed":9999,"48":10000,"long":10001,"▁rao":10002,"_cưới":10003,"▁sở_thích":10004,"▁góc_":10005,"▁cas":10006,"▁khai_báo":10007,"▁Mình":10008,"i_C":10009,"▁rùa":10010,"▁điểm_thi":10011,"▁106":10012,"▁binh":10013,"▁mùa_xuân":10014,"kế":10015,"▁công_sức":10016,"OS":10017,"▁địa_lý":10018,"▁CHỦ_NGHĨA":10019,"▁Phim":10020,"eta":10021,"▁Ben":10022,"▁Nhà_máy":10023,"▁jong":10024,"▁wh":10025,"cứng":10026,"▁tính_từ":10027,"▁1,0":10028,"otte":10029,"i_đời":10030,"ức_giận":10031,"▁khiêu_":10032,"▁mối_tình":10033,"▁trưng":10034,"▁đúng_đắn":10035,"▁trọn_vẹn":10036,"ymar":10037,"▁Thịnh":10038,"▁sà":10039,"iềm":10040,"43":10041,"ercedes":10042,"i_nói":10043,"▁vòng_bảng":10044,"▁căn_phòng":10045,"▁thiêu":10046,"▁thuyền_viên":10047,"▁giật_":10048,"▁báo_giới":10049,"▁1989":10050,"▁sông_":10051,"▁Quy_hoạch":10052,"▁Lạ":10053,"▁hối_lộ":10054,"La":10055,"i_mẻ":10056,"▁phê_chuẩn":10057,"u_nhân":10058,"i_nguyên":10059,"▁VTC":10060,"▁lo_sợ":10061,"▁chửi":10062,"▁Chia":10063,"▁mới_mẻ":10064,"▁Giáp":10065,"_Chính":10066,"▁nam_định":10067,"▁mề":10068,"▁thư_giãn":10069,"m_lòng":10070,"i_đặt":10071,"▁sơ_tán":10072,"ũa":10073,"▁quần_chúng":10074,"▁hứng":10075,"ng_sâu":10076,"▁bắt_n":10077,"▁nhà_thơ":10078,"▁hẻm":10079,"ons":10080,"▁thân_m":10081,"▁Huệ":10082,"_lưỡng":10083,"▁buồng":10084,"▁bài_báo":10085,"▁eo":10086,"eck":10087,"▁đường_thủy":10088,"_sách":10089,"▁cấy":10090,"▁myanmar":10091,"ival":10092,"▁mặn":10093,"▁Myanmar":10094,"amil":10095,"ấc":10096,"▁Thủ_trưởng":10097,"ậc":10098,"▁hàng_thủ":10099,"▁PTNT":10100,"▁ptnt":10101,"▁hương_vị":10102,"▁ninh_bình":10103,"▁gian_hàng":10104,"▁hoa_hồng":10105,"▁gắn_kết":10106,"_sức":10107,"▁Tiể":10108,"▁ant":10109,"▁hoang_d":10110,"Tân":10111,"way":10112,"py":10113,"▁đột_xuất":10114,"su":10115,"▁teen":10116,"▁trào":10117,"▁QU":10118,"▁loan":10119,"▁1.200":10120,"▁meg":10121,"▁kim_cương":10122,"▁tịch":10123,"▁Ko":10124,"▁nlđ":10125,"▁NLĐ":10126,"▁âm_mưu":10127,"▁suy_thoái":10128,"▁tín":10129,"▁Nhận":10130,"▁thông_tấn":10131,"▁động_tác":10132,"▁xinh":10133,"a_hình":10134,"▁Điệ":10135,"m_ẩn":10136,"▁mạnh_":10137,"DI":10138,"▁cổ_điển":10139,"li":10140,"▁tuyển_chọn":10141,"ò_mò":10142,"▁thiết_yếu":10143,"▁kiên_c":10144,"▁đám_đông":10145,"▁go":10146,"▁câu_nói":10147,"ng_mạnh":10148,"▁dương_":10149,"▁hiề":10150,"▁chiều_tối":10151,"ệnh_cấm":10152,"▁cọc":10153,"▁lâm_s":10154,"▁cú_đ":10155,"_lũy":10156,"▁thương_vong":10157,"▁Nam_Định":10158,"▁ăn_mặc":10159,"i_nổi":10160,"n_ngợi":10161,"▁nghi_can":10162,"▁quy_tắc":10163,",1%":10164,"▁liên_hiệp":10165,"▁bại":10166,"óc_dáng":10167,"▁bắp":10168,"77":10169,"▁côn":10170,"▁khoang":10171,"AS":10172,"▁bộ_luật":10173,"▁lắp_ráp":10174,"▁Honda":10175,"▁ngỡ":10176,"▁hiếp":10177,"▁tử_cung":10178,"▁Lợi":10179,"▁đình_đám":10180,"ng_khen":10181,"▁vh":10182,"▁viêm_":10183,"▁kiểm_lâm":10184,"▁tiềm_ẩn":10185,"▁Sam":10186,"▁thăm_hỏi":10187,"▁40.000":10188,"cu":10189,"▁khen_ngợi":10190,"▁Thêm":10191,"▁lưu_hành":10192,"cb":10193,"▁hoành_tráng":10194,"ensis":10195,"cốt":10196,"a_hát":10197,"▁Vận":10198,"▁đôla":10199,"▁đương_nhiên":10200,"36":10201,"▁phán_quyết":10202,"▁quãng":10203,"▁cr":10204,"▁khoản_nợ":10205,"ATO":10206,"▁thạc_sĩ":10207,"_Chính_trị":10208,"▁khúc":10209,"_trà":10210,"ng_cảnh":10211,"_Đức":10212,"ấu_hình":10213,"▁140":10214,"▁gánh_nặng":10215,"eda":10216,"c_ninh":10217,"▁VH":10218,"▁oan":10219,"▁thủ_lĩnh":10220,"▁Bộ_Chính_trị":10221,"▁chào_m":10222,"▁Trưởng_phòng":10223,"▁HAG":10224,"▁BS":10225,"i_cập":10226,"▁Ninh_Bình":10227,"38":10228,"▁giãn":10229,"▁Chợ":10230,"▁bình_yên":10231,"▁hi_vọng":10232,"▁lỡ":10233,"▁vàng_m":10234,"▁y_học":10235,"_tránh":10236,"▁Tăng":10237,"_rỉ":10238,"▁tích_lũy":10239,"▁Hầu":10240,"▁bài_tập":10241,"▁quầy":10242,"ski":10243,"▁THCS":10244,"▁thcs":10245,"▁tò_mò":10246,"▁xăm":10247,"▁bãi_bỏ":10248,"ần_dần":10249,"▁an_giang":10250,"▁Tây_Nguyên":10251,"▁lời_nói":10252,"▁tuổ":10253,"▁dạy_học":10254,"▁nato":10255,"▁dép":10256,"▁chăm":10257,"KT":10258,"▁ngã_ba":10259,"t_gặp":10260,"▁tuyển_thủ":10261,"▁Bồ_Đ":10262,"▁thư_viện":10263,"▁ưu_thế":10264,"▁hiv":10265,"DA":10266,"ủa":10267,"▁long_an":10268,"▁cài_đặt":10269,"▁nghịch":10270,"44":10271,"kia":10272,"▁còi":10273,"▁Jong":10274,"▁thuật":10275,"▁tức_giận":10276,"ng_Đ":10277,"▁HIV":10278,"_thầm":10279,"▁Đàm":10280,"▁trung_thành":10281,"▁ai_cập":10282,"▁đặc_sắc":10283,"c_lợi":10284,"▁Kiên":10285,"▁Liên_đoàn":10286,"▁đại_sứ_quán":10287,"50.000":10288,"▁xếp_hàng":10289,"▁vòng_c":10290,"▁trang_sức":10291,"▁vs":10292,"▁hòn_đảo":10293,"▁điên":10294,"fford":10295,"▁Câu_":10296,"▁axit":10297,"ục_":10298,"▁Chủ_nhiệm":10299,"▁dũng_cảm":10300,"EO":10301,"▁miền_đông":10302,"▁Yến":10303,"▁NATO":10304,"ân_chương":10305,"n_dị":10306,"▁An_ninh":10307,"▁premier":10308,"▁chủ_lực":10309,"▁bắt_gặp":10310,"▁luyện_tập":10311,"▁dại":10312,"▁No":10313,"▁bầu_":10314,"▁vóc_dáng":10315,"▁giận":10316,"▁Vấn_đề":10317,"▁tim_mạch":10318,"▁gom":10319,"▁Mac":10320,"▁Cuối":10321,"▁dễ_thương":10322,"▁Tra":10323,"▁trầm_trọng":10324,"▁Liên_minh":10325,"▁xen":10326,"▁mồi":10327,"ng_niệm":10328,"▁Premier":10329,"▁cốt":10330,"▁Ai_C":10331,"▁sun":10332,"▁Ai_Cập":10333,"▁nới":10334,"▁ồn_":10335,"ghép":10336,"▁tâm_đ":10337,"▁Công_nghiệp":10338,"▁nứt":10339,"▁HO":10340,"▁sống_s":10341,"▁thỉnh_thoảng":10342,"▁thủ_phạm":10343,"_cho":10344,"▁đằng_sau":10345,"▁thẩm_phán":10346,"▁lệnh_cấm":10347,"_đàm":10348,"▁ngó":10349,"n_lành":10350,"▁tác_chiến":10351,"▁Sa":10352,"ja":10353,"▁phật":10354,"_bán":10355,"▁lục":10356,"▁Nă":10357,"▁mob":10358,"▁Thọ":10359,"▁bảo_dưỡng":10360,"▁lỏng":10361,"ome":10362,"cử":10363,"▁tiêu_hủy":10364,"▁Ban_hành":10365,"▁Nhung":10366,"ửn":10367,"▁thực_ra":10368,"▁áp_đặt":10369,"▁lót":10370,"▁giản_dị":10371,"▁lướt":10372,"▁bình_thuận":10373,"▁laptop":10374,"▁Cây":10375,"tein":10376,"ửng":10377,"49":10378,"lines":10379,"▁Mặt_trận":10380,"▁mexico":10381,"u_đạn":10382,"_long":10383,"▁địa_hình":10384,"▁dân_phố":10385,"▁sống_sót":10386,"gio":10387,"▁thái_nguyên":10388,"quay":10389,"▁Long_An":10390,"▁Mexico":10391,"▁thế_trận":10392,"ings":10393,"▁Thương_binh":10394,"▁làm_quen":10395,"_cản":10396,"▁Cứ":10397,"▁nhà_trọ":10398,"▁ca_hát":10399,"xách":10400,"▁nắp":10401,"▁lặp_lại":10402,"Phúc":10403,"▁tình_tiết":10404,"ander":10405,"▁hủy_bỏ":10406,"▁đứ":10407,"▁rò_rỉ":10408,"aser":10409,"▁nạp":10410,"▁oxy":10411,"▁quy_chuẩn":10412,"▁Liên_quan":10413,"omp":10414,"▁108":10415,"▁cđv":10416,"5%":10417,"▁CĐV":10418,"▁Huyện":10419,"▁hen":10420,"▁bưởi":10421,"_Đông":10422,"_lạt":10423,"▁đấu_trường":10424,"m_chất":10425,"▁tiểu_b":10426,"▁hội_đ":10427,"ura":10428,"▁et":10429,"iro":10430,"▁song_song":10431,"▁1986":10432,"n_phong":10433,"▁sơn_l":10434,"▁mỹ_nhân":10435,"▁SEA":10436,"▁csđt":10437,"▁vọt":10438,"uộm":10439,"▁phùng":10440,"▁CSĐT":10441,"_ngoại":10442,"ars":10443,"▁kinh_đ":10444,"▁phú_yên":10445,"▁hộ_chiếu":10446,"▁Tuyết":10447,"▁cầu_v":10448,"▁cúng":10449,"▁Ví_dụ":10450,"▁thủy_văn":10451,"▁bks":10452,"n_mắt":10453,"i_chăng":10454,"▁chợt":10455,"▁Seo":10456,"▁phong_tỏa":10457,"▁trúng_tuyển":10458,"▁BKS":10459,"▁dung_tích":10460,"▁tưởng_niệm":10461,"ần_lễ":10462,"ký":10463,"▁đính_":10464,"âm_đồng":10465,"▁robot":10466,"lục":10467,"ci":10468,"ny":10469,"n_kém":10470,"ance":10471,"▁lấ":10472,"92":10473,"▁cổ_truyền":10474,"▁es":10475,"▁rẽ":10476,"▁Công_tác":10477,"▁gián_đ":10478,"▁chén":10479,"▁lâm_đồng":10480,"▁cương_vị":10481,"ora":10482,"Mai":10483,"▁91":10484,"37":10485,"▁khởi_kiện":10486,"_nha":10487,"ream":10488,"▁ban_đêm":10489,"▁văng":10490,"▁Gr":10491,"▁sinh_sản":10492,"de":10493,"▁chậu":10494,"▁chèo":10495,"lob":10496,"▁dầu_mỏ":10497,"▁radar":10498,"▁cấu_hình":10499,"IC":10500,"▁siết":10501,"raph":10502,"_tốn":10503,"▁đường_ống":10504,"▁Xuất_":10505,"▁phẩm_chất":10506,"▁Khá":10507,"▁bẫy":10508,"▁Sóc_":10509,"▁bắc_ninh":10510,"▁phòng_khám":10511,"erson":10512,"▁cầu_gi":10513,"▁Bu":10514,"▁pan":10515,"▁Thái_Nguyên":10516,"▁phô":10517,"▁túi_xách":10518,"▁h00":10519,"▁tổn_thất":10520,"uan":10521,"anda":10522,"▁gieo":10523,"▁nhập_cư":10524,"▁sương_m":10525,"▁lứa_tuổi":10526,"▁đèo":10527,"sa":10528,"_rơi":10529,"▁loại_trừ":10530,"phải":10531,"▁đa_phần":10532,"▁Bình_Thuận":10533,"Nhất":10534,"n_hưởng":10535,"97":10536,"▁Tài":10537,"▁tốn_kém":10538,"m_đêm":10539,"Ngh":10540,"▁ca_nhạc":10541,"▁nha_trang":10542,"▁115":10543,"▁trục_":10544,"▁nhôm":10545,"▁tài_tử":10546,"▁nq":10547,"▁Phùng":10548,"▁mini":10549,"▁nguy_kịch":10550,"▁bầu_trời":10551,"▁moscow":10552,"▁bướm_đêm":10553,"▁họa_tiết":10554,"aoke":10555,"▁kỹ_lưỡng":10556,"ng_băng":10557,"u_động":10558,"a_Trang":10559,"▁thèm":10560,"m_nhiệm":10561,"▁coi_trọng":10562,"▁tỷ_trọng":10563,"Hà":10564,"▁Moscow":10565,"▁đạn_đạo":10566,".20":10567,"n_cử":10568,"ềnh":10569,"▁hộ_khẩu":10570,"_trốn":10571,"▁NQ":10572,"▁220":10573,"▁ngưỡng_mộ":10574,"▁Kiên_":10575,"▁thoá":10576,"▁bảo_trì":10577,"▁tivi":10578,"▁nt":10579,"▁Thiên_":10580,"▁bộ_nhớ":10581,"▁u19":10582,"▁Nha_Trang":10583,"i_châu":10584,"▁Ra":10585,"gen":10586,"▁Pho":10587,"▁U19":10588,"▁thìa":10589,"▁Luật_":10590,"▁cứu_hỏa":10591,"dạng":10592,"32":10593,"▁cháo":10594,"▁Cảng":10595,"▁hã":10596,"▁thua_lỗ":10597,"hải":10598,"▁đà_lạt":10599,"▁Cầu_Gi":10600,"n_hữu":10601,"▁Đăng":10602,"▁Hôm":10603,"▁xuất_huyết":10604,"▁ồn_ào":10605,"▁Phú_Yên":10606,"▁mùa_m":10607,"ẢN":10608,"▁gánh":10609,"▁bữa_tiệc":10610,"▁kiên_trì":10611,"▁đảm_nhiệm":10612,"▁sóc":10613,"▁hiếp_dâm":10614,"▁chốn":10615,"▁ngoài_trời":10616,"▁Lập":10617,"▁thông_số":10618,"▁kinh_n":10619,"▁kinh_ng":10620,"phước":10621,"▁phẩm":10622,"▁sa_thải":10623,"_hưởng":10624,"▁niê":10625,"_điệu":10626,"▁bình_nh":10627,"_bơi":10628,"▁hoàng_gia":10629,"▁thay_mặt":10630,"▁vững":10631,"▁cô_đơn":10632,"▁điền":10633,"▁Bình_Nh":10634,"kin":10635,"▁giườ":10636,"▁bồ_đào":10637,"▁trẻ_con":10638,"▁res":10639,"ign":10640,"_Lạt":10641,"▁hiện_trạng":10642,"ầm_l":10643,"▁Đà_Lạt":10644,"▁mal":10645,"▁An_Giang":10646,"▁khả_quan":10647,"▁đặc_sản":10648,"▁Đội_":10649,"▁hoang_dã":10650,"tte":10651,"▁nhà_ga":10652,"▁dần_dần":10653,"▁kon":10654,"▁2%":10655,"▁sơ_bộ":10656,"▁Min":10657,"▁đường_l":10658,"▁nghệ_nhân":10659,"▁ngày_lễ":10660,"▁2.3":10661,"▁Bắc_Ninh":10662,"reen":10663,"▁hung_thủ":10664,"▁Ngân":10665,"▁ps":10666,"▁Liên_H":10667,"_lòng":10668,"_sẽ":10669,"rlines":10670,"▁Bo":10671,"ombia":10672,"▁1%":10673,"▁Vận_tải":10674,"▁mb":10675,"▁thu_hẹp":10676,"▁bình_nhưỡng":10677,"ardi":10678,"▁chính_đáng":10679,"▁kiểm_d":10680,"▁Bé":10681,"▁par":10682,"▁vĩ_đại":10683,"▁Bình_Nhưỡng":10684,"esh":10685,"_trộn":10686,"ào_N":10687,"▁trấn_":10688,"der":10689,"▁nữ_hoàng":10690,"▁chăng":10691,"▁airlines":10692,"▁Đức_":10693,"m_k":10694,"▁đảng_ủy":10695,"i_vị":10696,"▁ND":10697,"▁thánh":10698,"▁Cẩm_":10699,"▁tận_hưởng":10700,"▁bồ_đào_nha":10701,"▁Hoàn":10702,"▁tel":10703,"▁Hay":10704,"▁vtv":10705,"▁quan_ngại":10706,"▁ván":10707,"ào_Nha":10708,"▁cài":10709,"▁viếng":10710,"▁thiếu_nữ":10711,"▁đầu_bảng":10712,"jc":10713,"▁Bồ_Đào_Nha":10714,"▁jack":10715,"_lạp":10716,"▁cơ_động":10717,"▁ngẫ":10718,"▁Đừng":10719,"▁nghiệm_thu":10720,"ake":10721,"▁Bảng":10722,"▁Minh_":10723,"▁bế_tắc":10724,"_Quốc":10725,"▁fpt":10726,"nes":10727,"a_chuộng":10728,"96":10729,"▁sạch_sẽ":10730,"▁Thông_":10731,"▁Thị_trường":10732,"▁ưa_chuộng":10733,"▁Lâm_Đồng":10734,"▁vđv":10735,"▁ấn_định":10736,"▁microsoft":10737,"▁kiều_":10738,"▁gốm":10739,"▁mã_số":10740,"▁Trưởng_ban":10741,"▁trực_":10742,"▁VĐV":10743,"▁chuyên_viên":10744,"ett":10745,"_đốt":10746,"▁toy":10747,"▁Microsoft":10748,"_quanh":10749,"▁di_cư":10750,"ng_hậu":10751,"▁mệt":10752,"▁nhân_văn":10753,"▁mùa_thu":10754,"▁đồng_tháp":10755,"▁ră":10756,"▁tự_ý":10757,"▁hy_lạp":10758,"▁nhiệt_":10759,"▁khuôn_viên":10760,"ng_núi":10761,"▁lòng_tin":10762,"▁đại_dương":10763,"▁Sm":10764,"eorge":10765,"_ngợi":10766,"hoi":10767,"▁Hôm_nay":10768,"▁vòng_cấm":10769,"▁ớt":10770,"▁chấn_chỉnh":10771,"ng_công":10772,"▁ập":10773,"▁cộng_sản":10774,"▁linh_kiện":10775,"▁chuồng":10776,"utube":10777,"▁cảm_ứng":10778,"▁né":10779,"▁mic":10780,"_hồ":10781,"▁1,8":10782,"▁ân_":10783,"▁he":10784,"▁nhà_dân":10785,"▁công_cuộc":10786,"ÁC":10787,"oph":10788,"▁chúa":10789,"onet":10790,"▁vừa_phải":10791,"▁đun":10792,"▁tai_":10793,"▁Per":10794,"▁trung_thực":10795,"▁khuyến_mại":10796,"▁Hy_L":10797,"▁miễn_dịch":10798,"▁vùng_sâu":10799,"▁Hy_Lạp":10800,"▁Bỉ":10801,"ral":10802,"khánh":10803,"uel":10804,"▁yêu_":10805,"ema":10806,"▁CB":10807,"▁trơn":10808,"▁lõi":10809,"▁biê":10810,"▁nương":10811,"eak":10812,"ife":10813,"▁ngài":10814,"▁bè":10815,"▁Airlines":10816,"ng_K":10817,"ifer":10818,"▁mẫu_":10819,"ng_khiếp":10820,"▁thành_quả":10821,"ưng_":10822,"▁gia_công":10823,"▁Nên":10824,"▁khuya":10825,"42":10826,"▁cb":10827,"arez":10828,"ng_đường":10829,"m_ơn":10830,"▁mạo_hiểm":10831,"▁quế":10832,"▁PGS":10833,"▁VTV":10834,"▁ngày_xưa":10835,"▁cở":10836,"arl":10837,"▁manchester":10838,"▁nhánh":10839,"▁lụt":10840,"▁đồ_họa":10841,"▁tuần_t":10842,"_hoạn":10843,"▁black":10844,"t_r":10845,"ng_máy":10846,"Tháp":10847,"ston":10848,"▁biến_chứng":10849,"▁khủng_khiếp":10850,"▁karaoke":10851,"ery":10852,"▁mô_tô":10853,"n_khách":10854,"dị":10855,"suốt":10856,"▁Toy":10857,"▁bus":10858,"▁lề":10859,"a_khóa":10860,"_xỉ":10861,"ds":10862,"ng_rỡ":10863,"▁Manchester":10864,"▁vấp":10865,"▁miss":10866,"▁pháo_hoa":10867,"▁Đườ":10868,"ng_mai":10869,"kẹt":10870,"▁tớ":10871,"▁kiến_tạo":10872,"bor":10873,"▁GI":10874,"▁đường_kính":10875,"ÍNH":10876,"72":10877,"aya":10878,"▁Đúng":10879,"▁Tuyên_":10880,"itco":10881,"▁vùng_núi":10882,"lưu":10883,"n_giữ":10884,"▁bất_lợi":10885,"▁công_tố":10886,"▁angel":10887,"▁cánh_cứng":10888,"▁bank":10889,"▁cơ_khí":10890,"▁Phút":10891,"▁mắc_kẹt":10892,"▁cuố":10893,"▁lan_tỏa":10894,"▁dư_nợ":10895,"▁cntt":10896,"_truyện":10897,"▁Nghe":10898,"▁đơn_giá":10899,"▁Na":10900,"▁VKS":10901,"_Long":10902,"▁CNTT":10903,"nhìn":10904,"▁1,6":10905,"▁1985":10906,"▁cảnh_giác":10907,"si":10908,"ragon":10909,"XX":10910,"▁mông":10911,"c_đẹp":10912,"MT":10913,"▁góc_độ":10914,"sức":10915,"▁mơ_ước":10916,"▁xâm_hại":10917,"▁xí_nghiệp":10918,"▁bt":10919,"▁chào_mừng":10920,"▁sếp":10921,"n_hút":10922,"▁tâm_huyết":10923,"▁sơn_la":10924,"▁ủ":10925,"▁hạch":10926,"▁Hỗ":10927,"▁Đồng_Tháp":10928,"▁dưng":10929,"▁xh":10930,"▁pgs":10931,"▁Ven":10932,"▁sexy":10933,"▁con_dao":10934,"a_v":10935,"▁ber":10936,"aki":10937,"41":10938,"_thuần":10939,"▁xinh_x":10940,"_mộng":10941,"▁1987":10942,"▁chuông":10943,"▁hnx":10944,"DC":10945,"▁vỗ":10946,"▁lường":10947,"▁bin":10948,"otor":10949,"nghiệt":10950,"▁bù_đ":10951,"▁rách":10952,"suất":10953,"▁châu_phi":10954,"▁sv":10955,"▁cạn":10956,"▁kháng_sinh":10957,"▁mở_m":10958,"▁lo_cho":10959,"chuyển":10960,"▁ý_chí":10961,"▁xe_":10962,"▁Loan":10963,"▁sương_mù":10964,"▁vks":10965,"▁FPT":10966,"▁Angel":10967,"▁lệch":10968,"▁pop":10969,"▁thực_đ":10970,"▁tăng_tốc":10971,"▁Ex":10972,"▁gậy":10973,"▁quyển":10974,".000.000":10975,"▁tuyến_":10976,"▁ngoại_tình":10977,"▁trả_giá":10978,"▁đơn_thuần":10979,"giam":10980,"▁Mẫu":10981,"▁ghét":10982,"▁gm":10983,"▁cơ_giới":10984,"▁HNX":10985,"▁hero":10986,"▁hội_đàm":10987,"▁nhà_trắng":10988,"u_cần":10989,"_thua":10990,"ất_cánh":10991,"▁quê_nhà":10992,"▁Tay":10993,"▁mất_m":10994,"ng_hồ":10995,"ng_lớn":10996,"▁rộng_lớn":10997,"dùng":10998,"▁tị_nạn":10999,"▁Hoàn_":11000,"▁giam_":11001,"▁suýt":11002,"▁kiệt":11003,"▁ib":11004,"c_ngủ":11005,"▁mor":11006,"▁tiện":11007,"▁vách":11008,"▁móc":11009,"ito":11010,"▁ướt":11011,"▁nhiễm_trùng":11012,"hối":11013,"▁quanh_":11014,"u_dàng":11015,"▁thanh_xuân":11016,"hà":11017,"▁tiếng_việt":11018,"cl":11019,"▁2.5":11020,"▁cất_cánh":11021,"▁pr":11022,"c_c":11023,"▁Hiế":11024,"adal":11025,"▁bhyt":11026,"▁đùi":11027,"_triệt":11028,"▁BHYT":11029,"chủn":11030,"▁Trả_lời":11031,"chủng":11032,"▁tệ_nạn":11033,"▁mỉ":11034,"▁Hậu":11035,"uba":11036,"▁Phát_":11037,"sp":11038,"i_bộ":11039,"verton":11040,"▁Tôn":11041,"▁Trạm":11042,"▁đều_đ":11043,"▁khiêm_tốn":11044,"▁lưu_lượng":11045,"_TỊCH":11046,"▁Ne":11047,"▁tấm_lòng":11048,"▁tải_trọng":11049,"▁pen":11050,"▁GP":11051,"Lộc":11052,"▁dị_ứng":11053,"▁hỏa_hoạn":11054,"▁Cầu_thủ":11055,"▁hải_đ":11056,"▁quạt":11057,"▁pcc":11058,"▁cap":11059,"▁chua":11060,"▁bs":11061,"▁Tử":11062,"▁Cựu":11063,"JC":11064,"▁tri_":11065,"▁người_già":11066,"_nông":11067,"▁PCC":11068,"n_địa":11069,"▁sung":11070,"▁thầu":11071,"▁nhận_lời":11072,"▁Tiền":11073,"▁nguyên_đán":11074,"▁con_":11075,"_táo":11076,"▁hoa_m":11077,"_ít":11078,"cus":11079,"▁riê":11080,"▁bún":11081,"▁mail":11082,"hút":11083,"▁chìa_khóa":11084,"▁dịu_dàng":11085,"▁hit":11086,"_lỡ":11087,"▁vội_vàng":11088,"▁tuầ":11089,"▁giải_thể":11090,"78":11091,"▁bro":11092,"▁Ham":11093,"▁bắc_giang":11094,"▁KCN":11095,"_dương":11096,"lệnh":11097,"ower":11098,"▁sò":11099,"ictoria":11100,"▁khiế":11101,"▁Nhiệt_độ":11102,"▁tự_x":11103,"uki":11104,"▁tước":11105,"hài":11106,"_giang":11107,"▁ký_ức":11108,"▁toyota":11109,"▁rào_cản":11110,"▁dao_động":11111,"▁vinh_danh":11112,"estival":11113,"▁tống":11114,"▁mat":11115,"_chứa":11116,"i_mở":11117,"▁mặt_nạ":11118,"▁Sơn_La":11119,"▁tok":11120,"▁Quốc_lộ":11121,"▁rớt":11122,"ones":11123,"▁giật_mình":11124,"▁Gần":11125,"▁sắc_đẹp":11126,"n_chiến":11127,"▁hoàng_sa":11128,"▁huyết":11129,"i_nhớ":11130,"▁tụt":11131,"▁học_hành":11132,"▁bình_th":11133,"▁Chứng_khoán":11134,"TN":11135,"▁Công_thương":11136,"_Trắng":11137,"▁Sun":11138,"▁bỏ_lỡ":11139,"▁riêng_tư":11140,"▁chào_bán":11141,"▁Vĩnh":11142,"▁thiên_h":11143,"_chữa":11144,"▁tin_học":11145,"▁giao_diện":11146,"▁thống_đốc":11147,"▁toàn_thể":11148,"▁phối":11149,"▁chu_đáo":11150,"▁tịch_thu":11151,"▁XH":11152,"ory":11153,"▁Hoàng_Sa":11154,"▁tui":11155,"▁tơ":11156,"▁3%":11157,"▁hương_":11158,"▁170":11159,"▁bưu_chính":11160,"▁xu_thế":11161,"▁Tăng_cường":11162,"ng_bệnh":11163,"▁Black":11164,"inbank":11165,"▁thủy_thủ":11166,"▁ni":11167,"▁kiê":11168,"hận":11169,"▁giấc_ngủ":11170,"▁afghanistan":11171,"ales":11172,"▁Thụy_S":11173,"63":11174,"unt":11175,"▁Mark":11176,"▁Tỷ_lệ":11177,"ỰC":11178,"cher":11179,"▁bot":11180,"▁tương_tác":11181,"▁thanh_th":11182,"▁Afghanistan":11183,"▁gar":11184,"▁der":11185,"▁đại_tướng":11186,"ttq":11187,"▁bol":11188,"▁Áo":11189,"INH":11190,"▁màn_ảnh":11191,"TTQ":11192,"▁Hiệu":11193,"▁tạo_hình":11194,"▁Tw":11195,"▁rung":11196,"ợn":11197,"▁hagl":11198,"▁Tok":11199,"a_cạnh":11200,"▁Ber":11201,"▁Mob":11202,"reg":11203,"▁HAGL":11204,"▁duyên_":11205,"▁av":11206,"▁bất_đồng":11207,"_chân":11208,"đông":11209,"ỨC":11210,"elli":11211,"n_chiếm":11212,"▁bà_nội":11213,"▁2.500":11214,"▁Tiếp_tục":11215,"col":11216,"ật_giáo":11217,"IỆN":11218,"▁Bác_sĩ":11219,"▁gầy":11220,"▁xoay_quanh":11221,"▁ghi_nhớ":11222,"OT":11223,"▁Mod":11224,"▁Mas":11225,"▁tụ_tập":11226,"▁Phú_Th":11227,"▁phu_nhân":11228,"▁quán_quân":11229,"▁phòng_h":11230,"▁mà_cả":11231,"▁dòng_sông":11232,"▁nồng_độ":11233,"▁xe_ôm":11234,"_ngữ":11235,"▁khía_cạnh":11236,"▁diệu":11237,"▁hiện_vật":11238,"▁thân_nhân":11239,"▁hữu_ích":11240,"_rể":11241,"▁Toyota":11242,"▁2.4":11243,"iana":11244,"▁lấn_chiếm":11245,"▁tuần_tới":11246,"▁Bắc_Giang":11247,"▁Cát_":11248,"▁ctc":11249,"▁một_khi":11250,"▁mt":11251,"▁CHỦ_TỊCH":11252,"bin":11253,"▁soi":11254,"▁trở_ngại":11255,"ise":11256,"i_hai":11257,"▁cung_đ":11258,"▁tồn_kho":11259,"▁trấn":11260,"ng_ký":11261,"kham":11262,"▁gấu":11263,"▁Hưng_":11264,"▁iP":11265,"▁bal":11266,"▁bản_sắc":11267,"▁Miss":11268,"▁quán_triệt":11269,"▁chăm_chỉ":11270,"▁xách_tay":11271,"▁Nhà_Trắng":11272,"▁gián":11273,"▁khánh_thành":11274,"▁cầu_giấy":11275,"▁pakistan":11276,"_Tổng":11277,"_lao":11278,"▁mel":11279,"_ích":11280,"83":11281,"ext":11282,"HC":11283,"▁quá_m":11284,"▁3.1":11285,"ago":11286,"▁Be":11287,"▁đột_nhập":11288,"▁quen_biết":11289,"▁tuyến_phố":11290,"ustin":11291,"agen":11292,"▁cuộc_gọi":11293,"▁hđxx":11294,"▁HĐXX":11295,"▁xâm_l":11296,"▁Pakistan":11297,"ng_khoa":11298,"▁Chia_sẻ":11299,"▁4,5":11300,"▁chân_dung":11301,"▁Đảng_bộ":11302,"ng_Ban":11303,"▁quảng_trường":11304,"▁Se":11305,"▁sâu_rộng":11306,"▁pccc":11307,"zy":11308,"i_đoàn":11309,"▁PCCC":11310,"m_đội":11311,"▁tự_xưng":11312,"▁xẻ":11313,"▁ưu_điểm":11314,"▁tác_hại":11315,".900":11316,"▁bước_tiến":11317,"▁cá_tra":11318,"▁kw":11319,"▁michael":11320,"▁đau_lòng":11321,"ng_một":11322,"u_cơ":11323,"▁tàn":11324,"▁Đại_tá":11325,"t_chặt":11326,"xô":11327,"▁bảo_trợ":11328,"73":11329,"▁Bất_":11330,"▁Hiệp_định":11331,"▁nén":11332,"▁cc":11333,"▁times":11334,"▁nhu":11335,"▁phòng_trọ":11336,"▁phản":11337,"ng_chảy":11338,"▁nọ":11339,"i_định":11340,"▁1984":11341,"▁quá_mức":11342,"▁Michael":11343,"_triều":11344,"▁phá_hoại":11345,"▁lí":11346,"_máu":11347,"ng_Sơn":11348,"khóa":11349,"_quang":11350,"▁Bài":11351,"▁hữu_cơ":11352,"▁Hóa":11353,"▁Cầu_Giấy":11354,"▁Đố":11355,"▁đề_phòng":11356,"▁Ninh":11357,"▁Ag":11358,"▁cầm_quyền":11359,"▁thầy_giáo":11360,"▁hồn":11361,"▁mắng":11362,"▁Đôi":11363,"▁thắt":11364,"▁rụng":11365,"▁Bảo_vệ":11366,"encia":11367,"▁cor":11368,"▁gắn_máy":11369,"▁bộ_môn":11370,"▁vy":11371,"▁tiền_giang":11372,"▁mass":11373,"_đặc":11374,"▁bù_đắp":11375,"lái":11376,"▁nâu":11377,"▁đường_lối":11378,"▁xinh_xắn":11379,"▁135":11380,"▁chọc":11381,"wa":11382,"▁thắt_chặt":11383,"▁khắc_nghiệt":11384,"u_s":11385,"▁Cuối_cùng":11386,"▁phú_thọ":11387,"▁ranh_":11388,"▁vòng_một":11389,"▁thanh_lý":11390,"▁đánh_m":11391,"▁hạt_giống":11392,"n_ngày":11393,"▁ghi_hình":11394,"_chua":11395,"▁thối":11396,"acombank":11397,"ius":11398,"▁luộc":11399,"ederer":11400,"▁Ngành":11401,"▁mil":11402,"_trắc":11403,"▁Bài_":11404,"▁cấ":11405,"▁Phó_Tổng":11406,"kraina":11407,"▁po":11408,"▁xoắn":11409,"int":11410,"u_niệm":11411,"▁ranh_giới":11412,"c_lộ":11413,"ận_h":11414,"▁oanh":11415,"_thạch":11416,"▁nú":11417,"▁kháng_cáo":11418,"▁bôi":11419,"_tầm":11420,"NA":11421,"▁tây_nam":11422,"▁Trẻ":11423,"▁Bây_giờ":11424,"ung_l":11425,"▁Tương":11426,"▁thửa_đất":11427,"▁trưng_cầu":11428,"▁qui_định":11429,"▁lưu_niệm":11430,"ẽn":11431,"▁CỦ":11432,"▁Mal":11433,"▁khí_đốt":11434,"▁kẽ":11435,"▁dưỡ":11436,"iệu_":11437,"▁rich":11438,"▁Thương":11439,"▁hàng_công":11440,"▁450":11441,"▁tỉnh_thành":11442,"▁150.000":11443,"76":11444,"▁lĩnh":11445,"▁chu_kỳ":11446,"▁1970":11447,"guay":11448,"▁bộc_lộ":11449,"hm":11450,"▁Kiến":11451,"▁háo":11452,"national":11453,"▁liên_xô":11454,"▁kêu_c":11455,"▁sỏi":11456,"▁sg":11457,"▁lạnh_l":11458,"▁cấp_bách":11459,"▁play":11460,"▁đá_quý":11461,"_dị":11462,"▁phấn":11463,"ennifer":11464,"▁môn_học":11465,"▁Ngọc_":11466,"▁gừng":11467,"▁vốn_vay":11468,"▁giác":11469,"▁ctcp":11470,"_đổ":11471,"▁CTCP":11472,"õn":11473,"▁CỦA":11474,"▁ca_ngợi":11475,"▁caf":11476,"▁4.0":11477,"▁tiền_thưởng":11478,"▁dòng_tiền":11479,"_G":11480,"m_x":11481,"han":11482,"dạn":11483,"▁trẻ_nhỏ":11484,"▁Hỗ_trợ":11485,"▁vạ":11486,"▁ông_hoàng":11487,"nội":11488,"▁west":11489,"ƯỜ":11490,"▁Phụ_nữ":11491,"▁Hướ":11492,"▁cách_biệt":11493,"n_ngập":11494,"▁Tác":11495,"▁sụp_đổ":11496,"▁hong_k":11497,"▁rước":11498,"86":11499,"▁nhân_rộng":11500,"▁Mục_tiêu":11501,"▁hòa_nhập":11502,"▁xào":11503,"▁gìn_giữ":11504,"▁ass":11505,"▁xấp":11506,"▁cừ":11507,"ven":11508,"▁MB":11509,"▁âm_lịch":11510,"▁comp":11511,"▁Cậu":11512,"▁protein":11513,"93":11514,"▁Phú_Thọ":11515,"▁trại_":11516,"▁biểu_dương":11517,"▁Mor":11518,"▁Hong_K":11519,"ng_lẽ":11520,"▁mùa_mưa":11521,"▁Cảnh":11522,"▁robert":11523,"▁lún":11524,"▁tín_đồ":11525,"▁Đảng_ủy":11526,"▁hong_kong":11527,"▁Vy":11528,"▁nhiễ":11529,"▁cỗ":11530,"▁xé":11531,"▁vne":11532,"ng_xạ":11533,"▁chiên":11534,"▁áp_thấp":11535,"_ngàng":11536,"hướng":11537,"▁Mu":11538,"▁Liên_X":11539,"▁ty":11540,"▁Sinh_":11541,"_trục":11542,"▁mạnh_dạn":11543,"▁hoan_ngh":11544,"▁kẻ_thù":11545,"▁Hong_Kong":11546,"▁hà_đông":11547,"▁hoan_nghênh":11548,"▁Sal":11549,"▁lý_l":11550,"▁tỉnh_táo":11551,"▁Liên_Xô":11552,"▁Hoạ":11553,"▁VT":11554,"▁Tiền_Giang":11555,"reland":11556,"▁tái_tạo":11557,"▁gõ":11558,"_ạt":11559,"▁cột_":11560,"▁MT":11561,"ước_kia":11562,"▁điểm_ch":11563,"▁Robert":11564,"hc":11565,"▁rạng_rỡ":11566,"t_mắt":11567,"_ra":11568,"aku":11569,"ược_gia":11570,"▁phóng_xạ":11571,"▁VỀ":11572,"▁vụ_trưởng":11573,"▁mương":11574,"ardo":11575,"▁hạ_long":11576,"_lánh":11577,"▁diễm":11578,"▁tiểu_thương":11579,"▁Hà_Đông":11580,"▁West":11581,"▁lăng":11582,"▁vận_dụng":11583,"ello":11584,"▁tri_ân":11585,"▁tiên_phong":11586,"m_kích":11587,"▁1945":11588,"▁103":11589,"dc":11590,"eco":11591,"▁AS":11592,"ole":11593,"▁bài_thơ":11594,"▁off":11595,"aga":11596,"ele":11597,"ng_hải":11598,"omas":11599,"▁Hạ_Long":11600,"▁sw":11601,"▁kè":11602,"▁giã":11603,"▁nokia":11604,"ƯỚ":11605,"▁vị_khách":11606,"▁đánh_đập":11607,"ng_chừng":11608,"nik":11609,"eve":11610,"▁thác":11611,"▁đụng_độ":11612,"▁chóng_mặt":11613,"ờn":11614,"▁nhận_diện":11615,"▁PL":11616,"ere":11617,"▁ngoan":11618,"▁Luật_sư":11619,"▁tc":11620,"_hoạt":11621,"▁tiêm_kích":11622,"▁khi_hai":11623,"▁đồ_đạc":11624,"▁hoàng_tử":11625,"▁thủy_tinh":11626,"▁SG":11627,"_ninh":11628,"ÌNH":11629,"▁FI":11630,"▁Online":11631,"n_mực":11632,"▁mệnh_danh":11633,"▁táo_bạo":11634,"▁quấy":11635,"ếm":11636,"▁hành_lý":11637,"xứng":11638,"▁PS":11639,"▁Jack":11640,"▁Thừa":11641,"▁phản_công":11642,"_tiếc":11643,"▁tiêu_đ":11644,"▁htx":11645,"▁CÔNG":11646,"▁truy_bắt":11647,"▁xứ_sở":11648,"▁HTX":11649,"ng_biên":11650,"▁lặng_lẽ":11651,"▁tình_cờ":11652,"▁nấy":11653,"▁tỉnh_":11654,"▁Tường":11655,"aho":11656,"▁hành_hung":11657,"atus":11658,"▁Ti":11659,"ki":11660,"▁dược_":11661,"▁kiên_giang":11662,"▁BỘ":11663,"▁cương":11664,"▁cộng_tác":11665,"▁tiểu_đường":11666,"▁Nokia":11667,"n_ủy":11668,"71":11669,"▁cấp_độ":11670,"▁Băng":11671,"▁mở_màn":11672,"▁sư_tử":11673,"▁Vừa":11674,"▁khoán":11675,"▁sjc":11676,"vốn":11677,"▁quân_nhân":11678,"▁cẩm":11679,"_bối":11680,"▁AN":11681,"▁dắt":11682,"▁SJC":11683,"▁vàng_miếng":11684,"viễn":11685,"_tấu":11686,"▁đồ_uống":11687,"▁nick":11688,"▁sương":11689,"89":11690,"qg":11691,"QG":11692,"▁Sáu":11693,"▁số_hiệu":11694,"▁nhà_giáo":11695,"_vàng":11696,"▁động_từ":11697,"lễ":11698,"▁dọ":11699,"▁minh_chứng":11700,"▁tri_thức":11701,"▁lãnh_":11702,"▁phương_h":11703,"▁đặc_nhiệm":11704,"▁tiếng_Việt":11705,"▁phân_chia":11706,"▁cảnh_cáo":11707,"TA":11708,"_ẩm":11709,"▁bóc":11710,"như":11711,"▁nhanh_":11712,"▁Ga":11713,"mt":11714,"▁khóm":11715,"i_làng":11716,"34":11717,"▁nhận_biết":11718,"▁hoạch":11719,"▁cuba":11720,"iura":11721,"▁Diễm":11722,"_bê":11723,"▁công_sở":11724,"oni":11725,"▁kỉ":11726,"▁Mộ":11727,"t_x":11728,"▁thuế_suất":11729,"▁Xét":11730,"▁one":11731,"▁bóp":11732,"_là":11733,"▁8.000":11734,"min":11735,"▁trúc":11736,"▁vớt":11737,"▁Đa_khoa":11738,"▁khẩu_":11739,"▁Đá":11740,"emen":11741,"▁italia":11742,"▁nấu_":11743,"79":11744,"qh":11745,"▁TC":11746,"▁tokyo":11747,"▁pháp_lệnh":11748,"rey":11749,"▁cầu_vượt":11750,"▁7.000":11751,"▁Cuba":11752,"kt":11753,"Xuyên":11754,"52":11755,"▁nhạt":11756,"▁tab":11757,"▁đều_đặn":11758,"_rịa":11759,"▁nạo":11760,"▁Tokyo":11761,"74":11762,"▁nhà_r":11763,"▁kích_hoạt":11764,"31":11765,"under":11766,"its":11767,"▁Italia":11768,"▁tom":11769,"▁bà_rịa":11770,"i_g":11771,"ng_bóng":11772,"▁phân_bố":11773,"▁Kỹ_thuật":11774,"▁1983":11775,"▁điểm_số":11776,"▁ăn_mừng":11777,"▁lôi":11778,"▁quyên_":11779,"uson":11780,"▁chuyên_án":11781,"▁lật_đ":11782,"▁bằng_khen":11783,"▁hồi_h":11784,"▁tàng":11785,"▁thon":11786,"▁dì":11787,"_mệnh":11788,"▁châu_Phi":11789,"▁ong":11790,"_mạc":11791,"▁tâm_điểm":11792,"▁tiểu_bang":11793,"▁nước_ngọt":11794,"▁liên_tịch":11795,"QH":11796,"▁thành_đ":11797,"▁lây_lan":11798,"▁Mở":11799,"▁chuẩn_mực":11800,"▁Thời":11801,"▁tân_binh":11802,"▁bài_bản":11803,"ên_lề":11804,"áng_v":11805,"ppo":11806,"ấu_hổ":11807,"ầu_cơ":11808,"n_dẹp":11809,"▁Cap":11810,"▁lạng_sơn":11811,"▁cưng":11812,"▁ban_ngày":11813,"▁họ_hàng":11814,"m_hoi":11815,"▁BM":11816,"eting":11817,"ng_nhiệt":11818,"ahoo":11819,"▁sôi_nổi":11820,"▁heroin":11821,"ng_yên":11822,"▁GT":11823,"sky":11824,"▁rom":11825,"▁dượ":11826,"▁1979":11827,"_tre":11828,"▁đương_kim":11829,"_giam":11830,"▁hải_lý":11831,"▁tù_giam":11832,"▁Kiên_Giang":11833,"▁thất_thoát":11834,"_đá":11835,"▁rụi":11836,"▁94":11837,"▁blog":11838,"▁ngoại_hạng":11839,"▁diệ":11840,"_đẻ":11841,"▁vt":11842,"▁chuyển_động":11843,"▁tự_vệ":11844,"▁ko":11845,"▁thao_tác":11846,"ardiola":11847,"▁len":11848,"▁hiếm_hoi":11849,"▁tủ_lạnh":11850,"▁ngầ":11851,"▁mật_ong":11852,"▁mỹ_thuật":11853,"kiến":11854,"▁dự_luật":11855,"rick":11856,"▁hiện_hữu":11857,"▁triế":11858,"ordan":11859,"▁tiếp_viên":11860,"▁cường_độ":11861,"▁cuốn_hút":11862,"▁thương_lái":11863,"_thầy":11864,"▁xấu_hổ":11865,"urd":11866,"▁trưởng_đoàn":11867,"atia":11868,"▁ev":11869,"▁Tel":11870,"_mình":11871,"▁viettel":11872,"ude":11873,"n_loạn":11874,"▁Sản_phẩm":11875,"n_T":11876,"ạnh_":11877,"▁id":11878,"▁sel":11879,"▁hóa_thân":11880,"▁Viên":11881,"_thoáng":11882,"orth":11883,"▁đầu_cơ":11884,"▁you":11885,"▁je":11886,"erguson":11887,"▁express":11888,"▁hái":11889,"▁hi":11890,"_ngoài":11891,"▁Đại_tướng":11892,"▁bắt_nguồn":11893,"▁con_r":11894,"uch":11895,"▁Tuổi":11896,"iệt_thòi":11897,"▁hồ_chứa":11898,"▁bìa":11899,"▁nấu_ăn":11900,"▁vững_mạnh":11901,"▁petro":11902,"_Điển":11903,"64":11904,"ng_cao":11905,"▁chọn_lựa":11906,"▁cro":11907,"▁tal":11908,"etty":11909,"▁Times":11910,"▁nhượ":11911,"▁Hiến_pháp":11912,"91":11913,"▁7%":11914,"▁mất_mát":11915,"▁Re":11916,"▁thụy_điển":11917,"▁cảnh_quay":11918,"bạn":11919,"▁1,4":11920,"▁gl":11921,"▁nuốt":11922,"▁Bank":11923,"▁lý_luận":11924,"fa":11925,"các":11926,"góp":11927,"▁dọn_dẹp":11928,"▁Tất_":11929,"rahim":11930,"_diện":11931,"n_năng":11932,"ng_loạn":11933,"▁Dân_chủ":11934,"▁rễ":11935,"▁thiệt_thòi":11936,"▁liên_thông":11937,"otti":11938,"i_dào":11939,"stan":11940,"▁Thụy_Điển":11941,"▁mở_đầu":11942,"▁dệt":11943,"▁lưu_động":11944,"▁trẻ_tuổi":11945,"▁cẩ":11946,"▁dồi_dào":11947,"▁Số_lượng":11948,"▁ba_lan":11949,"▁Lạng_Sơn":11950,"▁cà_chua":11951,"ont":11952,"ling":11953,"▁Trưng":11954,"n_lan":11955,"▁Mat":11956,"▁Ass":11957,"n_giờ":11958,"▁Phối_hợp":11959,"i_ngược":11960,"lim":11961,"u_xanh":11962,"▁chuyên_dụng":11963,"▁sung_":11964,"Trăng":11965,"▁Hồ_sơ":11966,"_thai":11967,"▁giải_đáp":11968,"_sữa":11969,"▁quyên":11970,"onia":11971,"Thạnh":11972,"▁3D":11973,"▁bđs":11974,"▁BĐS":11975,"▁Ký":11976,"t_bỏ":11977,"_hức":11978,"▁Ba_Lan":11979,"▁quý_giá":11980,"▁định_vị":11981,"▁lang_thang":11982,"▁tự_sát":11983,"▁khuất":11984,"▁SV":11985,"▁dê":11986,"imb":11987,"▁xơ":11988,"▁Kar":11989,"_tròn":11990,"ng_lẫy":11991,"ng_biệt":11992,"▁3d":11993,"▁mềm_m":11994,"châm":11995,"94":11996,"▁nhỉ":11997,"▁vét":11998,"▁Đại_biểu":11999,"_thuyền":12000,"m_ngưỡng":12001,"▁sport":12002,"▁vnd":12003,"▁ngôi_làng":12004,"▁phở":12005,"▁đục":12006,"▁rooney":12007,"▁vùng_cao":12008,"aceae":12009,"ifa":12010,"▁riêng_biệt":12011,"_lái":12012,"▁hà_giang":12013,"▁des":12014,"i_nhi":12015,"▁công_trường":12016,"54":12017,"▁bảo_hành":12018,"den":12019,"▁tốc":12020,"▁nốt":12021,"▁đăng_kiểm":12022,"▁chỉ_dẫn":12023,"▁Chấp":12024,"▁Rooney":12025,"_Rịa":12026,"▁trung_thu":12027,"zo":12028,"▁phải_chăng":12029,"ime":12030,"▁chuyên_khoa":12031,"▁Đánh_":12032,"▁Bà_Rịa":12033,"▁trạ":12034,"▁ngỡ_ngàng":12035,"▁Chế":12036,"▁rang":12037,"▁Bro":12038,"n_văn":12039,"▁cử_nhân":12040,"▁ban_nhạc":12041,"▁evn":12042,"▁sơ_đồ":12043,"▁Cố":12044,"▁Chuyên_":12045,"n_hòa":12046,"▁Xác":12047,"▁quyên_góp":12048,"▁nguyệt":12049,"▁háo_hức":12050,"▁xương_":12051,"▁hoàng_anh":12052,"vẽ":12053,"62":12054,"▁3.2":12055,"▁Petro":12056,"▁hoàn_vũ":12057,"69":12058,"▁ipad":12059,"▁sét":12060,"▁chùm":12061,"▁Kết":12062,"t_xa":12063,"▁hor":12064,"▁Thiện":12065,"act":12066,"▁Viettel":12067,"▁bm":12068,"cis":12069,"▁mốt":12070,"ster":12071,"▁Pan":12072,"▁thân_mật":12073,"▁tọa_đàm":12074,"▁đối_chiếu":12075,"▁vẻ_ngoài":12076,"▁tạt":12077,"▁lá_c":12078,"▁sony":12079,"▁khỉ":12080,"i_nam":12081,"▁góc_nhìn":12082,"▁cướp_giật":12083,"▁ren":12084,"ẫn_n":12085,"▁chú_rể":12086,"▁chật_":12087,"▁bao_bì":12088,"▁XII":12089,"▁chiêu_":12090,"▁Phan_":12091,"▁luận":12092,"_tìm":12093,"▁keo":12094,"itcoin":12095,"ết_điểm":12096,"▁ngần_ngại":12097,"▁dày_đặc":12098,"▁đúc":12099,"▁gt":12100,"▁FDI":12101,"▁hé_lộ":12102,"▁bắt_mắt":12103,"▁truyền_tải":12104,"53":12105,"▁cởi_mở":12106,"▁SL":12107,"yle":12108,"▁104":12109,"▁Khai":12110,"▁Hợp_tác":12111,"n_đài":12112,"▁bật_":12113,"▁địa_chất":12114,"iban":12115,"▁con_nuôi":12116,"▁tiếp_thị":12117,"▁inf":12118,"n_phương":12119,"▁tát":12120,"Đình":12121,"▁gót":12122,"▁luân_":12123,"Khánh":12124,"u_hụt":12125,"_Dương":12126,"_dỗ":12127,"▁bịt":12128,"▁Hoàng_Anh":12129,"▁Clin":12130,"▁nề":12131,"aro":12132,"mo":12133,"▁lật_đổ":12134,"▁kiểm_dịch":12135,"▁Người_đẹp":12136,"▁chiến_lược_gia":12137,"▁Hoạt_động":12138,"ng_bằng":12139,"▁nấ":12140,"82":12141,"▁buộc_tội":12142,"▁han":12143,"rông":12144,"vận":12145,"▁viền":12146,"▁hoạt_":12147,"▁Ste":12148,"▁james":12149,"▁VND":12150,"rov":12151,"▁Atletico":12152,"▁EVN":12153,"▁atletico":12154,"▁tràn_lan":12155,"▁thai_nhi":12156,"_vai":12157,"awa":12158,"▁chen":12159,"▁bid":12160,"▁cao_tầng":12161,"m_ngặt":12162,"▁sổ_đỏ":12163,"▁Thanh_N":12164,"▁Thu_":12165,"lính":12166,"▁plus":12167,"▁cường_":12168,"▁mau":12169,"▁mh":12170,"▁nghiêm_ngặt":12171,"▁Sony":12172,"▁canh_tác":12173,"ottenham":12174,"UNG":12175,"ắc_xin":12176,"▁khuyết_điểm":12177,"▁mắ":12178,"▁kcn":12179,"▁chớp":12180,"▁yên_bái":12181,"61":12182,"▁nôn":12183,"▁Wh":12184,"▁hoảng_loạn":12185,"ng_giá":12186,"▁Thủ_tục":12187,"▁Hà_Giang":12188,"▁vac":12189,"▁file":12190,"õng":12191,"▁nghiêm_khắc":12192,"▁fdi":12193,"i_lạ":12194,"▁Bách":12195,"ital":12196,"▁totte":12197,"▁gục":12198,"▁hiệu_suất":12199,"▁Thanh_niên":12200,"▁Tòa":12201,"▁thể_chất":12202,"▁tottenham":12203,"▁điệu":12204,"▁đức_":12205,"▁James":12206,"▁Sỹ":12207,"▁ngất_":12208,"▁lhq":12209,"▁LHQ":12210,"▁vô_số":12211,"▁Tottenham":12212,"▁Đa":12213,"▁thiếu_niên":12214,"iêu_l":12215,"▁lưu_trú":12216,"▁chung_cuộc":12217,"▁tốp":12218,"▁xuất_trình":12219,"▁thiếu_hụt":12220,"▁Sil":12221,"ami":12222,"▁lg":12223,"▁khử":12224,"▁tình_thế":12225,"▁lđlđ":12226,"▁LĐLĐ":12227,"▁dừ":12228,"▁tổn_h":12229,"▁Đất_":12230,"▁chính_h":12231,"▁clin":12232,"▁bên_lề":12233,"ador":12234,"cast":12235,"▁giáo_khoa":12236,"▁Yên_B":12237,"▁sóng_thần":12238,"cy":12239,"_xát":12240,"▁nữ_tính":12241,"▁60.000":12242,"▁chế_tài":12243,"▁LG":12244,"▁dòng_chảy":12245,"▁Gò":12246,"▁Nguyê":12247,"▁tẩu":12248,"khích":12249,"▁búp":12250,"u_hỏa":12251,"▁cự_ly":12252,"ng_phạm":12253,"▁tập_kết":12254,"▁Tư_lệnh":12255,"▁thứ_tự":12256,"39":12257,"▁ACB":12258,"▁2025":12259,"m_nhân":12260,"▁jose":12261,"_tạng":12262,"▁Cha":12263,"▁1981":12264,"▁điển":12265,"c_đường":12266,"▁thủ_đức":12267,"▁Quỳ":12268,"reet":12269,"▁miền_tây":12270,"▁Tây_Bắc":12271,"▁nhọn":12272,"edan":12273,"▁giang_hồ":12274,"▁mộc":12275,"▁libya":12276,"▁thanh_lịch":12277,"ild":12278,"ng_gi":12279,"▁trả_thù":12280,"▁sưng":12281,"▁từ_từ":12282,"▁bik":12283,"▁lội":12284,"ng_suốt":12285,"▁Jose":12286,"▁tạm_trú":12287,"_tràng":12288,"▁điểm_chuẩn":12289,"▁Thanh_Niên":12290,"▁đàn_em":12291,"▁muỗi":12292,"▁om":12293,"▁lụa":12294,"▁Dịch_vụ":12295,"▁Libya":12296,"▁thoái_vốn":12297,"▁cuộn":12298,"hạnh":12299,"▁bất_lực":12300,"▁Diệu":12301,"▁đường_đ":12302,"▁nhuộm":12303,"▁nhó":12304,"m_chức":12305,"▁Lý_do":12306,"▁107":12307,"▁Tam":12308,"▁vương_quốc":12309,"▁giam_giữ":12310,"▁toa":12311,"▁phố_cổ":12312,"_lường":12313,"t_khác":12314,"▁Mặt_khác":12315,"▁mưu_":12316,"ng_đa":12317,"n_khởi":12318,"▁phần_tử":12319,"lâm":12320,"ng_lòng":12321,"exus":12322,"▁Hiệu_trưởng":12323,"▁nghi_l":12324,"illiam":12325,"▁MH":12326,"jok":12327,"▁đống_đa":12328,"Lâm":12329,"ung_cảnh":12330,"▁bào_chữa":12331,"▁lan_truyền":12332,"▁chiết_":12333,"▁­":12334,"▁nội_thành":12335,"i_pháp":12336,"▁nhà_riêng":12337,"▁giọng_nói":12338,"▁sản_phụ":12339,"▁trí_thức":12340,"ng_Đa":12341,"▁thâm":12342,"▁Bàn":12343,"▁Đống_Đa":12344,"▁Truyề":12345,"▁màng":12346,"ady":12347,"▁số_ít":12348,"uz":12349,"oster":12350,"_man":12351,"▁thương_lượng":12352,"▁400.000":12353,"▁đánh_mất":12354,"▁trung_đông":12355,"m_chủng":12356,"undai":12357,"▁tình_nhân":12358,"▁xấp_xỉ":12359,"▁vá":12360,"▁tổn_hại":12361,"▁trình_làng":12362,"▁phiề":12363,"▁bệnh_nhi":12364,"▁Yên_Bái":12365,"▁vắc_xin":12366,"▁trung_gian":12367,"▁ghê":12368,"▁tha_thứ":12369,"▁khanh":12370,"▁phấn_khởi":12371,"▁cọ":12372,"▁cuồ":12373,"ấn_động":12374,"_lắk":12375,"▁đề_cao":12376,"▁khai_sinh":12377,"ovo":12378,"uts":12379,"nh_mì":12380,"58":12381,"ater":12382,"▁vụ_kiện":12383,"õm":12384,"▁360":12385,".90":12386,"▁1960":12387,"▁duyên_dáng":12388,"n_ngưỡng":12389,"▁mạch_máu":12390,"▁ngây":12391,"▁đắk_lắk":12392,"n_chương":12393,"▁tĩnh_":12394,"▁triệt_":12395,"▁hp":12396,"▁TW":12397,"uyễn":12398,"▁chi_phối":12399,"▁tái_hiện":12400,"▁đồng_bọn":12401,"▁nhà_tù":12402,"ristiano":12403,"▁chủ_đạo":12404,"▁trước_kia":12405,"▁Nhã":12406,"▁Blu":12407,"▁phòng_hộ":12408,"▁ngày_tết":12409,"▁ve":12410,"_cải":12411,"ông_m":12412,"▁khát":12413,"_đốc":12414,"▁khám_xét":12415,"▁an_":12416,"▁Thí":12417,"▁á_hậu":12418,"▁juventus":12419,"▁acb":12420,"▁luậ":12421,"▁nhậm_chức":12422,"▁2,2":12423,"▁viện_trưởng":12424,"▁dân_quân":12425,"▁truy_tìm":12426,"▁Juventus":12427,"▁bbc":12428,"▁Triển_lãm":12429,"▁Li":12430,"▁vĩnh_h":12431,"▁vĩnh_viễn":12432,"▁Trung_Đông":12433,"▁chị_gái":12434,"_vây":12435,"▁nghỉ_việc":12436,"▁cân_nặng":12437,"uệ":12438,"▁cho_ra":12439,"ence":12440,"▁gang":12441,"▁tuần_lễ":12442,"▁Giáo_sư":12443,"bao":12444,"n_phím":12445,"▁thông_cảm":12446,"m_cảm":12447,"eckham":12448,"▁dẫu":12449,"▁ngươi":12450,"▁chiêm_ngưỡng":12451,"_khoác":12452,"▁chậ":12453,"ando":12454,"▁âm_thầm":12455,"arm":12456,"▁tiến_triển":12457,"▁Tín":12458,"▁thượng_":12459,"ras":12460,"▁Cor":12461,"▁chiều_sâu":12462,"itz":12463,"▁cường_quốc":12464,"▁chính_hãng":12465,"▁Bao":12466,"▁biệt_danh":12467,"▁chấn_động":12468,"▁Ứ":12469,"▁triều_đ":12470,"▁visa":12471,"nổ":12472,"rừng":12473,"▁Ram":12474,"▁Gen":12475,"▁thụ_lý":12476,"vết":12477,"▁đồ_d":12478,"▁Rom":12479,"▁nhập_cảnh":12480,"▁thế_lực":12481,"▁sóc_trăng":12482,"▁xúc_phạm":12483,"eron":12484,"m_động":12485,"▁Bộ_luật":12486,"▁nhân_dân_tệ":12487,"▁paul":12488,"▁điện_biên":12489,"▁kích_động":12490,"▁đóng_gói":12491,"▁Vị_trí":12492,"▁BBC":12493,"▁phạm_nhân":12494,"ug":12495,"▁đồng_phạm":12496,"▁Tiên":12497,"▁sẹo":12498,"▁Or":12499,"t_nuôi":12500,"▁cục_bộ":12501,"▁Toán":12502,"▁hoàn_":12503,"▁phái":12504,"▁hội_trường":12505,"▁si":12506,"Thủy":12507,"84":12508,"▁gợi":12509,"▁hoàn_kiếm":12510,"▁An_toàn":12511,"ved":12512,"Kiếm":12513,"▁chảo":12514,"▁1.9":12515,"▁khỏa":12516,"▁bẻ":12517,"▁xoa":12518,"▁Tiến_sĩ":12519,"Quân":12520,"▁ngoạ":12521,"nhẫn":12522,"▁con_tin":12523,"_Lắk":12524,"▁Khắc":12525,"▁môn_thi":12526,"▁bê_bối":12527,"itan":12528,"▁tuổi_thọ":12529,"▁chật":12530,"▁bình_minh":12531,"▁Tại_":12532,"▁Đắk_Lắk":12533,"ng_hình":12534,"▁viễ":12535,"▁Vụ_việc":12536,"▁UN":12537,"56":12538,"n_lâm":12539,"▁vật_nuôi":12540,"▁quý_h":12541,"▁nv":12542,"▁hình_tượng":12543,"▁xác_lập":12544,"▁quy_luật":12545,"▁bình_phước":12546,"▁THA":12547,"mann":12548,"▁giai_điệu":12549,"_đo":12550,"▁mới_lạ":12551,"▁Mù":12552,"▁Hoàn_Kiếm":12553,"▁côn_trùng":12554,"▁phương_hướng":12555,"▁xay":12556,"▁sức_hút":12557,"▁phạm_l":12558,"quán":12559,"▁Vina":12560,"▁25.000":12561,"_chỉ":12562,"_dành":12563,"▁Del":12564,"▁thực_tập":12565,"▁manh_":12566,"▁phản_cảm":12567,"▁Biển":12568,"▁For":12569,"▁Thầy":12570,"▁biển_Đông":12571,"IỂ":12572,"▁râu":12573,"▁asia":12574,"▁sôi":12575,"▁tàn_phá":12576,"▁náo":12577,"mit":12578,"▁2,3":12579,"▁hội_tụ":12580,"▁chào_đời":12581,"▁trầm_cảm":12582,"▁tiêm_chủng":12583,"c_nuối":12584,"jokovic":12585,"▁Tất_nhiên":12586,"▁kích_cỡ":12587,"_thềm":12588,"▁hiệp_ước":12589,"▁series":12590,"▁Đoạn":12591,"▁bàn_bạc":12592,"▁1972":12593,"▁thành_đạt":12594,"pha":12595,"▁trái_ch":12596,"▁iPad":12597,"87":12598,"▁trăng":12599,"t_vọng":12600,"air":12601,"▁liga":12602,"ng_đế":12603,"▁tinh_vi":12604,"chịu":12605,"ican":12606,"▁Paul":12607,"▁điề":12608,"ng_nước":12609,"tr":12610,"▁quý_hiếm":12611,"▁daily":12612,"_liêm":12613,"ỉu":12614,"▁siêu_âm":12615,"▁tuổi_thơ":12616,"▁HP":12617,"_lô":12618,"▁từ_liêm":12619,"▁Tại_sao":12620,"▁Vịnh":12621,"ruz":12622,"ƯƠ":12623,"▁2021":12624,"▁arab":12625,"port":12626,"▁Hương_":12627,"dl":12628,"▁khí_thải":12629,"▁Liga":12630,"▁nguội":12631,"▁Thủ_Đức":12632,"▁ngoại_ô":12633,"▁Sẽ":12634,"▁dấu_vết":12635,"_trăm":12636,"▁tiếc_nuối":12637,"▁nghỉ_lễ":12638,"▁day":12639,"▁khiêu_khích":12640,"▁Bản_":12641,"▁ly_khai":12642,"▁tor":12643,"▁Thời_điểm":12644,"▁nhức":12645,"_quả":12646,"_Liêm":12647,"▁thương_nhân":12648,"▁102":12649,"ẠI":12650,"▁Thống_kê":12651,"▁tràn_ngập":12652,"▁lũy":12653,"▁Từ_Liêm":12654,"▁Đại_sứ_quán":12655,"▁cent":12656,"ƯƠNG":12657,"▁Liên_bang":12658,"▁cầu_c":12659,"▁cá_thể":12660,"▁Thăng":12661,"▁thiếu_tướng":12662,"▁hòn":12663,"i_kéo":12664,"▁Sup":12665,"▁Quyền":12666,"dam":12667,"▁phần_trăm":12668,"370":12669,"m_chứng":12670,"▁bàng_hoàng":12671,"▁khán_đài":12672,"ula":12673,"▁Chỉ_huy":12674,"▁Quan":12675,"n_đe":12676,"▁vĩnh_long":12677,"▁BOT":12678,"ng_liêng":12679,"▁đầu_thú":12680,"81":12681,"▁bệnh_lý":12682,"ng_mạch":12683,"▁chạy_đua":12684,"▁tội_ác":12685,"úng_túng":12686,"cổ":12687,"▁cand":12688,"▁giơ":12689,"▁kêu_cứu":12690,"▁tướ":12691,"▁răn_đe":12692,"▁mẫu_m":12693,"▁Viết":12694,"vich":12695,"m_sinh":12696,"▁đám_m":12697,"▁Web":12698,"▁Tiêu_":12699,"▁kíp":12700,"▁bao_vây":12701,"▁utd":12702,"▁lũ_lụt":12703,"▁Điện_Biên":12704,"ason":12705,"▁tiêu_đề":12706,"▁lôi_kéo":12707,"▁5,5":12708,"▁nguy_hại":12709,"▁thiêng_liêng":12710,"▁tự_mình":12711,"n_qu":12712,"▁nhị":12713,"ầm_lẫn":12714,"▁Đo":12715,"▁rưỡi":12716,"▁Chỉ_thị":12717,"ng_rắn":12718,"_côi":12719,"ỏm":12720,"▁khă":12721,"▁lại_":12722,"▁Biết":12723,"▁từ_đường":12724,"▁sườn":12725,"▁twitter":12726,"gủ":12727,"▁Sw":12728,"▁thuyết":12729,"ngủ":12730,"▁112":12731,"▁hoạt_hình":12732,"▁all":12733,"Hoa":12734,"▁sót":12735,"▁ồ_ạt":12736,"▁đột_nhiên":12737,"▁cứng_rắn":12738,"▁Buổi":12739,"▁Biên_phòng":12740,"▁sắc_":12741,"▁Sóc_Trăng":12742,"▁grand":12743,"▁nhân_công":12744,"_vợ":12745,"▁kiên_nhẫn":12746,"▁Gần_đây":12747,"▁hưng_yên":12748,"▁ngụy":12749,"▁Kỷ":12750,"field":12751,"_chọn":12752,"▁TỔ":12753,"▁áo_khoác":12754,"▁bánh_mì":12755,"▁bình_dân":12756,"ye":12757,"▁Tiên_":12758,"▁Kết_thúc":12759,"▁ke":12760,"▁chủn":12761,"▁Gar":12762,"▁âu":12763,"_được":12764,"▁Clip":12765,"▁Tây_":12766,"▁chủng":12767,"▁lắc":12768,"▁Nhà_hát":12769,"m_đầu":12770,"uri":12771,"aniel":12772,"▁101":12773,"aeda":12774,"▁hă":12775,"▁mệnh_giá":12776,"▁hông":12777,"▁113":12778,"▁vĩnh_phúc":12779,"▁Utd":12780,"▁đấm":12781,"▁mttq":12782,"urt":12783,"▁MTTQ":12784,"▁xì":12785,"ắc_màu":12786,"▁Lễ_hội":12787,"▁Dự_báo":12788,"▁dược_phẩm":12789,"▁khích":12790,"▁Bảy":12791,"▁clinton":12792,"▁trô":12793,"▁xổ":12794,"▁Định":12795,"▁lúng_túng":12796,"▁đồ_dùng":12797,"▁california":12798,"▁Khanh":12799,"▁tiện_lợi":12800,"▁Clinton":12801,"▁Bị_cáo":12802,"_mi":12803,"dũng":12804,"▁trăn_trở":12805,"▁phần_thưởng":12806,"n_dựng":12807,"▁sức_sống":12808,"▁khu_trục":12809,"azz":12810,"▁California":12811,"▁trái_chiều":12812,"ame":12813,"▁tai_nghe":12814,"án_học":12815,"▁Dùng":12816,"▁dinh":12817,"▁run":12818,"▁bàn_phím":12819,"▁Địa":12820,"▁12%":12821,"▁mồ_côi":12822,"▁đu":12823,"▁chiều_hướng":12824,"▁tái_xuất":12825,"▁oz":12826,"▁Bình_Phước":12827,"▁thuộ":12828,"▁DA":12829,"ene":12830,"▁địa_chính":12831,"▁Daily":12832,"lỏng":12833,"▁gạt":12834,"▁nước_nhà":12835,"▁tín_ngưỡng":12836,"▁sản":12837,"▁hài_cốt":12838,"▁dàn_dựng":12839,"▁căn_bản":12840,"▁vol":12841,"▁Tương_tự":12842,"▁hậu_cần":12843,"▁Duyên":12844,"▁ngoại_trừ":12845,"ng_ghép":12846,"▁mềm_mại":12847,"ati":12848,"▁dặm":12849,"▁hoàn_trả":12850,"cer":12851,"_xử":12852,"▁cầm_đầu":12853,"▁Oanh":12854,"▁ghi_âm":12855,"▁Điện_lực":12856,"_phì":12857,"Liêu":12858,"PL":12859,"ific":12860,"▁dịu":12861,"▁Nghĩ":12862,"▁cầu_thang":12863,"_tọa":12864,"▁trại_giam":12865,"n_hướng":12866,"▁lão_hóa":12867,"▁gián_tiếp":12868,"ider":12869,"ân_viên":12870,"_hoại":12871,"▁khải":12872,"▁măng":12873,"▁lấy_được":12874,"nhân_viên":12875,"▁2,4":12876,"eva":12877,"▁nhân_loại":12878,"▁xám":12879,"▁won":12880,"▁mác":12881,"tic":12882,"n_mạch":12883,"▁sáng_chế":12884,"▁Phân_":12885,"▁cúc":12886,"▁fi":12887,"▁ráo":12888,"▁giáng_sinh":12889,"▁bẩ":12890,"n_nghị":12891,"lobal":12892,"▁youtube":12893,"▁hà_nam":12894,"▁logi":12895,"▁thừa_th":12896,"▁micro":12897,"_trễ":12898,"▁Hưng_Yên":12899,"_mạo":12900,"▁phân_h":12901,"▁công_nhân_viên":12902,"▁Trách":12903,"▁Hiển":12904,"▁phím":12905,"▁chồ":12906,"_tum":12907,"uck":12908,"_tan":12909,"▁bạc_l":12910,"t_lui":12911,"▁chuyển_hướng":12912,"▁chi_bộ":12913,"▁Vụ_trưởng":12914,"▁dr":12915,"m_cười":12916,"▁công_đoạn":12917,"▁tù_nhân":12918,"▁trào_lưu":12919,"n_nàn":12920,"▁bạc_liêu":12921,"▁án_phạt":12922,"▁Bal":12923,"otland":12924,"cảnh":12925,"▁kon_tum":12926,"▁Quảng":12927,"▁Tuyến":12928,"igeria":12929,"▁hiền_lành":12930,"▁con_gi":12931,"▁Liên_Hợp":12932,"red":12933,"▁thụy_sĩ":12934,"▁Vĩnh_Long":12935,"▁rút_lui":12936,".100":12937,"▁Bản_thân":12938,"ng_khiếu":12939,"▁jo":12940,"▁Hội_thảo":12941,"▁Phụ_lục":12942,"59":12943,"51":12944,"▁Vĩnh_Phúc":12945,"▁phàn_nàn":12946,"▁mỳ":12947,"▁trái_ngược":12948,"elly":12949,"SD":12950,"▁Dầu_":12951,"▁chủ_quán":12952,"▁nhầm_lẫn":12953,"rat":12954,"_dư":12955,"▁cảm_động":12956,"▁mỉm_cười":12957,"▁bỏ_rơi":12958,"▁8%":12959,"▁He":12960,"_voi":12961,"▁Tor":12962,"▁Tạ":12963,"▁Chiến_l":12964,"▁ruồi":12965,"▁bẩm_sinh":12966,"▁1978":12967,"_sấu":12968,"▁diệp":12969,"i_mộ":12970,"▁thông_cáo":12971,"▁chung_sống":12972,"▁Bảo_tàng":12973,"▁One":12974,"▁mp":12975,"▁hít":12976,"van":12977,"▁tán_thành":12978,"_sâu":12979,"▁hack":12980,"ng_lái":12981,"▁người_quen":12982,"▁Cán_bộ":12983,"▁rẫy":12984,"apixel":12985,"▁Thụy_Sĩ":12986,"▁kinh_điển":12987,"▁Quyên":12988,"▁Liên_Hợp_Quốc":12989,"▁Chỉ_số":12990,"▁tinh_trùng":12991,"▁chéo":12992,"ys":12993,"▁nguyên_tử":12994,"_nghệ":12995,"▁Chấp_hành":12996,"▁cẩu":12997,"▁Sai":12998,"n_áp":12999,"▁ngứa":13000,"cụ":13001,"▁Bol":13002,"▁240":13003,"▁Không_quân":13004,"_loạn":13005,"▁hcv":13006,"cỏ":13007,"▁1968":13008,"kiều":13009,"▁1,7":13010,"▁lim":13011,"▁cởi":13012,"ánh_án":13013,"▁Trận":13014,"▁phiế":13015,"▁khung_cảnh":13016,"▁tử_thi":13017,"▁Điện_B":13018,"▁phi_hành":13019,"▁Lịch_sử":13020,"▁logo":13021,"▁canh_":13022,"i_hùng":13023,"▁Dự_thảo":13024,"▁hạn_h":13025,"bão":13026,"▁hối":13027,"▁canxi":13028,"over":13029,"▁Liên_hợp_quốc":13030,"▁tthc":13031,"▁xạ":13032,"▁Bạc_":13033,"▁ách":13034,"imes":13035,"▁hết_l":13036,"▁mạn":13037,"IN":13038,"▁giòn":13039,"▁bikini":13040,"▁rung_":13041,"▁ưa_thích":13042,"▁HCV":13043,"▁star":13044,"▁bản_tin":13045,"n_mục":13046,"▁ANT":13047,"▁Khải":13048,"ng_dậy":13049,"▁sơ_mi":13050,"▁320":13051,"u_nhiên":13052,"i_đội":13053,"luồng":13054,"▁khảo_cổ":13055,"▁chủng_loại":13056,"▁sân_cỏ":13057,"▁mad":13058,"▁Tom":13059,"▁nat":13060,"avi":13061,"▁Trách_nhiệm":13062,"▁công_lý":13063,"osk":13064,"▁zing":13065,"▁trắ":13066,"▁Go":13067,"▁yêu_đ":13068,"▁hộp_số":13069,"▁há":13070,"▁rầ":13071,"▁TTHC":13072,"▁an_ủi":13073,"▁sinh_động":13074,"▁Bảo_hiểm":13075,"esel":13076,"_chép":13077,"▁đáp_lại":13078,"ika":13079,"gười":13080,"▁vnexpress":13081,"ret":13082,"▁họng":13083,"_in":13084,"▁tiêu_chảy":13085,"▁vô_tư":13086,"Thanh":13087,"▁1976":13088,"_thục":13089,"▁ngẫu_nhiên":13090,"▁nghi_":13091,"▁vina":13092,"Tre":13093,"▁hình_dáng":13094,"▁lãnh_sự":13095,"▁Nguyên_đán":13096,"▁ngoạn_mục":13097,"▁dân_thường":13098,"▁quy_tụ":13099,"▁tây_ninh":13100,"n_hải":13101,"▁Tám":13102,"▁di_":13103,"▁Hà_Nam":13104,"i_sắc":13105,"▁thanh_bình":13106,"▁Đan_":13107,"▁bắc_bộ":13108,"n_ý":13109,"5.000":13110,"▁bến_tre":13111,"▁kiểm_nghiệm":13112,"ribank":13113,"iếu_niên":13114,"▁nhỏ_nh":13115,"▁nhiệt_điện":13116,"ƯỜNG":13117,"▁sứ_mệnh":13118,"▁trễ":13119,"▁chung_thân":13120,"▁mụ":13121,"▁Đánh_giá":13122,"▁vực":13123,"_bằng":13124,"▁Twitter":13125,"▁Vùng":13126,"▁Chính_quyền":13127,"▁Hướng_dẫn":13128,"▁christ":13129,"▁12.000":13130,"▁liều_":13131,"▁binh_lính":13132,"▁cô_lập":13133,"▁Trưởng_Ban":13134,"▁gọ":13135,"_muốn":13136,"▁CO":13137,"▁il":13138,"▁nể":13139,"▁đụng":13140,"▁uyên":13141,"▁lồng_ghép":13142,"cean":13143,"▁Bức":13144,"even":13145,"_kim":13146,"ase":13147,"▁sành_":13148,"ng_nhạc":13149,"duyệt":13150,"▁phát_tán":13151,"▁mịn":13152,"▁phân_luồng":13153,"▁khởi_sắc":13154,"▁đầu_g":13155,"▁sơ_kết":13156,"vel":13157,"Trường":13158,"▁Bạc_Liêu":13159,"▁ngoại_hối":13160,"▁Danh_sách":13161,"▁sâm":13162,"ỞNG":13163,"▁đẫm":13164,"▁phát_n":13165,"▁chuyên_dùng":13166,"người":13167,"▁Quế":13168,"bs":13169,"▁Yê":13170,"▁You":13171,"▁Ngân_sách":13172,"▁nóc":13173,"▁Muốn":13174,"▁hấp_thụ":13175,"ƯỞNG":13176,"▁đại_lộ":13177,"▁ý_muốn":13178,"▁Tới":13179,"▁tàng_trữ":13180,"▁cá_m":13181,"▁thoại":13182,"▁aff":13183,"▁thăng_hoa":13184,"▁Thừa_":13185,"▁\\":13186,"▁Học":13187,"▁dong":13188,"▁Xử":13189,"▁khởi_điểm":13190,"▁Sử_dụng":13191,"n_Tum":13192,"ng_vàng":13193,"▁tùy_chọn":13194,"▁Kon_Tum":13195,"▁south":13196,"▁chủ_quản":13197,"▁thừa_kế":13198,"▁Mô":13199,"▁nhân_quyền":13200,"▁tất_yếu":13201,"▁dân_dụng":13202,"57":13203,"Công":13204,"▁đo_lường":13205,"▁xê":13206,"▁độ_sâu":13207,"▁Quỷ":13208,"▁Điể":13209,"▁Lượng":13210,"IM":13211,"▁super":13212,"▁béo_phì":13213,"ER":13214,"▁giả_mạo":13215,"▁bứ":13216,"▁Truyền_hình":13217,"imbank":13218,"ốc_liệt":13219,"▁nam_phi":13220,"▁NV":13221,"▁công_dụng":13222,"▁6%":13223,"▁kinh_ngạc":13224,"▁Christ":13225,"▁điều_phối":13226,"i_phí":13227,"▁Sport":13228,"a_chua":13229,"▁dĩ_nhiên":13230,"▁group":13231,"▁hứng_thú":13232,"▁quan_trắc":13233,"_giáp":13234,"▁cuộc_chơi":13235,"▁seoul":13236,"▁nhận_dạng":13237,"ẫn_nộ":13238,"▁chính_quy":13239,"▁Ri":13240,"▁lộng_lẫy":13241,"▁Quá_trình":13242,"ng_lúc":13243,"▁đặc_quyền":13244,"▁khốc_liệt":13245,"_ranh":13246,"▁hạch_toán":13247,"▁Cặp":13248,"▁fifa":13249,"▁lạnh_lùng":13250,"▁thời_lượng":13251,"▁tương_đồng":13252,"mb":13253,"▁Cuộc_sống":13254,"ko":13255,"rop":13256,"Tâm":13257,"▁sắc_màu":13258,"▁hét":13259,"▁vượt_b":13260,"_hổng":13261,"▁thích_ứng":13262,"▁hữu_hiệu":13263,"Khê":13264,"▁Seoul":13265,"▁Chính_sách":13266,"▁cù":13267,"▁khao":13268,"▁năng_khiếu":13269,"▁ghi_chép":13270,"▁mạnh_tay":13271,"▁trước_thềm":13272,"▁chất_x":13273,"▁pet":13274,"▁BT":13275,"▁dòng_nhạc":13276,"▁mẫu_giáo":13277,"stag":13278,"▁Phố":13279,"▁xanh_":13280,"▁khuyến_nghị":13281,"_thám":13282,"hụt":13283,"▁Nam_Phi":13284,"▁truy_đuổi":13285,"▁nhện":13286,"▁chuyển_hóa":13287,"▁128":13288,"▁phế_liệu":13289,"_cứng":13290,"▁gỡ_hòa":13291,"▁ưu_":13292,"▁phát_nổ":13293,"adi":13294,"illary":13295,"▁giỏ":13296,"▁fed":13297,"▁big":13298,"▁con_dấu":13299,"▁ướp":13300,"_chuyển":13301,"▁tay_đua":13302,"▁Công_trình":13303,"gộ":13304,"a_cam":13305,"▁art":13306,"▁dã_man":13307,"▁hồn_nhiên":13308,"▁hội_thi":13309,"▁Nông":13310,"▁Tình_trạng":13311,"_dầu":13312,"▁thiên_thần":13313,"▁đắng":13314,"▁quái_":13315,"▁FA":13316,"amas":13317,"▁Tây_Ninh":13318,"▁Giấy_phép":13319,"▁ghe":13320,"▁giám":13321,"n_mạo":13322,"200":13323,"▁Grand":13324,"alo":13325,"lus":13326,"din":13327,"▁Tố":13328,"▁dễ_chịu":13329,"vương":13330,"▁cá_sấu":13331,"▁Km":13332,"▁1973":13333,"▁rod":13334,"amilk":13335,"n_nạn":13336,"▁đỉ":13337,"▁nhân_khẩu":13338,"▁điều_dưỡng":13339,"a_k":13340,"▁Giải_thưởng":13341,"▁Hành":13342,"▁vắt":13343,"▁hội_chứng":13344,"ngộ":13345,"▁ngôi_vị":13346,"▁Vốn":13347,"▁khát_vọng":13348,"▁card":13349,"n_đơn":13350,"▁FIFA":13351,"ng_cự":13352,"▁Hàng_không":13353,"▁ceo":13354,"omberg":13355,"▁mưu_sinh":13356,"▁búp_bê":13357,"erkel":13358,"▁tur":13359,"▁Cơ_sở":13360,"▁Phù":13361,"▁Ă":13362,"▁Han":13363,"▁trung_tá":13364,"▁quân_khu":13365,"▁3.0":13366,"▁Mil":13367,"_thánh":13368,"▁South":13369,"▁Nạn_nhân":13370,"lao":13371,"bert":13372,"n_núi":13373,"▁lầu":13374,"▁khú":13375,"▁đắc_cử":13376,"▁con_vật":13377,"▁tấp":13378,"n_báo":13379,"▁Par":13380,"▁80.000":13381,"▁Nguyệt":13382,"▁mép":13383,"▁Tổng_hợp":13384,"▁điển_trai":13385,"▁lý_lịch":13386,"▁ford":13387,"▁ngả":13388,"▁Vẫn":13389,"▁ít_khi":13390,"▁phản_biện":13391,"▁Osc":13392,"▁CEO":13393,"bài":13394,"uyết_m":13395,"Net":13396,"▁tạo_dựng":13397,"oke":13398,"▁tưởng_chừng":13399,"▁kệ":13400,"▁phẫn_nộ":13401,"▁Bến_Tre":13402,"▁Thú":13403,"▁dẻo":13404,"▁tái_ch":13405,"▁thoa":13406,"▁cast":13407,"igan":13408,"▁lat":13409,"chánh":13410,"be":13411,"m_ứng":13412,"▁hộ_tịch":13413,"▁Hậu_":13414,"▁hình_như":13415,"▁Ca_sĩ":13416,"▁vác":13417,"_Đình":13418,"▁đón_tiếp":13419,"▁nghèo_kh":13420,"▁dung_dịch":13421,"▁hollywood":13422,"▁tk":13423,"▁cú_đúp":13424,"▁động_mạch":13425,"▁tech":13426,"nh_vượng":13427,"lov":13428,"_dịch":13429,"▁Rod":13430,"_tổ":13431,"▁oscar":13432,"òm":13433,"▁thi_tuyển":13434,"▁lạ_l":13435,"▁hỏ":13436,"▁tq":13437,"▁Bệnh":13438,"▁Yên":13439,"n_vợt":13440,"▁lữ_hành":13441,"ân_chuyển":13442,"▁Câu_chuyện":13443,"ni":13444,"bus":13445,"▁thâm_hụt":13446,"▁1974":13447,"ori":13448,"▁diesel":13449,"Dũng":13450,"điệu":13451,"▁chiêu_mộ":13452,"▁da_cam":13453,"▁Yêu_cầu":13454,"▁côn_đồ":13455,"u_hàng":13456,"castle":13457,"▁Toàn_bộ":13458,"▁lòng_người":13459,"ng_cười":13460,"errari":13461,"▁Cô_gái":13462,"▁đám_mây":13463,"▁70.000":13464,"i_dối":13465,"▁mùa_bóng":13466,"▁TQ":13467,"xo":13468,"▁Er":13469,"▁lỗ_hổng":13470,"ersie":13471,"▁Hollywood":13472,"stagram":13473,"▁bản_địa":13474,"▁hơi_thở":13475,"▁trổ":13476,"▁bom_tấn":13477,"▁sắm":13478,"▁lừ":13479,"▁chay":13480,"▁biến_dạng":13481,"▁ngỏ":13482,"▁sào":13483,"▁gặ":13484,"▁khoai_tây":13485,"▁Khang":13486,"_lắp":13487,"▁Văn_bản":13488,"▁lin":13489,"▁Vân_":13490,"celotti":13491,"▁Chi_phí":13492,"▁pu":13493,"▁Í":13494,"▁vành":13495,"▁laser":13496,"▁hỗn_loạn":13497,"▁bg":13498,"iên_huế":13499,"▁thừa_thiên_huế":13500,"▁BID":13501,"▁lời_h":13502,"▁nhanh_nh":13503,"los":13504,"▁Ngoại_hạng":13505,"▁bàn_thua":13506,"▁Lại":13507,"òe":13508,"▁hạm_đội":13509,"▁Cộng_sản":13510,"▁Máy_bay":13511,"▁bạo_hành":13512,"▁Hình":13513,"▁Jo":13514,"sơ":13515,"▁chô":13516,"ng_kỳ":13517,"▁tâm_linh":13518,"▁Nhậ":13519,"▁thượng_tá":13520,"▁by":13521,"▁Mel":13522,"▁diện_mạo":13523,"▁Oscar":13524,"▁xuyên_":13525,"▁Phật":13526,"▁khỏa_thân":13527,"▁luân_chuyển":13528,"▁mich":13529,"▁phòng_khách":13530,"▁4%":13531,"_trặc":13532,"ng_nhiên":13533,"▁khích_lệ":13534,"book":13535,"▁ku":13536,"Mã":13537,"▁hủy_hoại":13538,"ega":13539,"▁Ford":13540,"▁đo_đạc":13541,"▁lạc_hậu":13542,"▁Thống_đốc":13543,"▁Rich":13544,"▁sant":13545,"▁tân_bình":13546,"▁Lợ":13547,"▁mái_nhà":13548,"▁phụ_tùng":13549,"▁toàn_thân":13550,"▁lâm_sàng":13551,"▁hồi_hộp":13552,"▁hoạch_định":13553,"_báu":13554,"ruguay":13555,"ung_lũng":13556,"▁đực":13557,"asa":13558,"iff":13559,"▁đa_năng":13560,"▁TK":13561,"▁Sự_việc":13562,"_cầu":13563,"▁Com":13564,"▁109":13565,"▁phong_tục":13566,"▁hung_khí":13567,"Huế":13568,"giản":13569,"u_hiệu":13570,"bột":13571,"▁1,1":13572,"▁stress":13573,"▁giáp_ranh":13574,"news":13575,"▁âm_đ":13576,"▁nói_dối":13577,"▁Uyên":13578,"▁kiên_cố":13579,"▁rầm_r":13580,"▁trọng_tải":13581,"▁ba_đình":13582,"▁kv":13583,"▁cốt_l":13584,"khát":13585,"▁ninh_thuận":13586,"▁trục_trặc":13587,"sin":13588,"▁tật":13589,"Trà":13590,"▁kết_án":13591,"quỵ":13592,"▁biểu_quyết":13593,"▁xoài":13594,"▁tạm_ứng":13595,"▁barack":13596,"▁lặng":13597,"i_Châu":13598,"i_cơ":13599,"a_chỉ":13600,"▁giao_thừa":13601,"▁lắc_đầu":13602,"▁đẩy_l":13603,"▁đầu_đạn":13604,"▁thiên_đường":13605,"▁Lời":13606,"_hoãn":13607,"▁hao":13608,"▁Đang":13609,"▁THỦ":13610,"▁Barack":13611,"▁ủy_thác":13612,"▁tó":13613,"▁dấy":13614,"▁981":13615,"▁ngạch":13616,"▁hỏi_thăm":13617,"▁xe_l":13618,"i_lòng":13619,"▁xâm_lược":13620,"▁áp_sát":13621,"▁2.6":13622,"▁đơn_phương":13623,"ng_chân":13624,"▁bất_bình":13625,"▁cách_ly":13626,"▁hành_xử":13627,"ald":13628,"▁cải_l":13629,"▁bur":13630,"▁giải_khát":13631,"aba":13632,"▁hoàng_mai":13633,"LT":13634,"▁ưu_ái":13635,"u_long":13636,"ộn_nh":13637,"▁Tân_Bình":13638,"▁Mich":13639,"ather":13640,"▁phong_thủy":13641,"▁Diệp":13642,"▁trèo":13643,"▁mít":13644,"▁Công_đoàn":13645,"▁Bó":13646,"▁AC":13647,"▁mỹ_đình":13648,"▁Tông":13649,"▁Hen":13650,"▁AD":13651,"▁Lộ":13652,"_lụy":13653,"▁độc_thân":13654,"▁Ba_Đình":13655,"n_sẻ":13656,"_tươi":13657,"▁cải_lương":13658,"▁sành_điệu":13659,"▁bùng":13660,"▁massage":13661,"▁Vật_":13662,"▁đá_phạt":13663,"▁tham_chiếu":13664,"▁thích_nghi":13665,"▁thịnh_vượng":13666,"▁xa_xôi":13667,"▁máy_chủ":13668,"▁Tiêu_ch":13669,"▁xe_b":13670,"t_khao":13671,"▁Tứ":13672,"▁form":13673,"vã":13674,"▁phương_châm":13675,"▁đậm_đ":13676,"n_gàng":13677,"▁bô":13678,"▁thấu":13679,"▁Sức_":13680,"▁ngang_nhiên":13681,"una":13682,"▁thông_thoáng":13683,"▁phen":13684,"▁Mấy":13685,"▁chính_trị_gia":13686,"▁tiếng_cười":13687,"▁hậu_trường":13688,"iat":13689,"▁pat":13690,"i_lửa":13691,"▁gọn_gàng":13692,"_diệt":13693,"▁h45":13694,"iger":13695,"▁vững_vàng":13696,"▁sắn":13697,"t_ơn":13698,"▁trắc_":13699,"ương_miện":13700,"ng_buộc":13701,"▁Hoàng_Mai":13702,"▁Mỹ_Đình":13703,"▁thống_trị":13704,"▁rảnh":13705,"▁nản":13706,"▁hoài_nghi":13707,"ashin":13708,"_trọt":13709,"▁Diện":13710,"▁bầu_chọn":13711,"ng_C":13712,"▁đáp_án":13713,"amaha":13714,"▁đầu_gối":13715,"▁bình_thạnh":13716,"▁VnE":13717,"i_sơn":13718,"▁đoàn_tàu":13719,"esta":13720,"▁tiện_nghi":13721,"▁mong_manh":13722,"cđ":13723,"vo":13724,"_đài":13725,"cos":13726,"▁2,7":13727,"▁mẹ_đẻ":13728,"▁ngôi_mộ":13729,"▁nam_bộ":13730,"▁để_dành":13731,"▁người_nghe":13732,"c_ngo":13733,"ng_phấn":13734,"iness":13735,"ương_đại":13736,"issan":13737,"ject":13738,"▁biên_độ":13739,"▁công_phu":13740,"▁Viễn":13741,"iên_hòa":13742,"jet":13743,"▁ràng_buộc":13744,"▁xổ_số":13745,"▁tham":13746,"▁long_biên":13747,"▁khởi_hành":13748,"▁boy":13749,"▁biên_hòa":13750,"▁palestine":13751,"▁rót":13752,"▁Ngược":13753,"▁Palestine":13754,"_trung_":13755,"▁chuyển_tiếp":13756,"▁Quyết":13757,"rac":13758,"▁kiện_toàn":13759,"▁mét_":13760,"▁Sant":13761,"▁bồn":13762,"CĐ":13763,"▁vladimir":13764,"quản":13765,"_địa":13766,"n_phim":13767,"▁giặt":13768,"▁Nâng_c":13769,"▁Vladimir":13770,"▁té":13771,"Phủ":13772,"▁chuyển_dịch":13773,"▁mtv":13774,"▁lân":13775,"▁thuầ":13776,"enter":13777,"▁hân":13778,"▁kính_":13779,"u_x":13780,"▁Biên_Hòa":13781,"▁biết_ơn":13782,"▁khơ":13783,"▁1977":13784,"▁bel":13785,"u_hồng":13786,"▁Long_Biên":13787,"▁Bình_Thạnh":13788,"▁lời_ch":13789,"isto":13790,"▁thỏa_đáng":13791,"▁Khả":13792,"▁đột_quỵ":13793,"▁tụi":13794,"c_liệu":13795,"exas":13796,"▁toàn_":13797,"▁pep":13798,"▁Châu_Á":13799,"▁diễu_hành":13800,"▁đương_đại":13801,"▁MTV":13802,"ue":13803,"illas":13804,"▁IP":13805,"▁vòng_tay":13806,"▁Chiến_lược":13807,"▁vội_vã":13808,"_diệu":13809,"▁điện_năng":13810,"▁bill":13811,"ever":13812,"▁áp_đảo":13813,"oga":13814,"lạnh":13815,"▁hủy_diệt":13816,"_phát":13817,"▁khai_giảng":13818,"olie":13819,"▁nhộn_nh":13820,"▁sát_thủ":13821,"▁tóm":13822,"_quy":13823,"ker":13824,"KH":13825,"▁live":13826,"▁ơn":13827,"▁tắc_":13828,"▁Chồng":13829,"▁Kính":13830,"▁BG":13831,"▁năng":13832,"ement":13833,"_chắn":13834,"▁trình_duyệt":13835,"▁Cổng":13836,"▁huân_chương":13837,"▁tần":13838,"kov":13839,"▁khắ":13840,"▁vận_tốc":13841,"▁gold":13842,"▁Cro":13843,"▁Cháu":13844,"▁quỹ_đạo":13845,"▁Mùa":13846,"▁nhốt":13847,"▁châu_lục":13848,"▁ế":13849,"soi":13850,"▁đa_c":13851,"▁Hôm_qua":13852,"▁ghi_chú":13853,"▁Zing":13854,"▁Trúc":13855,"▁quần_vợt":13856,"▁nhú":13857,"▁xót_xa":13858,"t_điện":13859,"▁cớ":13860,"▁Giữa":13861,"▁hành_hạ":13862,"▁cử_chỉ":13863,"_phong":13864,"▁lẩn":13865,"▁Kiệt":13866,"▁võ_thuật":13867,"c_sơn":13868,"▁khống":13869,"▁kỳ_diệu":13870,"▁Làng":13871,"▁Thông_báo":13872,"ave":13873,"▁dòng_nước":13874,"IS":13875,"iên_Huế":13876,"▁IM":13877,"▁khát_khao":13878,"▁Châu_Âu":13879,"t_đền":13880,"▁Blo":13881,"▁giặc":13882,"▁phạm_lỗi":13883,"▁lịch_trình":13884,"sd":13885,"▁bung":13886,"adda":13887,"ng_vệ":13888,"▁vương_miện":13889,"sy":13890,"▁đặc_tính":13891,"ift":13892,"wan":13893,"▁kho_bạc":13894,"▁trong_sạch":13895,"▁lời_hứa":13896,"▁gram":13897,"▁tỉ_m":13898,"_Mai":13899,"aden":13900,"▁6,5":13901,"▁post":13902,"kịch":13903,"▁SA":13904,"ng_họ":13905,"▁camp":13906,"▁phạt_đền":13907,"▁marketing":13908,"ng_chịu":13909,"ubai":13910,"▁điểm_m":13911,"xd":13912,"ức_phạt":13913,"▁cv":13914,"Thiên_Huế":13915,"▁phân_cách":13916,"▁Hân":13917,"▁Thừa_Thiên_Huế":13918,"i_kịch":13919,"▁Tal":13920,"▁nghi_lễ":13921,"▁hứng_chịu":13922,"▁màu_hồng":13923,"ailer":13924,"inn":13925,"▁ồn":13926,"▁Trình":13927,"▁vietinbank":13928,"▁trướ":13929,"▁thanh_long":13930,"illiams":13931,"chez":13932,"▁old":13933,"▁dự_tính":13934,"itar":13935,"▁sir":13936,"▁hose":13937,"ange":13938,"▁phá_giá":13939,"eto":13940,"▁bangkok":13941,"_nối":13942,"▁Me":13943,"năm":13944,"▁ANTĐ":13945,"n_đạt":13946,"▁antđ":13947,"ẤT":13948,"▁y_khoa":13949,"▁zealand":13950,"▁Dư":13951,"không":13952,"▁cốt_lõi":13953,"eri":13954,"▁trì_hoãn":13955,"▁sar":13956,"▁Big":13957,"_phỏng":13958,"n_nông":13959,"▁bánh_ch":13960,"▁Ban_đầu":13961,"oai":13962,"▁nội_trú":13963,"▁ros":13964,"▁dân_sinh":13965,"▁thực_khách":13966,"▁Fi":13967,"▁Tp":13968,"▁kẹp":13969,"▁kế_tiếp":13970,"▁vân_":13971,"cci":13972,"▁phi_cơ":13973,"▁venezuela":13974,"▁led":13975,"ím":13976,"▁danh_giá":13977,"▁Ninh_Thuận":13978,"▁Zealand":13979,"ght":13980,"▁tiền_":13981,"▁nhật_":13982,"▁đời_thường":13983,"▁young":13984,"▁Venezuela":13985,"▁thềm":13986,"▁Khối":13987,"▁lập_trình":13988,"▁tương_xứng":13989,"ãng_đường":13990,"châu":13991,"▁sừng":13992,"▁chậm_trễ":13993,"▁Chàng":13994,"soạn":13995,"▁triệt_phá":13996,"▁nhộn_nhịp":13997,"▁nội_y":13998,"▁thuở":13999,"▁đổ_vỡ":14000,"▁phao":14001,"▁CÁC":14002,"▁phil":14003,"▁gián_đoạn":14004,"▁1954":14005,"▁mường":14006,"t_mốc":14007,"▁đông_lạnh":14008,"▁atgt":14009,"▁Cos":14010,"▁out":14011,"▁xét_duyệt":14012,"▁đạm":14013,"icester":14014,"▁Liệu":14015,"addafi":14016,"_ngũ":14017,"vuông":14018,"quật":14019,"▁Star":14020,"▁Bangkok":14021,"▁ATGT":14022,"ze":14023,"▁yêu_qu":14024,"▁Plus":14025,"▁miễn_nhiệm":14026,"rea":14027,"m_nóng":14028,"▁Old":14029,"▁Bi":14030,"▁con_b":14031,"ets":14032,"▁phác":14033,"▁2,6":14034,"▁Phường":14035,"▁nước_hoa":14036,"▁CM":14037,"▁khẩu_hiệu":14038,"▁dè":14039,"i_ngộ":14040,"▁wenger":14041,"▁idol":14042,"_lí":14043,"i_lẽ":14044,"▁Mua":14045,"▁Wenger":14046,"_thốn":14047,"▁cẩn_trọng":14048,"▁Ku":14049,"▁lập_trường":14050,"_bắp":14051,"▁Nghi":14052,"t_s":14053,"▁em_":14054,"▁thẻ_đỏ":14055,"▁hàng_hiệu":14056,"m_vấn":14057,"t_khe":14058,"_tống":14059,"▁Sn":14060,"▁chuyện_tình":14061,"onetsk":14062,"▁hư_hại":14063,"▁Diễn_đàn":14064,"▁Siêu":14065,"▁trút":14066,"▁khắt_khe":14067,"▁Cúp":14068,"▁toán_học":14069,"▁Danh":14070,"▁Chi_nhánh":14071,"peria":14072,"▁quấn":14073,"_hấu":14074,"▁mặt_tiền":14075,"▁Ăn":14076,"▁cá_h":14077,"_trùm":14078,"▁3g":14079,"▁cầu_n":14080,"▁Sơ":14081,"yst":14082,"▁tỉa":14083,"▁ngà":14084,"▁thẩm_vấn":14085,"cắp":14086,"▁âm_đạo":14087,"▁Hang":14088,"▁dl":14089,"eed":14090,"▁vĩnh_hưng":14091,"▁thông_quan":14092,"▁vùng_v":14093,"ourn":14094,"▁vi_tính":14095,"▁Cam_":14096,"▁đầu_tay":14097,"▁lời_lẽ":14098,"▁thiếu_thốn":14099,"đài":14100,"_trệ":14101,"▁hưng_phấn":14102,"▁nic":14103,"▁lù":14104,"▁2,8":14105,"▁thang_máy":14106,"_cương":14107,"▁lui":14108,"▁đứng_dậy":14109,"▁Vĩnh_Hưng":14110,"▁Vương_":14111,"▁hệ_lụy":14112,"rahimovic":14113,"▁chinh":14114,"▁7,5":14115,"▁Sân_":14116,"▁fab":14117,"▁quặng":14118,"▁cao_bằng":14119,"▁sub":14120,"▁Vua":14121,"▁megapixel":14122,"▁búa":14123,"▁2.7":14124,"▁flor":14125,"esco":14126,"▁đầu_bếp":14127,"u_diễn":14128,"opter":14129,"▁Thí_sinh":14130,"▁bao_trùm":14131,"▁loài_":14132,"ng_kông":14133,"▁đánh_cắp":14134,"▁đội_quân":14135,"▁phú_quốc":14136,"▁chư":14137,"Kông":14138,"▁xuôi":14139,"▁đảo_chính":14140,"▁Crimea":14141,"▁lưỡ":14142,"▁AM":14143,"_rập":14144,"▁hồng_kông":14145,"▁Tuyên":14146,"▁vacc":14147,"evin":14148,"▁Thần":14149,"▁Viện_trưởng":14150,"▁Từng":14151,"▁dan":14152,"▁Đồng_chí":14153,"▁crimea":14154,"▁sin":14155,"▁phiền":14156,"▁mặn_m":14157,"▁Hiện_trường":14158,"▁sk":14159,"▁Tuần":14160,"▁Á_hậu":14161,"ayne":14162,"i_nhau":14163,"▁Giai_đ":14164,"▁gp":14165,"▁Quản":14166,"▁Hồng_Kông":14167,"▁kiev":14168,"▁vinh_quang":14169,"▁sưu_tầm":14170,"▁Bill":14171,"▁ăn_ch":14172,"▁Mad":14173,"▁Cửu_":14174,"▁Phú_Quốc":14175,"▁cà_r":14176,"ampton":14177,"t_lý":14178,"▁vé_số":14179,"▁Kiev":14180,"▁210":14181,"▁tàu_điện":14182,"▁CV":14183,"▁nông_lâm":14184,"▁Hung":14185,"star":14186,"▁Vo":14187,"▁Group":14188,"▁Vòng":14189,"▁phòng_học":14190,"_trán":14191,"▁thầm":14192,"▁sec":14193,"▁MP":14194,"▁huyề":14195,"▁đơn_hàng":14196,"▁tĩnh":14197,"_Động":14198,"▁tầm_trung":14199,"iku":14200,"▁kn":14201,"▁tâm_trí":14202,"▁2,1":14203,"▁4.2":14204,"▁bộ_binh":14205,"▁rub":14206,"eek":14207,"▁az":14208,"_linh":14209,"t_đỏ":14210,"u_mẫu":14211,"▁thời_sự":14212,"ƯT":14213,"▁mẫu_số":14214,"▁ông_xã":14215,"▁tiền_án":14216,"▁cửu_long":14217,"▁hal":14218,"▁95%":14219,"IDS":14220,"▁quãng_đường":14221,"▁AFF":14222,"▁Chiều_":14223,"▁munich":14224,"▁cảnh_tượng":14225,"n_suất":14226,"▁điểm_nóng":14227,"▁địa_danh":14228,"▁SHB":14229,"lĩnh":14230,"▁đắt_đỏ":14231,"ng_cai":14232,"XD":14233,"▁ưu_tú":14234,"Nghĩa":14235,"t_mẻ":14236,"▁3G":14237,"▁ký_hiệu":14238,"▁đông_đúc":14239,"▁Munich":14240,"▁ly_dị":14241,"sta":14242,"▁kiêng":14243,"▁cá_độ":14244,"▁3.3":14245,"▁chạm_trán":14246,"▁kỳ_nghỉ":14247,"▁Pep":14248,"▁song_ca":14249,"▁Kha":14250,"▁cột_mốc":14251,"▁môtô":14252,"emb":14253,"▁trói":14254,"▁đẩy_lùi":14255,"▁trước_tiên":14256,"▁SM":14257,"▁đồ_án":14258,"▁vietnamnet":14259,"ij":14260,"obel":14261,"▁xá":14262,"ava":14263,"itch":14264,"▁lai_châu":14265,"▁e_ngại":14266,"▁Sen":14267,"▁shb":14268,"▁sản_sinh":14269,"▁y_tá":14270,"▁đăng_cai":14271,"ẽo":14272,"_kín":14273,"_soạn":14274,"u_khó":14275,"▁hội_an":14276,"▁séc":14277,"▁siêu_sao":14278,"atra":14279,"▁Bình_Ch":14280,"diễn":14281,"▁med":14282,"▁bánh_xe":14283,"▁bộ_đồ":14284,"▁saudi":14285,"▁vuông":14286,"m_sút":14287,"ins":14288,"▁dẹp":14289,"▁Hội_An":14290,"▁pháp_nhân":14291,"▁cưa":14292,"▁Ha":14293,"▁xô_xát":14294,"▁đằng":14295,"▁giảm_sút":14296,"▁4.1":14297,"erb":14298,"▁XI":14299,"esl":14300,"▁sáng_tỏ":14301,"olo":14302,"▁cụm_từ":14303,"▁lén":14304,"ette":14305,"sey":14306,"▁Saudi":14307,"▁serie":14308,"▁tục":14309,"▁nụ_hôn":14310,"▁tạm_b":14311,"▁giáng":14312,"▁biên_soạn":14313,"▁cãi_nhau":14314,"▁lương_":14315,"▁los":14316,"▁1.300":14317,"oskva":14318,"▁cổ_tích":14319,"ition":14320,"ng_hành":14321,"i_biến":14322,"▁ách_tắc":14323,"▁nội_các":14324,"▁pixel":14325,"▁cừu":14326,"▁trán":14327,"▁KS":14328,"▁bình_phục":14329,"▁tuyên_án":14330,"▁hạm":14331,"▁Liên_hiệp":14332,"▁gật":14333,"▁công_chiếu":14334,"▁sữa_chua":14335,"▁dòng_họ":14336,"▁nil":14337,"▁DL":14338,"▁thành_phẩm":14339,"▁ngoa":14340,"▁đa_cấp":14341,"▁mất_ngủ":14342,"▁thầy_thuốc":14343,"▁trí_nhớ":14344,"evilla":14345,"▁xế":14346,"zuki":14347,"u_nh":14348,"ria":14349,"▁THU":14350,"▁nhịn":14351,"▁111":14352,"real":14353,"▁Fab":14354,"▁moon":14355,"hạch":14356,"hữu":14357,"wards":14358,"▁hung_h":14359,"▁dân_làng":14360,"▁Phil":14361,"▁chịu_khó":14362,"▁chủ_thể":14363,"▁vũ_lực":14364,"_khát":14365,"▁nhập_học":14366,"▁Tờ_trình":14367,"▁aids":14368,"▁TNO":14369,"ng_sợ":14370,"▁ăn_khách":14371,"▁đúng_lúc":14372,"▁tno":14373,"canh":14374,"▁benz":14375,"▁9x":14376,"n_nhất":14377,"▁lột":14378,"▁lục_":14379,"_tận":14380,"▁Sir":14381,"▁mức_phạt":14382,"DL":14383,"▁Lấy":14384,"▁mầm":14385,"▁hải_đảo":14386,"▁Bur":14387,"▁250.000":14388,"vân":14389,"gió":14390,"Bài":14391,"ban":14392,"▁maria":14393,"▁thường_ngày":14394,"ẢI":14395,"▁Lao_Động":14396,"▁cây_số":14397,"▁rơ":14398,"▁Cat":14399,"▁Đăng_ký":14400,"▁xua":14401,"▁truyệ":14402,"▁liên_quân":14403,"▁sờ":14404,"▁địa_ốc":14405,"i_phát":14406,"▁Cửu_Long":14407,"▁chập":14408,"▁Trấn":14409,"▁Dân_tộc":14410,"▁cực_đại":14411,"mãn":14412,"▁AIDS":14413,"ng_nhớ":14414,"▁DO":14415,"▁Chiến_tranh":14416,"▁kiệt_":14417,"▁141":14418,"▁nước_s":14419,"▁mr":14420,"▁đính":14421,"ifi":14422,"▁kl":14423,"▁Thanh_Xuân":14424,"▁thương_tâm":14425,"▁công_ước":14426,"_mê":14427,"▁núi_lửa":14428,"ista":14429,"ips":14430,"▁nồng_n":14431,"▁hữu_hạn":14432,"▁Tuyên_bố":14433,"▁phản_bội":14434,"_Hòa":14435,"▁mercedes":14436,"▁edu":14437,"▁quán_ăn":14438,"▁tpp":14439,"▁đk":14440,"▁tẩu_thoát":14441,"▁đàn_anh":14442,"▁bất_thành":14443,"▁116":14444,"▁Sim":14445,"▁thẻ_vàng":14446,"▁văn_chương":14447,"▁TPP":14448,"▁nến":14449,"_trạch":14450,"n_mức":14451,"▁tấm_v":14452,"▁sọ":14453,"▁Thẩ":14454,"▁vốn_hóa":14455,"hs":14456,"▁Xanh":14457,"▁sư_đoàn":14458,"▁Chất_":14459,"▁hậu_giang":14460,"▁dv":14461,"a_mạc":14462,"▁test":14463,"▁dân_ca":14464,"▁cất_":14465,"▁don":14466,"▁Trá":14467,"a_kém":14468,"▁oa":14469,"▁chol":14470,"▁Chủ_trì":14471,"▁cứu_":14472,"▁chấm_thi":14473,"▁1950":14474,"▁phúc_lợi":14475,"ung_linh":14476,"▁yahoo":14477,"▁230":14478,"▁khao_khát":14479,"won":14480,"▁Ib":14481,"▁Siêu_":14482,"▁thua_kém":14483,"▁max":14484,"▁trung_đoàn":14485,"▁nm":14486,"luật":14487,"▁ăn_c":14488,"▁trắc_nghiệm":14489,"phen":14490,"▁Maria":14491,"▁nội_soi":14492,"▁mô_phỏng":14493,"▁2.8":14494,"sưt":14495,"▁Lai_Châu":14496,"▁VnExpress":14497,"▁oda":14498,"▁kinh_dị":14499,"sót":14500,"ego":14501,"▁thiệt":14502,"▁tình_thương":14503,"▁thiếu_sót":14504,"▁ức_":14505,"▁Điện_Biên_":14506,"▁sinh_dục":14507,"▁nsưt":14508,"▁tình_cảnh":14509,"▁CAND":14510,"▁td":14511,"▁xây_lắp":14512,"▁cắt_bỏ":14513,"▁NSƯT":14514,"▁tiếp_diễn":14515,"▁neymar":14516,"▁xáo":14517,"▁thanh_thiếu_niên":14518,"▁Mercedes":14519,"nữ":14520,"▁hộ_tống":14521,"▁Liên_hoan":14522,"▁Gold":14523,"▁bóng_ch":14524,"▁3.5":14525,"▁Neymar":14526,"▁Phát_hiện":14527,"▁nov":14528,"c_ngoặt":14529,"▁anh_dũng":14530,"▁Tổng_số":14531,"▁độ_ẩm":14532,"gei":14533,"▁bản_vẽ":14534,"▁lum":14535,"▁Mời":14536,"▁Điện_thoại":14537,"▁sở_tại":14538,"▁BL":14539,"▁bà_ngoại":14540,"▁Camp":14541,"_tồn":14542,"▁Diễn_viên":14543,"▁Kinh_doanh":14544,"bp":14545,"▁tượng_trưng":14546,"▁duyê":14547,"▁Bel":14548,"▁mái_":14549,"▁cầu_nối":14550,"▁dưa_hấu":14551,"limex":14552,"▁Tham_gia":14553,"▁miệt_":14554,"▁quanh_năm":14555,"▁học_đường":14556,"▁ngày_thường":14557,"▁ms":14558,"n_đọng":14559,"▁pa":14560,"▁ân":14561,"▁Báo_chí":14562,"▁Thiếu_tướng":14563,"▁hối_hận":14564,"▁quốc_dân":14565,"▁cầu_kỳ":14566,"▁SC":14567,"▁Bắc_Bộ":14568,"Nhân":14569,"▁người_lạ":14570,"▁tồn_đọng":14571,"am_màu":14572,"▁chèn":14573,"c_địa":14574,"BP":14575,"▁bmw":14576,"▁cnn":14577,"▁diều":14578,"▁di_truyền":14579,"▁cao_quý":14580,"▁tiền_phong":14581,"▁Lou":14582,"idd":14583,"▁amer":14584,"▁war":14585,"_rút":14586,"ÁN":14587,"▁nhà_vua":14588,"▁kịch_tính":14589,"▁tần_suất":14590,"_thiên":14591,"▁tác_nghiệp":14592,"▁bất_hạnh":14593,"▁ĐK":14594,"▁BMW":14595,"wai":14596,"▁3,2":14597,"▁thảm_sát":14598,"ira":14599,"▁Tech":14600,"▁750":14601,"▁hoảng_sợ":14602,"▁0%":14603,"▁Thứ_hai":14604,"▁Tro":14605,"đào":14606,"arles":14607,"▁mủ":14608,"▁nò":14609,"regas":14610,"▁nguyên_vẹn":14611,"t_khoát":14612,"▁Los":14613,"▁bidv":14614,"▁tham_vấn":14615,"entine":14616,"▁All":14617,"▁apec":14618,"▁Vệ":14619,"▁35%":14620,"am_muốn":14621,"▁phái_đoàn":14622,"▁đích_thực":14623,"▁tổ_trưởng":14624,"▁xôi":14625,"▁sai_trái":14626,"▁vietcombank":14627,"▁cạ":14628,"athan":14629,"▁gai":14630,"gy":14631,"▁THỰC":14632,"bes":14633,"▁ám_sát":14634,"_vinh":14635,"ernab":14636,"▁SLNA":14637,"▁slna":14638,"▁đù":14639,"m_khuẩn":14640,"LC":14641,"▁dứt":14642,"▁thung_lũng":14643,"▁Đề_nghị":14644,"▁cơ_bắp":14645,"_Tết":14646,"▁Tiểu_học":14647,"▁Thiết_kế":14648,"▁lung_linh":14649,"▁ODA":14650,"▁tuổi_tác":14651,"Sơn_":14652,"chờ":14653,"m_đạm":14654,"rus":14655,"▁Young":14656,"▁tầm_":14657,"amascus":14658,"▁Tà":14659,"_nần":14660,"▁nhà_xưởng":14661,"n_phẩm":14662,"▁BIDV":14663,"▁ăn_ý":14664,"_tha":14665,"ng_lọc":14666,"▁rầm_rộ":14667,"▁vnpt":14668,"m_lực":14669,"ng_lễ":14670,"▁APEC":14671,"▁Bắt":14672,"▁kế_thừa":14673,"▁nhi_đồng":14674,"▁dừng_chân":14675,"▁lách":14676,"▁Tur":14677,"_đắng":14678,"▁bi_kịch":14679,"▁ste":14680,"▁htc":14681,"_siêu":14682,"jan":14683,"▁bảng_":14684,"▁mặn_mà":14685,"_xăng":14686,"hop":14687,"ree":14688,"apoli":14689,"▁Hậu_Giang":14690,"rian":14691,"▁CNN":14692,"▁sở_trường":14693,"yp":14694,"▁HTC":14695,"▁tần_số":14696,"_Gi":14697,"▁dược_liệu":14698,"▁cờ_bạc":14699,"▁sáng_giá":14700,"ennis":14701,"▁lên_sóng":14702,"▁cao_độ":14703,"▁cách_chức":14704,"▁Quỳnh_":14705,"▁tỉnh_lộ":14706,"n_đầy":14707,"dinh":14708,"nh_vỡ":14709,"▁võ_sĩ":14710,"▁Triều":14711,"▁kích_cầu":14712,"▁fc":14713,"▁Mười":14714,"▁coi_thường":14715,"iền_":14716,"▁bao_phủ":14717,"▁bất_tỉnh":14718,"▁phụ_trợ":14719,"▁Bộ_phận":14720,"Mạch":14721,"ernabeu":14722,"▁nude":14723,"▁lập_pháp":14724,"▁FC":14725,"▁bốc_":14726,"▁Flor":14727,"▁trọng_thương":14728,"olas":14729,"▁ham_muốn":14730,"▁chà":14731,"▁Vietcombank":14732,"▁chạy_trốn":14733,"▁yêu_quý":14734,"▁viết_tắt":14735,"▁123":14736,"▁Os":14737,"▁sa_mạc":14738,"▁port":14739,"▁tràn_đầy":14740,"▁Vườn":14741,"▁Po":14742,"▁Thư_ký":14743,"_QU":14744,"haw":14745,"▁red":14746,"▁Rõ":14747,"▁tưởng_nhớ":14748,"▁chích":14749,"▁vksnd":14750,"▁cá_mập":14751,"▁Pháp_luật":14752,"▁văn_kiện":14753,"underland":14754,"▁thể_hình":14755,"▁VKSND":14756,
[...]
